<pad>	0
<unk>	0
<s>	0
</s>	0
@@	-0
▁д	-1
ар	-2
▁т	-3
▁"	-4
▁б	-5
▁қ	-6
▁ж	-7
▁с	-8
▁а	-9
ан	-10
▁ы	-11
▁м	-12
▁і	-13
▁н	-14
ер	-15
ен	-16
ал	-17
▁.	-18
▁к	-19
▁,	-20
ст	-21
ық	-22
ет	-23
ың	-24
ын	-25
▁да	-26
▁қа	-27
▁ғ	-28
ыл	-29
▁о	-30
ақ	-31
▁-	-32
▁л	-33
ін	-34
▁е	-35
▁ды	-36
▁сы	-37
ік	-38
да	-39
▁де	-40
▁ді	-41
▁ө	-42
ек	-43
▁п	-44
ол	-45
ат	-46
▁ын	-47
ыс	-48
▁ба	-49
▁у	-50
ыр	-51
ия	-52
ір	-53
▁ның	-54
▁г	-55
ел	-56
із	-57
та	-58
стан	-59
▁мен	-60
▁лар	-61
▁тар	-62
ес	-63
ем	-64
іл	-65
ым	-66
алық	-67
▁ін	-68
ұр	-69
он	-70
ор	-71
ин	-72
ім	-73
▁ға	-74
ән	-75
ам	-76
зақ	-77
▁ш	-78
ыз	-79
▁ә	-80
▁жән	-81
▁және	-82
▁ке	-83
зақстан	-84
ай	-85
ас	-86
ің	-87
▁кө	-88
▁р	-89
▁ар	-90
▁2	-91
▁ған	-92
ау	-93
ик	-94
ығ	-95
▁ү	-96
▁қазақстан	-97
▁жыл	-98
▁ал	-99
▁лер	-100
тт	-101
арл	-102
ұл	-103
ом	-104
▁ор	-105
▁дың	-106
ша	-107
аң	-108
▁дар	-109
▁тер	-110
ег	-111
▁нің	-112
шы	-113
▁бол	-114
▁бас	-115
▁ай	-116
▁х	-117
ала	-118
▁жо	-119
лек	-120
▁э	-121
ғы	-122
ой	-123
▁та	-124
▁1	-125
▁20	-126
ур	-127
▁ге	-128
әс	-129
етт	-130
▁ып	-131
▁дің	-132
▁на	-133
▁ел	-134
▁қар	-135
де	-136
▁дер	-137
▁қат	-138
ба	-139
ту	-140
емлек	-141
▁ғы	-142
ция	-143
дық	-144
ді	-145
бл	-146
▁бір	-147
ынша	-148
▁құр	-149
ұм	-150
ағ	-151
ей	-152
▁мемлек	-153
▁те	-154
▁жұм	-155
лық	-156
▁жү	-157
▁ген	-158
ап	-159
▁ет	-160
▁ақ	-161
ика	-162
▁өз	-163
▁өт	-164
іс	-165
▁бой	-166
ды	-167
ден	-168
▁й	-169
▁ұ	-170
ев	-171
▁жұмыс	-172
▁бойынша	-173
дай	-174
алы	-175
▁ин	-176
▁эк	-177
▁201	-178
дік	-179
ов	-180
▁кел	-181
тан	-182
▁з	-183
▁сон	-184
▁дам	-185
іп	-186
іг	-187
ты	-188
▁көр	-189
▁пр	-190
▁үш	-191
кен	-192
еттік	-193
ыру	-194
еу	-195
стр	-196
ші	-197
▁ау	-198
▁қол	-199
▁ыл	-200
▁қыз	-201
▁кез	-202
▁бер	-203
▁ас	-204
ында	-205
▁тү	-206
▁ты	-207
▁от	-208
▁өн	-209
дан	-210
мет	-211
ез	-212
▁Қ	-213
▁үшін	-214
▁бар	-215
лік	-216
▁сі	-217
икалық	-218
кер	-219
ект	-220
сп	-221
▁әл	-222
▁рес	-223
▁қо	-224
▁ол	-225
▁тың	-226
▁іс	-227
▁кү	-228
гі	-229
▁шар	-230
▁тур	-231
▁ат	-232
▁іл	-233
ыт	-234
пу	-235
ест	-236
ақта	-237
ма	-238
▁жаң	-239
▁ата	-240
ңг	-241
ама	-242
▁қызмет	-243
оном	-244
▁тын	-245
▁басшы	-246
ыст	-247
▁отыр	-248
ға	-249
дент	-250
▁біз	-251
▁мү	-252
▁ті	-253
▁эконом	-254
▁құ	-255
баев	-256
сы	-257
▁жас	-258
дір	-259
▁мемлекет	-260
кі	-261
ези	-262
аз	-263
▁ком	-264
▁халық	-265
▁тұр	-266
истр	-267
еле	-268
аб	-269
▁іп	-270
▁сын	-271
▁мин	-272
езидент	-273
▁мәс	-274
▁он	-275
▁туралы	-276
▁бұл	-277
шыл	-278
▁министр	-279
▁сала	-280
▁баст	-281
▁3	-282
аралық	-283
кім	-284
▁и	-285
публ	-286
стық	-287
▁жет	-288
▁бағ	-289
ілік	-290
өл	-291
▁әр	-292
▁пен	-293
ед	-294
▁қор	-295
▁ф	-296
▁жол	-297
▁обл	-298
▁жоба	-299
ттық	-300
▁ұл	-301
гіз	-302
▁мәселе	-303
▁етін	-304
ит	-305
▁мл	-306
▁қан	-307
▁көрс	-308
▁жаңа	-309
сат	-310
ог	-311
▁5	-312
▁президент	-313
▁нан	-314
бас	-315
ше	-316
▁тің	-317
лан	-318
тті	-319
нал	-320
әсіп	-321
арбаев	-322
▁кең	-323
өн	-324
▁мә	-325
▁облыс	-326
кін	-327
▁мемлекеттік	-328
▁міз	-329
▁ынт	-330
арлық	-331
▁жылы	-332
иялық	-333
қар	-334
публика	-335
из	-336
▁ес	-337
▁біл	-338
▁өтті	-339
▁қатыс	-340
▁мыз	-341
▁тә	-342
▁тө	-343
ған	-344
▁ынтым	-345
алқ	-346
ақты	-347
▁гі	-348
▁бай	-349
▁ынтымақта	-350
інде	-351
▁наз	-352
▁қам	-353
▁аз	-354
▁көрсет	-355
▁сондай	-356
▁ая	-357
дарл	-358
стана	-359
▁не	-360
▁орт	-361
ең	-362
▁са	-363
қа	-364
ысты	-365
▁А	-366
▁халықаралық	-367
▁бағдарл	-368
інд	-369
▁со	-370
▁жөн	-371
▁)	-372
йін	-373
▁ер	-374
кіз	-375
▁4	-376
▁құрыл	-377
▁сал	-378
▁(	-379
йым	-380
▁ны	-381
▁осы	-382
ация	-383
▁қала	-384
▁қаз	-385
▁Қа	-386
▁жал	-387
▁мақ	-388
▁экономикалық	-389
тық	-390
гер	-391
▁Қазақстан	-392
▁орын	-393
▁%	-394
▁шара	-395
▁в	-396
▁пай	-397
▁ти	-398
▁бағы	-399
қы	-400
▁жосп	-401
▁кәсіп	-402
ушы	-403
▁оның	-404
▁ара	-405
▁жүз	-406
▁дан	-407
▁таб	-408
▁республика	-409
▁нұр	-410
сіз	-411
рд	-412
ил	-413
▁хаб	-414
▁ден	-415
▁ынтымақтастық	-416
▁ма	-417
стыр	-418
▁өң	-419
▁ұйым	-420
вест	-421
▁жүр	-422
им	-423
рт	-424
егіз	-425
▁инвест	-426
▁мың	-427
ымен	-428
ұлтан	-429
00	-430
▁түр	-431
▁тан	-432
▁екі	-433
▁қаб	-434
▁әлеу	-435
ңге	-436
▁негіз	-437
▁іш	-438
хн	-439
▁ен	-440
▁қр	-441
гін	-442
▁қос	-443
▁мүм	-444
еге	-445
▁мүмкін	-446
ары	-447
кіл	-448
▁бөл	-449
▁өндір	-450
▁маң	-451
ания	-452
▁бү	-453
дам	-454
дес	-455
иция	-456
дау	-457
▁жүзеге	-458
▁кон	-459
▁шығ	-460
ерг	-461
▁Н	-462
▁келіс	-463
▁жағ	-464
▁назарбаев	-465
▁жат	-466
▁бұ	-467
▁астана	-468
▁:	-469
▁6	-470
▁техн	-471
▁заң	-472
еп	-473
▁сая	-474
▁барлық	-475
▁сонымен	-476
сын	-477
▁айт	-478
▁хабарл	-479
▁күн	-480
▁теңге	-481
▁7	-482
▁сай	-483
егі	-484
олог	-485
сұлтан	-486
▁барыс	-487
ылым	-488
бек	-489
▁то	-490
▁қара	-491
▁қау	-492
▁М	-493
▁қатар	-494
өз	-495
▁бел	-496
▁дейін	-497
дал	-498
стік	-499
жет	-500
дар	-501
▁ұлттық	-502
▁маңыз	-503
▁дамы	-504
▁жоғ	-505
▁ең	-506
▁кездес	-507
▁үл	-508
мас	-509
мен	-510
тр	-511
▁әлем	-512
▁сін	-513
▁талқ	-514
▁млрд	-515
▁әкім	-516
ив	-517
▁комп	-518
еш	-519
▁асыр	-520
анд	-521
▁бағдарлама	-522
діг	-523
▁өткен	-524
ара	-525
▁сап	-526
▁іст	-527
орт	-528
▁барысында	-529
▁сау	-530
лы	-531
▁инвестиция	-532
▁бүгін	-533
ті	-534
▁қой	-535
ум	-536
▁қазақстандық	-537
▁мақсат	-538
▁мұ	-539
арат	-540
▁жағдай	-541
ерек	-542
бе	-543
▁қарж	-544
▁компания	-545
▁қабыл	-546
▁кеңес	-547
▁өкіл	-548
▁оқ	-549
імді	-550
ир	-551
▁байлан	-552
мат	-553
▁8	-554
меттік	-555
▁жүргіз	-556
▁дамыту	-557
▁жүй	-558
ме	-559
шылығ	-560
▁әс	-561
▁өткіз	-562
на	-563
індегі	-564
▁үй	-565
▁әлеуметтік	-566
іліг	-567
▁жалп	-568
▁сә	-569
тыл	-570
▁тап	-571
▁жалпы	-572
▁құрылыс	-573
▁нен	-574
▁қай	-575
▁ұсын	-576
▁өңір	-577
▁төр	-578
▁даму	-579
▁аш	-580
▁дә	-581
▁экономика	-582
ла	-583
▁2017	-584
си	-585
▁9	-586
▁сан	-587
▁жоғары	-588
басы	-589
▁адам	-590
ліг	-591
алығ	-592
лі	-593
ран	-594
▁нұрсұлтан	-595
▁қамта	-596
масыз	-597
▁қамтамасыз	-598
дыр	-599
▁эксп	-600
аман	-601
▁жүйе	-602
елі	-603
▁төрағ	-604
▁енгіз	-605
▁мүмкіндік	-606
сыр	-607
▁ауыл	-608
▁ң	-609
▁жар	-610
▁қазір	-611
▁беру	-612
ис	-613
▁орталық	-614
▁қатысты	-615
▁жөніндегі	-616
▁білім	-617
▁Б	-618
▁көп	-619
олық	-620
▁жақ	-621
▁орн	-622
▁үкім	-623
иц	-624
нес	-625
нерг	-626
тал	-627
▁атал	-628
лем	-629
▁млн	-630
▁су	-631
▁жоспарл	-632
▁қауіп	-633
▁қал	-634
уа	-635
▁арнал	-636
ент	-637
▁еур	-638
▁дай	-639
ынды	-640
▁сауда	-641
▁сен	-642
оп	-643
шылық	-644
▁сер	-645
▁айм	-646
▁бағыт	-647
тай	-648
сіздік	-649
ғам	-650
қыл	-651
▁энерг	-652
▁кездесу	-653
ғын	-654
изнес	-655
▁өс	-656
іт	-657
ти	-658
▁өнім	-659
▁түс	-660
етті	-661
▁асыру	-662
лау	-663
▁тапсыр	-664
най	-665
дағы	-666
дени	-667
▁би	-668
іб	-669
▁қоғам	-670
▁өзара	-671
▁кен	-672
▁бизнес	-673
▁тарап	-674
сия	-675
дығ	-676
▁басқар	-677
▁рет	-678
амат	-679
▁талқыл	-680
ақыт	-681
▁маңызды	-682
хан	-683
кт	-684
▁әрі	-685
▁дел	-686
▁бірл	-687
▁кет	-688
ектор	-689
▁ақп	-690
▁қатын	-691
▁құқ	-692
▁шаруа	-693
деу	-694
инг	-695
еке	-696
▁тұ	-697
▁ем	-698
ңгей	-699
▁аст	-700
▁деңгей	-701
інші	-702
▁тең	-703
▁П	-704
тер	-705
жат	-706
▁кәсіпкер	-707
▁шеш	-708
ган	-709
▁тұрғын	-710
▁жылғы	-711
▁керек	-712
арт	-713
▁төраға	-714
▁келісім	-715
▁екен	-716
▁артт	-717
▁ір	-718
▁айту	-719
▁көрме	-720
▁азамат	-721
▁соң	-722
▁ав	-723
их	-724
▁С	-725
шілік	-726
▁мәдени	-727
ология	-728
естік	-729
▁бала	-730
ғай	-731
▁10	-732
▁негізгі	-733
итет	-734
ге	-735
қылы	-736
ок	-737
ыш	-738
▁күш	-739
▁орган	-740
▁үкімет	-741
▁жан	-742
маты	-743
стыру	-744
▁көлем	-745
▁арқылы	-746
далан	-747
▁қазіргі	-748
▁тәж	-749
еж	-750
екті	-751
▁пайдалан	-752
▁нығ	-753
тау	-754
▁сп	-755
▁астам	-756
▁фор	-757
▁ақпарат	-758
▁мін	-759
▁уақыт	-760
▁әскер	-761
▁тау	-762
тат	-763
ікт	-764
▁айтуынша	-765
▁саясат	-766
▁құра	-767
▁жоспар	-768
▁қолдау	-769
арап	-770
▁Е	-771
▁ғылым	-772
ра	-773
▁сақта	-774
▁2015	-775
сти	-776
▁әз	-777
▁мед	-778
▁аудан	-779
▁ету	-780
пта	-781
ул	-782
▁пайыз	-783
иал	-784
▁бю	-785
▁құқық	-786
дыл	-787
▁басқа	-788
▁қорыт	-789
ри	-790
▁бірінші	-791
▁мінд	-792
▁тіл	-793
ерк	-794
▁ме	-795
ститу	-796
▁дамыт	-797
▁кәсіпор	-798
дыру	-799
ян	-800
▁айнал	-801
▁бірлес	-802
▁сөз	-803
▁қаржы	-804
▁сырт	-805
▁ак	-806
аған	-807
▁нә	-808
▁жеткіз	-809
▁атқар	-810
▁бақ	-811
аш	-812
▁қатысушы	-813
фр	-814
▁орта	-815
сен	-816
▁мүше	-817
▁отырыс	-818
▁министрліг	-819
арлам	-820
▁алд	-821
еб	-822
▁орталығ	-823
▁оң	-824
сті	-825
▁көм	-826
▁бей	-827
ина	-828
▁шығар	-829
▁инд	-830
▁аймақ	-831
▁ан	-832
▁жоспарлан	-833
ттал	-834
▁сыртқы	-835
ып	-836
▁таң	-837
▁әзір	-838
▁емес	-839
▁ресей	-840
▁ұйымда	-841
▁елбасы	-842
қат	-843
олл	-844
ос	-845
▁кәсіпорын	-846
ысан	-847
▁Р	-848
▁ҚР	-849
▁нысан	-850
▁әскери	-851
▁тәжір	-852
▁нығай	-853
▁қауіпсіздік	-854
дел	-855
▁мект	-856
▁дайын	-857
▁атын	-858
ип	-859
▁қажет	-860
▁технология	-861
▁шаруашылығ	-862
істік	-863
▁талқыла	-864
▁Ж	-865
▁Т	-866
▁тәжіри	-867
▁бюд	-868
▁шет	-869
▁істе	-870
▁көз	-871
▁байланысты	-872
анк	-873
ақыр	-874
▁қаж	-875
тиж	-876
▁қорытынды	-877
▁нәтиж	-878
▁одан	-879
▁авт	-880
▁халқ	-881
др	-882
▁саяси	-883
▁көш	-884
үр	-885
▁я	-886
▁хат	-887
атег	-888
▁2016	-889
▁маман	-890
еме	-891
иссия	-892
ейт	-893
▁өзгер	-894
▁толық	-895
сау	-896
▁отан	-897
▁Наз	-898
▁про	-899
▁Назарбаев	-900
▁парлам	-901
▁алға	-902
▁жең	-903
тратег	-904
тік	-905
▁бастап	-906
▁жау	-907
▁қалы	-908
▁2014	-909
басар	-910
▁қолдан	-911
ион	-912
ына	-913
▁бағыттал	-914
▁қатынас	-915
тын	-916
▁Мемлек	-917
▁форум	-918
▁тәу	-919
лім	-920
▁орынбасар	-921
▁алматы	-922
▁банк	-923
▁еді	-924
▁сәй	-925
▁құру	-926
▁еңбек	-927
ни	-928
▁сәйк	-929
▁стратег	-930
▁202	-931
▁хабарлама	-932
лектр	-933
▁Пр	-934
▁ыс	-935
ро	-936
ова	-937
▁көлік	-938
ав	-939
мір	-940
▁басты	-941
дер	-942
жақты	-943
▁ретінде	-944
▁қарым	-945
стығ	-946
жан	-947
ьер	-948
▁қарсы	-949
▁кеш	-950
▁тәжірибе	-951
изм	-952
▁электр	-953
устр	-954
▁жеке	-955
▁мер	-956
▁15	-957
▁мектеп	-958
▁жер	-959
▁ерек	-960
▁делін	-961
▁экспо	-962
▁сат	-963
▁кір	-964
▁нар	-965
қан	-966
▁ту	-967
▁аг	-968
ағын	-969
▁тек	-970
▁қалыпта	-971
арта	-972
ман	-973
▁бағдарла	-974
▁тарих	-975
гіл	-976
▁өнерк	-977
▁мын	-978
▁құжат	-979
иль	-980
ытай	-981
▁баста	-982
▁белсен	-983
▁қарастыр	-984
емьер	-985
кіш	-986
▁қорғ	-987
▁дық	-988
орма	-989
▁К	-990
▁сәйкес	-991
▁жаса	-992
▁долл	-993
▁парламент	-994
▁ім	-995
ілікті	-996
▁сақтау	-997
ист	-998
▁бек	-999
▁ні	-1000
▁қазақ	-1001
▁мәлім	-1002
▁денсау	-1003
▁сіз	-1004
▁кезең	-1005
▁шетел	-1006
▁қайта	-1007
▁бе	-1008
▁медиц	-1009
діру	-1010
▁қаржыл	-1011
▁бүгінгі	-1012
▁қыр	-1013
▁бюджет	-1014
▁индустр	-1015
▁алу	-1016
▁ретт	-1017
ея	-1018
▁инвестициялық	-1019
▁ағ	-1020
▁енгізу	-1021
▁жа	-1022
▁әлемдік	-1023
▁таңда	-1024
▁істер	-1025
▁тон	-1026
ус	-1027
▁Рес	-1028
▁сарап	-1029
▁қу	-1030
бай	-1031
▁зер	-1032
▁спорт	-1033
▁жылға	-1034
▁дір	-1035
▁кор	-1036
▁нақты	-1037
ологиялық	-1038
қатар	-1039
фер	-1040
▁бірқатар	-1041
от	-1042
▁бұұ	-1043
▁25	-1044
▁өндіріс	-1045
орда	-1046
▁хабарла	-1047
▁бірі	-1048
▁оқу	-1049
▁30	-1050
▁екенін	-1051
▁үлкен	-1052
▁100	-1053
ке	-1054
▁биыл	-1055
▁сайлау	-1056
▁жаңғ	-1057
уші	-1058
▁тұрақты	-1059
▁19	-1060
▁төмен	-1061
іпт	-1062
▁ре	-1063
▁әзірл	-1064
▁тиімді	-1065
ациялық	-1066
▁Мемлекет	-1067
▁азия	-1068
▁Астана	-1069
▁тауар	-1070
▁ие	-1071
▁тонна	-1072
▁12	-1073
▁асырыл	-1074
▁тен	-1075
нов	-1076
енция	-1077
▁тоқ	-1078
▁екіжақты	-1079
▁тәуел	-1080
ақұр	-1081
дақ	-1082
▁байланыс	-1083
ымда	-1084
▁ірі	-1085
▁Ф	-1086
іліс	-1087
▁құн	-1088
▁есеп	-1089
▁Нұр	-1090
▁11	-1091
▁кешен	-1092
▁алғаш	-1093
▁өткізу	-1094
▁еуроп	-1095
путат	-1096
▁инфр	-1097
▁Президент	-1098
▁200	-1099
мыш	-1100
▁дир	-1101
▁міндет	-1102
▁қытай	-1103
▁бастама	-1104
▁мет	-1105
ауыт	-1106
тег	-1107
▁аталмыш	-1108
▁ой	-1109
▁комиссия	-1110
▁дәр	-1111
▁бөлін	-1112
▁депутат	-1113
ғыз	-1114
▁әріпт	-1115
ақұрылым	-1116
тү	-1117
▁денсаулық	-1118
ашақ	-1119
▁арттыру	-1120
▁комитет	-1121
▁зауыт	-1122
▁қорғау	-1123
▁аяқ	-1124
▁инфрақұрылым	-1125
за	-1126
▁өмір	-1127
▁мұнай	-1128
▁кезде	-1129
▁институ	-1130
▁олар	-1131
ад	-1132
жіліс	-1133
бер	-1134
▁ақш	-1135
▁иннов	-1136
тты	-1137
▁өткенде	-1138
ттік	-1139
▁жай	-1140
йік	-1141
▁директор	-1142
▁сақ	-1143
андық	-1144
түстік	-1145
▁көмек	-1146
▁көрсеткіш	-1147
▁мек	-1148
тар	-1149
об	-1150
▁көрсету	-1151
▁премьер	-1152
елік	-1153
ындағы	-1154
арлығ	-1155
ыстық	-1156
▁бақыл	-1157
▁қон	-1158
▁энергия	-1159
бір	-1160
▁энергет	-1161
▁баға	-1162
▁болашақ	-1163
▁қатысу	-1164
▁2020	-1165
▁анық	-1166
үй	-1167
▁қим	-1168
▁жауап	-1169
илл	-1170
▁қимыл	-1171
▁ейік	-1172
імд	-1173
▁тәрт	-1174
есе	-1175
кінші	-1176
▁қоғамдық	-1177
форма	-1178
▁құттық	-1179
▁екінші	-1180
урс	-1181
▁кіз	-1182
▁серікт	-1183
▁ерекше	-1184
иналық	-1185
іш	-1186
▁кейін	-1187
▁еураз	-1188
▁басым	-1189
▁ах	-1190
әсіб	-1191
▁тас	-1192
▁белгіл	-1193
▁қабылда	-1194
▁заңн	-1195
публикалық	-1196
▁қолда	-1197
ивер	-1198
ету	-1199
▁тран	-1200
▁әлеует	-1201
▁Республика	-1202
▁жөнінде	-1203
▁бірлескен	-1204
▁;	-1205
▁ғана	-1206
нивер	-1207
ун	-1208
▁орында	-1209
▁ғылыми	-1210
найы	-1211
омат	-1212
▁тиіс	-1213
қын	-1214
алап	-1215
▁республикалық	-1216
▁төл	-1217
іру	-1218
▁газ	-1219
▁медициналық	-1220
▁техникалық	-1221
▁арнайы	-1222
▁стан	-1223
▁аум	-1224
алды	-1225
ергілікті	-1226
▁ық	-1227
▁белсенді	-1228
ақтыл	-1229
▁сол	-1230
ғыс	-1231
▁басп	-1232
едел	-1233
▁нем	-1234
▁ің	-1235
▁жергілікті	-1236
▁мұн	-1237
▁же	-1238
атор	-1239
▁тір	-1240
ғал	-1241
▁парт	-1242
▁жаңғыр	-1243
▁ңіз	-1244
▁бұдан	-1245
▁зертт	-1246
ференция	-1247
▁баян	-1248
▁жасал	-1249
▁қыс	-1250
▁қызметкер	-1251
▁көтер	-1252
▁ко	-1253
▁бұр	-1254
▁ағым	-1255
▁тапсырма	-1256
▁орай	-1257
▁шағын	-1258
▁О	-1259
▁арттыр	-1260
▁универ	-1261
▁тік	-1262
ақы	-1263
▁түсін	-1264
иф	-1265
▁заман	-1266
▁жатыр	-1267
▁жаб	-1268
▁милл	-1269
▁жем	-1270
▁өте	-1271
▁алаң	-1272
▁хатшы	-1273
ми	-1274
ымды	-1275
▁мәдениет	-1276
ерлік	-1277
▁ц	-1278
▁до	-1279
▁шетелдік	-1280
▁конференция	-1281
▁сот	-1282
▁пік	-1283
▁пікір	-1284
ымал	-1285
▁2013	-1286
▁жаһ	-1287
елен	-1288
▁тыр	-1289
▁мам	-1290
орлық	-1291
▁жу	-1292
50	-1293
▁ашыл	-1294
дылығ	-1295
▁нәтиже	-1296
▁мем	-1297
▁арт	-1298
▁өңірлік	-1299
▁одақ	-1300
дролық	-1301
сыз	-1302
▁жасау	-1303
ықты	-1304
▁жетіл	-1305
▁партия	-1306
▁кәсіпкерлік	-1307
рат	-1308
▁И	-1309
біт	-1310
рес	-1311
▁құрал	-1312
▁соның	-1313
хана	-1314
әр	-1315
▁есе	-1316
▁14	-1317
▁ағымдағы	-1318
▁пол	-1319
▁бәс	-1320
▁өзгеріс	-1321
ипл	-1322
▁ескер	-1323
пал	-1324
сам	-1325
атты	-1326
▁қаң	-1327
▁жаһандық	-1328
▁назар	-1329
▁мәжіліс	-1330
▁бат	-1331
▁алдағы	-1332
▁елші	-1333
▁жақс	-1334
▁шешім	-1335
▁үн	-1336
▁байқ	-1337
▁мерз	-1338
▁салын	-1339
ий	-1340
▁жалға	-1341
▁бейбіт	-1342
сер	-1343
▁дипл	-1344
in	-1345
▁реформа	-1346
істі	-1347
▁Д	-1348
▁ықпал	-1349
ейту	-1350
▁Нұрсұлтан	-1351
▁құрам	-1352
▁сарапшы	-1353
самбл	-1354
▁алғашқы	-1355
▁орнат	-1356
▁жетек	-1357
▁өзге	-1358
икация	-1359
ста	-1360
▁мүд	-1361
▁комм	-1362
▁ядролық	-1363
▁сұр	-1364
▁түрлі	-1365
▁ың	-1366
▁Ш	-1367
▁ұлт	-1368
▁2018	-1369
би	-1370
▁зор	-1371
шіліг	-1372
▁барлығ	-1373
▁тін	-1374
сөз	-1375
▁жш	-1376
▁жин	-1377
▁институт	-1378
ерация	-1379
▁өнеркәсіп	-1380
аль	-1381
▁инновациялық	-1382
▁жылдығ	-1383
▁үле	-1384
▁келіссөз	-1385
▁Ұ	-1386
уз	-1387
аушы	-1388
▁жшс	-1389
тығ	-1390
▁13	-1391
▁тем	-1392
ситет	-1393
▁құттықта	-1394
▁әб	-1395
во	-1396
▁үз	-1397
▁оны	-1398
▁k	-1399
еңбер	-1400
ғи	-1401
▁шеңбер	-1402
▁бірге	-1403
самблея	-1404
▁шақыр	-1405
▁жи	-1406
ск	-1407
▁инвестор	-1408
▁карта	-1409
▁экспорт	-1410
▁бен	-1411
▁басқару	-1412
▁қаржыланд	-1413
▁тол	-1414
▁стратегиялық	-1415
▁басқарма	-1416
▁нау	-1417
сым	-1418
▁бұрын	-1419
▁кезінде	-1420
▁талап	-1421
▁бес	-1422
▁университет	-1423
▁өңдеу	-1424
едом	-1425
▁ым	-1426
▁қажетт	-1427
▁ведом	-1428
ыстыр	-1429
сан	-1430
▁ішкі	-1431
▁18	-1432
▁зерттеу	-1433
▁дү	-1434
▁делег	-1435
▁дайында	-1436
▁бөлім	-1437
▁сектор	-1438
▁дін	-1439
▁мон	-1440
еси	-1441
інше	-1442
▁жетекші	-1443
▁еуразиялық	-1444
тө	-1445
▁тақыр	-1446
▁мемор	-1447
▁ұйымдастыр	-1448
▁жуық	-1449
▁әй	-1450
▁темір	-1451
▁шығыс	-1452
▁16	-1453
▁энергетика	-1454
ұлы	-1455
▁кл	-1456
ада	-1457
ағандай	-1458
▁қарай	-1459
▁нығайт	-1460
тандыру	-1461
▁немесе	-1462
▁ведомст	-1463
▁сапар	-1464
▁қаражат	-1465
▁хабарлағандай	-1466
st	-1467
▁топ	-1468
▁ынтымақтастығ	-1469
▁сапа	-1470
▁ауқ	-1471
сіздіг	-1472
ард	-1473
▁дипломат	-1474
▁үздік	-1475
▁Ә	-1476
▁суб	-1477
▁сайын	-1478
▁сам	-1479
▁0	-1480
▁оған	-1481
▁ч	-1482
▁салық	-1483
▁жүргізу	-1484
▁тарт	-1485
▁мүмкіндіг	-1486
▁тәртіб	-1487
▁салу	-1488
▁қару	-1489
▁ұйымдастыру	-1490
▁білдір	-1491
▁17	-1492
іміз	-1493
▁соңғы	-1494
▁дем	-1495
▁құқықтық	-1496
▁неси	-1497
▁тағы	-1498
ушылық	-1499
ак	-1500
▁келе	-1501
▁қамту	-1502
йл	-1503
▁ассамблея	-1504
▁дейінгі	-1505
▁нығайту	-1506
▁тарту	-1507
▁аудар	-1508
ТО	-1509
ғаныс	-1510
ице	-1511
▁сенім	-1512
▁рөл	-1513
▁отандық	-1514
әсім	-1515
▁қажетті	-1516
▁50	-1517
▁қадам	-1518
▁пер	-1519
▁вице	-1520
ыб	-1521
▁ос	-1522
▁ресми	-1523
▁әу	-1524
ылм	-1525
амб	-1526
▁ФО	-1527
▁ФОТО	-1528
▁өзекті	-1529
▁тал	-1530
▁жария	-1531
▁аумағ	-1532
▁мерек	-1533
иев	-1534
імділіг	-1535
кел	-1536
▁ақпараттық	-1537
басшы	-1538
▁индустрия	-1539
төбе	-1540
ымша	-1541
▁шарт	-1542
▁қатына	-1543
▁қосымша	-1544
▁ведомство	-1545
▁Ақ	-1546
▁онда	-1547
асөз	-1548
▁жедел	-1549
теген	-1550
▁дүни	-1551
ко	-1552
▁ис	-1553
▁баспасөз	-1554
▁табыс	-1555
▁көптеген	-1556
▁сем	-1557
▁мат	-1558
▁ұсыныс	-1559
▁мақсаты	-1560
▁қойыл	-1561
▁көрсе	-1562
қанда	-1563
▁пав	-1564
▁тасымал	-1565
▁оңтүстік	-1566
▁Ел	-1567
▁бал	-1568
ейн	-1569
▁жаз	-1570
андум	-1571
▁салы	-1572
▁кі	-1573
▁қабылдан	-1574
▁алып	-1575
аг	-1576
▁желі	-1577
▁се	-1578
▁жабдық	-1579
▁кезег	-1580
▁жетістік	-1581
▁жел	-1582
▁қабіл	-1583
▁проц	-1584
▁делегация	-1585
▁меморандум	-1586
циялық	-1587
▁биылғы	-1588
үл	-1589
дылық	-1590
▁айтқанда	-1591
ата	-1592
▁тағай	-1593
▁пал	-1594
акт	-1595
▁ни	-1596
▁жақсы	-1597
▁стратегия	-1598
▁нарық	-1599
оқ	-1600
▁шақ	-1601
▁қорғаныс	-1602
▁оп	-1603
▁жоқ	-1604
▁дәл	-1605
▁салыстыр	-1606
▁ру	-1607
стүр	-1608
лер	-1609
▁рәсім	-1610
▁арқа	-1611
▁дәстүр	-1612
мол	-1613
▁орнал	-1614
дия	-1615
▁ңыз	-1616
▁орналас	-1617
ғыш	-1618
тн	-1619
▁бо	-1620
▁әйел	-1621
▁Ал	-1622
ылық	-1623
▁жақты	-1624
ура	-1625
тыру	-1626
алау	-1627
▁мау	-1628
▁мекеме	-1629
▁маңыздылығ	-1630
an	-1631
▁бақылау	-1632
қорлық	-1633
▁мерзім	-1634
ңіл	-1635
▁дағ	-1636
▁ашық	-1637
▁ретте	-1638
▁алды	-1639
цион	-1640
▁өсім	-1641
арыш	-1642
▁бри	-1643
▁қарастырыл	-1644
▁ап	-1645
▁көңіл	-1646
▁өндіру	-1647
▁қылм	-1648
ген	-1649
керлік	-1650
▁аса	-1651
тыр	-1652
▁электрон	-1653
дырыл	-1654
▁қуат	-1655
▁осын	-1656
▁жеңіл	-1657
▁тр	-1658
▁оқы	-1659
▁бола	-1660
не	-1661
▁база	-1662
арту	-1663
▁пар	-1664
▁еуропа	-1665
▁кеден	-1666
▁қоса	-1667
▁пайдалану	-1668
уір	-1669
ігер	-1670
▁тұрғы	-1671
▁атты	-1672
▁таныс	-1673
▁сту	-1674
▁сө	-1675
діс	-1676
▁алма	-1677
▁қоз	-1678
лам	-1679
▁палата	-1680
дықтан	-1681
мер	-1682
еже	-1683
▁өтін	-1684
▁бөліг	-1685
ҚО	-1686
▁нарығ	-1687
▁құрылым	-1688
▁көшбасшы	-1689
▁заңнама	-1690
▁қабылдау	-1691
▁жоғар	-1692
▁Э	-1693
▁стандар	-1694
▁үст	-1695
▁кеңейт	-1696
ель	-1697
іне	-1698
▁тұрақтыл	-1699
дагер	-1700
дат	-1701
▁анықта	-1702
мола	-1703
▁қызығ	-1704
▁там	-1705
▁сондықтан	-1706
▁ардагер	-1707
▁тұл	-1708
ектив	-1709
▁қосыл	-1710
▁бастал	-1711
ериал	-1712
▁қауымда	-1713
▁жетілдіру	-1714
▁тарихи	-1715
па	-1716
ах	-1717
▁есеб	-1718
▁облыстық	-1719
▁ыр	-1720
▁отбасы	-1721
▁мәлімет	-1722
▁өр	-1723
▁әңг	-1724
▁таныстыр	-1725
▁әріптестік	-1726
жол	-1727
▁әңгім	-1728
қты	-1729
▁ресурс	-1730
▁реттеу	-1731
▁шек	-1732
истік	-1733
▁жап	-1734
▁қамт	-1735
▁жек	-1736
▁процес	-1737
▁тексер	-1738
ессия	-1739
▁бө	-1740
▁аген	-1741
амалық	-1742
▁алмас	-1743
мит	-1744
▁әкімдіг	-1745
үз	-1746
кеу	-1747
ихат	-1748
▁сия	-1749
▁күрес	-1750
▁этн	-1751
жым	-1752
▁нұрлы	-1753
▁министрлік	-1754
▁еліміз	-1755
ағанды	-1756
▁жеткізу	-1757
яр	-1758
▁стандарт	-1759
▁аб	-1760
▁оқыту	-1761
итарлық	-1762
▁материал	-1763
ауи	-1764
▁айналым	-1765
▁иде	-1766
▁аяқтал	-1767
▁жемқорлық	-1768
▁пә	-1769
▁бейбітшілік	-1770
▁қонақ	-1771
▁кіта	-1772
ъекті	-1773
пор	-1774
▁нәтижес	-1775
▁сияқты	-1776
▁фед	-1777
▁құны	-1778
▁есепт	-1779
▁еуропалық	-1780
ло	-1781
▁шын	-1782
▁бері	-1783
▁жолда	-1784
▁ауқымды	-1785
▁заманауи	-1786
кия	-1787
▁баянда	-1788
▁жасыл	-1789
▁конститу	-1790
▁70	-1791
▁нәтижесінде	-1792
ид	-1793
▁жаңғырту	-1794
▁мал	-1795
▁a	-1796
▁әрек	-1797
▁көрсетіл	-1798
ежүз	-1799
▁сөйл	-1800
▁ортақ	-1801
▁тм	-1802
▁күт	-1803
▁порт	-1804
▁салтан	-1805
▁аралығ	-1806
▁студент	-1807
эо	-1808
▁туризм	-1809
▁40	-1810
▁келт	-1811
▁дағдар	-1812
рыз	-1813
▁сек	-1814
▁c	-1815
▁тоб	-1816
▁2019	-1817
күй	-1818
▁ғал	-1819
▁әрбір	-1820
▁мо	-1821
▁бүкіл	-1822
спектив	-1823
▁қырғыз	-1824
▁алдын	-1825
▁перспектив	-1826
▁осындай	-1827
▁атқарушы	-1828
▁ка	-1829
▁тоқта	-1830
▁кәсіб	-1831
▁елорда	-1832
▁дайындық	-1833
▁үм	-1834
дет	-1835
ург	-1836
▁ұлғай	-1837
▁бағала	-1838
▁жөндеу	-1839
тен	-1840
▁әсер	-1841
▁техника	-1842
▁алғыс	-1843
емен	-1844
уал	-1845
стау	-1846
ңғыш	-1847
▁мұр	-1848
▁тәуелсіздік	-1849
айн	-1850
ыңғай	-1851
мент	-1852
▁бекіт	-1853
олд	-1854
▁із	-1855
ландыру	-1856
▁қыркүй	-1857
▁үшінші	-1858
▁кеңейту	-1859
пен	-1860
▁шам	-1861
▁жүргізіл	-1862
▁өндіруші	-1863
▁ала	-1864
▁негізінде	-1865
блем	-1866
er	-1867
▁21	-1868
обиль	-1869
▁қайрат	-1870
▁тиімділіг	-1871
уль	-1872
▁гер	-1873
▁бірыңғай	-1874
атын	-1875
▁алын	-1876
▁g	-1877
▁22	-1878
▁өнеркәсіб	-1879
▁азаматтық	-1880
▁тіз	-1881
адем	-1882
екс	-1883
ғни	-1884
жыр	-1885
▁яғни	-1886
▁наурыз	-1887
▁жә	-1888
▁ұш	-1889
ылай	-1890
▁қызметші	-1891
▁проблем	-1892
бақ	-1893
▁ші	-1894
▁тұлға	-1895
ілді	-1896
ежүзілік	-1897
ағат	-1898
▁аймағ	-1899
▁ғарыш	-1900
▁орны	-1901
▁қалыптас	-1902
▁24	-1903
қаев	-1904
▁сапалы	-1905
▁несие	-1906
▁Алматы	-1907
▁академ	-1908
▁тағайында	-1909
▁мыс	-1910
▁тиісті	-1911
▁енді	-1912
ылорда	-1913
▁еа	-1914
▁рын	-1915
▁В	-1916
▁азық	-1917
▁кер	-1918
беков	-1919
орттық	-1920
▁жоспарла	-1921
▁сайла	-1922
▁бәсеке	-1923
▁ахуал	-1924
▁ұлы	-1925
▁жауапкер	-1926
▁үйл	-1927
са	-1928
ут	-1929
▁тмд	-1930
эк	-1931
▁кеп	-1932
▁идея	-1933
▁сенімді	-1934
шағ	-1935
▁түлік	-1936
▁ада	-1937
▁муз	-1938
▁үлес	-1939
▁23	-1940
▁лог	-1941
▁сый	-1942
▁еаэо	-1943
▁әзірле	-1944
▁серіктестік	-1945
▁ег	-1946
▁деп	-1947
▁сөйле	-1948
▁таби	-1949
▁2050	-1950
тоқ	-1951
▁гум	-1952
тоқсан	-1953
▁кап	-1954
▁желтоқсан	-1955
▁басшылығ	-1956
▁өндірістік	-1957
шік	-1958
▁даяр	-1959
▁маусым	-1960
▁шы	-1961
▁маш	-1962
▁достық	-1963
▁ұзақ	-1964
▁батыс	-1965
▁миллион	-1966
иг	-1967
амен	-1968
▁милли	-1969
▁дік	-1970
▁оқи	-1971
▁ойын	-1972
етов	-1973
▁кітап	-1974
оз	-1975
▁терең	-1976
▁код	-1977
лодар	-1978
▁мамыр	-1979
▁оқушы	-1980
▁жылына	-1981
▁конс	-1982
▁кезе	-1983
тама	-1984
▁транс	-1985
▁миллиард	-1986
▁екендіг	-1987
▁жоғарғы	-1988
on	-1989
бі	-1990
есі	-1991
естіг	-1992
йт	-1993
тегр	-1994
▁байқа	-1995
al	-1996
лас	-1997
алдық	-1998
раф	-1999
▁саммит	-2000
▁ед	-2001
▁жолдау	-2002
еулі	-2003
▁серп	-2004
▁қоры	-2005
таев	-2006
дағ	-2007
окур	-2008
оль	-2009
финг	-2010
▁шект	-2011
инар	-2012
▁тұңғыш	-2013
▁s	-2014
▁аур	-2015
▁теңіз	-2016
▁өзбек	-2017
▁қх	-2018
▁интегр	-2019
▁фран	-2020
▁28	-2021
▁дау	-2022
▁e	-2023
андығ	-2024
▁кәсіби	-2025
▁тәр	-2026
▁метал	-2027
▁ақтөбе	-2028
▁қаржыландыру	-2029
▁жақын	-2030
ификация	-2031
▁сар	-2032
▁ауру	-2033
▁тарат	-2034
▁гр	-2035
▁тақырыб	-2036
қо	-2037
▁қою	-2038
▁көздел	-2039
▁алған	-2040
▁26	-2041
▁табысты	-2042
мания	-2043
елей	-2044
иалог	-2045
▁үдер	-2046
▁әзірлеу	-2047
▁орындал	-2048
▁сү	-2049
▁диалог	-2050
анитарлық	-2051
дету	-2052
▁рат	-2053
хани	-2054
▁серіктес	-2055
▁әрт	-2056
▁холд	-2057
▁заңнамалық	-2058
атр	-2059
дегі	-2060
▁метр	-2061
▁жылда	-2062
▁проблема	-2063
▁шешу	-2064
геріл	-2065
▁ислам	-2066
▁дүниежүзілік	-2067
едж	-2068
айлы	-2069
ының	-2070
▁қалыптастыру	-2071
бат	-2072
▁брифинг	-2073
лығ	-2074
арус	-2075
итал	-2076
▁дағдарыс	-2077
▁тұрақтылық	-2078
▁тұжыр	-2079
делі	-2080
амбыл	-2081
▁төрт	-2082
▁әкімдік	-2083
▁ратификация	-2084
▁логист	-2085
шер	-2086
діл	-2087
▁жылдық	-2088
▁уч	-2089
▁өнер	-2090
▁акция	-2091
▁тікелей	-2092
▁кәсіпкерлер	-2093
▁қызығушылық	-2094
егей	-2095
▁60	-2096
▁кепіл	-2097
сал	-2098
▁прокур	-2099
▁қолжет	-2100
▁жүк	-2101
▁түз	-2102
▁өтініш	-2103
▁семинар	-2104
▁им	-2105
екел	-2106
▁ю	-2107
▁көк	-2108
▁сүр	-2109
▁әрекет	-2110
▁белгілі	-2111
▁технологиялық	-2112
▁27	-2113
▁199	-2114
▁терр	-2115
▁ұжым	-2116
▁табыл	-2117
▁алтын	-2118
пе	-2119
▁Ү	-2120
▁гуманитарлық	-2121
▁мереке	-2122
ғас	-2123
▁үдеріс	-2124
▁айналыс	-2125
▁кей	-2126
ка	-2127
жай	-2128
▁сессия	-2129
▁үлгі	-2130
▁агро	-2131
▁қаңтар	-2132
▁иран	-2133
▁Х	-2134
лайн	-2135
дастық	-2136
▁кедендік	-2137
ония	-2138
ілде	-2139
▁00	-2140
▁қи	-2141
імов	-2142
▁жалғастыр	-2143
▁мақұл	-2144
▁лау	-2145
▁шаршы	-2146
▁іскерлік	-2147
▁қарағанды	-2148
▁жіб	-2149
▁мән	-2150
▁қыркүйек	-2151
▁әкімшілік	-2152
▁болашағ	-2153
▁29	-2154
▁онлайн	-2155
▁шілде	-2156
▁қараша	-2157
▁мүдделі	-2158
▁i	-2159
▁ұк	-2160
▁капитал	-2161
айда	-2162
▁ғим	-2163
▁бөлек	-2164
▁учас	-2165
▁федерация	-2166
▁ку	-2167
▁мар	-2168
▁зейн	-2169
▁рухани	-2170
▁қысқар	-2171
▁мәрт	-2172
▁қағи	-2173
▁ғимарат	-2174
▁шығарма	-2175
▁ашу	-2176
▁көл	-2177
▁жарты	-2178
арусь	-2179
▁корпор	-2180
иза	-2181
▁келесі	-2182
▁Г	-2183
▁аймақтық	-2184
▁жі	-2185
▁түркия	-2186
▁дайындау	-2187
▁оқиға	-2188
▁осылай	-2189
ұх	-2190
▁ұр	-2191
▁санал	-2192
▁тұтын	-2193
▁серпін	-2194
▁беріл	-2195
▁күрд	-2196
▁конц	-2197
▁барша	-2198
▁департа	-2199
▁қауіпсіздіг	-2200
кра	-2201
▁бұз	-2202
ивтік	-2203
▁бөлінді	-2204
жыл	-2205
хат	-2206
▁өсті	-2207
▁зейнет	-2208
▁шаруашылық	-2209
метов	-2210
▁алдында	-2211
az	-2212
▁перспектива	-2213
at	-2214
ъез	-2215
▁Елбасы	-2216
▁үміт	-2217
кл	-2218
▁өзбекстан	-2219
▁қамтыл	-2220
▁жиын	-2221
▁қозғал	-2222
▁дәстүрлі	-2223
бақша	-2224
▁ұқ	-2225
▁шамамен	-2226
▁мей	-2227
▁жібер	-2228
▁мұндай	-2229
▁балабақша	-2230
▁кіріс	-2231
▁табиғи	-2232
▁кешенді	-2233
▁жеңіс	-2234
▁ғалым	-2235
▁шығару	-2236
▁орындау	-2237
елек	-2238
▁мөл	-2239
зия	-2240
▁барынша	-2241
▁қырғызстан	-2242
имп	-2243
кент	-2244
▁сәуір	-2245
▁кадр	-2246
en	-2247
or	-2248
ПО	-2249
▁азай	-2250
▁акті	-2251
▁ілгеріл	-2252
мек	-2253
▁өзі	-2254
▁германия	-2255
▁қолдану	-2256
▁сом	-2257
▁съез	-2258
▁ди	-2259
▁бұған	-2260
▁әріптес	-2261
▁дипломатиялық	-2262
▁ауған	-2263
▁тәрби	-2264
▁сұлтан	-2265
▁күрделі	-2266
▁осылайша	-2267
▁опер	-2268
▁байқау	-2269
▁бірлік	-2270
ттіг	-2271
▁пайда	-2272
▁қалалық	-2273
▁үйлест	-2274
ограф	-2275
▁ұй	-2276
паз	-2277
уникация	-2278
▁жақсарту	-2279
▁тұжырымда	-2280
▁террор	-2281
▁Мә	-2282
▁соғыс	-2283
▁Ө	-2284
▁келеш	-2285
▁ыз	-2286
▁2012	-2287
быр	-2288
▁ұстан	-2289
▁гүл	-2290
▁хим	-2291
тенше	-2292
▁тоқаев	-2293
рдем	-2294
▁жою	-2295
қалық	-2296
▁үнем	-2297
▁интер	-2298
▁түркі	-2299
▁қажеттіг	-2300
▁марап	-2301
▁p	-2302
імділік	-2303
▁кеше	-2304
▁қаржылық	-2305
▁аяқта	-2306
▁автом	-2307
▁жаңар	-2308
▁реж	-2309
▁жалғас	-2310
▁жәрдем	-2311
▁машина	-2312
▁академия	-2313
▁артық	-2314
ант	-2315
▁мұх	-2316
▁егер	-2317
алар	-2318
▁түсті	-2319
▁жанындағы	-2320
▁500	-2321
арлықтай	-2322
аев	-2323
станай	-2324
▁марапат	-2325
▁тигіз	-2326
▁ұсыныл	-2327
▁туристік	-2328
▁субъекті	-2329
▁мұра	-2330
▁әділ	-2331
ИД	-2332
іст	-2333
итор	-2334
▁алайда	-2335
▁ана	-2336
тың	-2337
▁кем	-2338
▁транз	-2339
▁шығын	-2340
▁бірікт	-2341
асп	-2342
ех	-2343
герлік	-2344
▁мөлшер	-2345
▁салтанатты	-2346
▁қаржыландыр	-2347
▁укра	-2348
байлас	-2349
▁сұрақ	-2350
▁бр	-2351
▁пат	-2352
анда	-2353
▁еқы	-2354
ілікт	-2355
▁деңге	-2356
▁еқыұ	-2357
▁сыз	-2358
▁жауын	-2359
ғыстау	-2360
▁құқығ	-2361
▁төлем	-2362
▁Ұл	-2363
▁бойы	-2364
яу	-2365
ағынтаев	-2366
▁сүт	-2367
▁мамандан	-2368
▁үр	-2369
▁әуе	-2370
▁бағытта	-2371
▁басымдық	-2372
неше	-2373
▁жігер	-2374
▁мүдде	-2375
▁айтарлықтай	-2376
▁өркен	-2377
▁бірнеше	-2378
КС	-2379
▁31	-2380
ыста	-2381
▁металл	-2382
▁b	-2383
▁одағ	-2384
▁қалп	-2385
▁май	-2386
▁80	-2387
▁300	-2388
▁білікт	-2389
▁толықтыру	-2390
▁тег	-2391
▁ереже	-2392
▁мәрте	-2393
▁нақтыл	-2394
▁мысал	-2395
▁ақмола	-2396
▁барысы	-2397
▁аэ	-2398
▁ЭКС	-2399
ифр	-2400
▁кейбір	-2401
▁қолайлы	-2402
▁тіркел	-2403
▁қалыптастыр	-2404
ar	-2405
▁ЭКСПО	-2406
▁беларусь	-2407
▁индустриал	-2408
▁айтыл	-2409
▁авто	-2410
▁сыбайлас	-2411
▁келісімді	-2412
▁қарулы	-2413
ья	-2414
▁сім	-2415
ұқ	-2416
▁пәтер	-2417
▁агенттіг	-2418
▁жур	-2419
▁инж	-2420
▁учаске	-2421
▁баяндама	-2422
▁міндетті	-2423
▁kaz	-2424
▁заңды	-2425
▁автомобиль	-2426
▁театр	-2427
рық	-2428
ото	-2429
▁қиын	-2430
▁алмасу	-2431
▁игер	-2432
▁цифр	-2433
▁шекара	-2434
дырылған	-2435
▁экологиялық	-2436
ократ	-2437
▁журнал	-2438
импи	-2439
май	-2440
▁электрондық	-2441
▁бәр	-2442
▁хабар	-2443
▁сана	-2444
▁себе	-2445
▁қылмыстық	-2446
ісі	-2447
іккен	-2448
▁солтүстік	-2449
идат	-2450
▁сома	-2451
лихат	-2452
▁өту	-2453
▁тет	-2454
▁шик	-2455
▁тыс	-2456
▁көзде	-2457
▁ерекш	-2458
▁t	-2459
▁бары	-2460
діқалық	-2461
▁қаралды	-2462
▁павлодар	-2463
▁ки	-2464
▁бірлестік	-2465
ильон	-2466
▁талқылау	-2467
діқалықова	-2468
▁35	-2469
▁об	-2470
▁миссия	-2471
▁орнала	-2472
▁себ	-2473
▁мұнда	-2474
▁павильон	-2475
▁N	-2476
▁тығ	-2477
▁лауаз	-2478
▁/	-2479
▁еш	-2480
амас	-2481
▁еркін	-2482
▁арал	-2483
▁әдіс	-2484
▁айна	-2485
ич	-2486
се	-2487
сидия	-2488
▁сир	-2489
▁қасым	-2490
▁энергетикалық	-2491
▁атқарыл	-2492
▁спортшы	-2493
ерт	-2494
▁in	-2495
▁бюдж	-2496
▁тәртіп	-2497
▁тақырып	-2498
▁субсидия	-2499
▁мәслихат	-2500
▁қаза	-2501
▁қарқ	-2502
▁бәсекел	-2503
▁коммуникация	-2504
▁кр	-2505
▁ра	-2506
тылығ	-2507
▁зия	-2508
▁көб	-2509
атура	-2510
▁амер	-2511
▁қарқын	-2512
ғыл	-2513
▁йтын	-2514
▁рейт	-2515
тіг	-2516
кция	-2517
▁қойма	-2518
ro	-2519
▁канд	-2520
▁тығыз	-2521
дандыру	-2522
▁себебі	-2523
▁қайраткер	-2524
▁Қар	-2525
діліг	-2526
▁қабілетт	-2527
ымкент	-2528
▁қазан	-2529
▁бірегей	-2530
▁түрік	-2531
мұ	-2532
▁32	-2533
▁жүкт	-2534
▁бағыты	-2535
▁айрық	-2536
▁интеграция	-2537
▁кандидат	-2538
ырау	-2539
▁шеб	-2540
▁акт	-2541
▁айқын	-2542
▁сенат	-2543
▁ауғанстан	-2544
ария	-2545
▁зейнетақы	-2546
▁сеп	-2547
▁көрін	-2548
▁құрмет	-2549
▁жинал	-2550
▁терроризм	-2551
▁отбас	-2552
ңгер	-2553
▁агр	-2554
▁айрықша	-2555
▁біт	-2556
парат	-2557
▁меншік	-2558
▁қауымдастығ	-2559
уб	-2560
▁тәуелсіздіг	-2561
▁әзірлен	-2562
▁жолаушы	-2563
▁холдинг	-2564
▁тәуелсіз	-2565
▁құндылық	-2566
енко	-2567
од	-2568
▁фил	-2569
▁астық	-2570
▁бақыт	-2571
▁бедел	-2572
▁департамент	-2573
ая	-2574
▁пл	-2575
▁No	-2576
еркәсіп	-2577
▁негіздел	-2578
▁біріккен	-2579
▁медицина	-2580
▁себеп	-2581
▁патри	-2582
гед	-2583
шіл	-2584
▁имп	-2585
▁жамбыл	-2586
▁қарқынды	-2587
▁қызылорда	-2588
аспий	-2589
▁орташа	-2590
кр	-2591
актор	-2592
▁кодек	-2593
▁рейтинг	-2594
▁2010	-2595
▁гран	-2596
▁шикіз	-2597
▁ст	-2598
▁шикізат	-2599
мин	-2600
өнеркәсіп	-2601
▁З	-2602
▁ави	-2603
▁нор	-2604
иттік	-2605
бол	-2606
ью	-2607
▁сынақ	-2608
▁ауылдық	-2609
ікстан	-2610
▁сұран	-2611
▁қажеттіліг	-2612
екте	-2613
▁колл	-2614
▁корея	-2615
▁станция	-2616
▁жетілдір	-2617
▁корпорация	-2618
▁келтір	-2619
▁белгілен	-2620
▁бет	-2621
▁талқылан	-2622
ост	-2623
байжан	-2624
▁мүгед	-2625
▁жаттығ	-2626
▁электронды	-2627
ұлов	-2628
▁құбыр	-2629
▁қандай	-2630
▁төтенше	-2631
▁украина	-2632
▁үрдіс	-2633
шан	-2634
▁асп	-2635
▁тат	-2636
▁мамин	-2637
▁бюджеттік	-2638
ана	-2639
▁түзету	-2640
▁көрсетілім	-2641
▁ашылу	-2642
▁бөлімше	-2643
мб	-2644
▁сип	-2645
▁демократ	-2646
ның	-2647
▁қана	-2648
тандыр	-2649
▁гект	-2650
▁қуан	-2651
▁нас	-2652
оттық	-2653
es	-2654
▁ұрп	-2655
▁өл	-2656
▁маг	-2657
▁баса	-2658
▁га	-2659
▁шыұ	-2660
▁музей	-2661
▁ұйы	-2662
▁фар	-2663
аланд	-2664
▁қосу	-2665
▁Үкім	-2666
▁таныт	-2667
істіг	-2668
▁жайт	-2669
▁сақтал	-2670
тания	-2671
▁тексеру	-2672
імпаз	-2673
▁гектар	-2674
▁инновация	-2675
▁тық	-2676
▁жеңімпаз	-2677
▁конституция	-2678
▁өнеркәсіптік	-2679
▁қылмыс	-2680
▁теміржол	-2681
аларындағы	-2682
▁жауапкершілік	-2683
ков	-2684
▁км	-2685
▁құрм	-2686
▁жоб	-2687
▁дауыс	-2688
▁міндетт	-2689
▁бу	-2690
ландыр	-2691
▁қалған	-2692
▁тариф	-2693
▁күшейту	-2694
▁kz	-2695
▁за	-2696
▁қауымдастық	-2697
ре	-2698
▁риза	-2699
▁тізім	-2700
▁ірікт	-2701
▁!	-2702
ена	-2703
олия	-2704
▁курс	-2705
▁франция	-2706
▁уағ	-2707
▁төрағалығ	-2708
▁вал	-2709
икер	-2710
▁дерек	-2711
▁фактор	-2712
▁болж	-2713
▁бәсекелестік	-2714
еліг	-2715
елеу	-2716
▁олимпи	-2717
▁қозғалыс	-2718
▁журналист	-2719
▁конституциялық	-2720
▁болу	-2721
▁бақыла	-2722
ио	-2723
▁әсір	-2724
▁портал	-2725
it	-2726
▁босат	-2727
▁аппарат	-2728
▁дәрігер	-2729
▁консуль	-2730
естив	-2731
ңгілік	-2732
▁90	-2733
▁спикер	-2734
▁төменде	-2735
есу	-2736
ритания	-2737
▁жаңартыл	-2738
емп	-2739
қында	-2740
▁итал	-2741
▁өзгерту	-2742
ивті	-2743
▁қарс	-2744
▁өткізіл	-2745
▁дайындал	-2746
▁ынталанд	-2747
▁45	-2748
▁қоға	-2749
▁оңтай	-2750
▁әсіресе	-2751
▁Мемлекеттік	-2752
▁ұйымдастырыл	-2753
жар	-2754
▁сүй	-2755
▁m	-2756
▁діни	-2757
▁енгізіл	-2758
орд	-2759
▁оз	-2760
ұқсат	-2761
▁қорға	-2762
арлы	-2763
▁дұр	-2764
▁импорт	-2765
▁Ұлттық	-2766
окө	-2767
▁құс	-2768
▁біріктір	-2769
▁қатер	-2770
▁рұқсат	-2771
▁Мәжіліс	-2772
▁Қаз	-2773
▁септіг	-2774
▁қостанай	-2775
▁араб	-2776
▁теле	-2777
▁қарамас	-2778
▁логистикалық	-2779
▁режим	-2780
▁сәтті	-2781
▁тартыл	-2782
▁институцион	-2783
тас	-2784
▁асқар	-2785
▁сипат	-2786
пай	-2787
▁бастау	-2788
▁интерн	-2789
▁орнату	-2790
дей	-2791
▁тұрақ	-2792
▁қолданыл	-2793
етр	-2794
▁2011	-2795
ұлттық	-2796
▁күтіл	-2797
мақ	-2798
ұрық	-2799
▁әкел	-2800
емпион	-2801
▁инжен	-2802
▁бірліг	-2803
▁айқында	-2804
жанов	-2805
▁жауапты	-2806
бег	-2807
мағ	-2808
манов	-2809
▁байқал	-2810
▁меңгер	-2811
▁келтіру	-2812
▁төлеу	-2813
езиден	-2814
▁норма	-2815
▁комму	-2816
▁қағида	-2817
▁белгіле	-2818
▁чемпион	-2819
▁ұм	-2820
▁кан	-2821
▁хабардар	-2822
▁маңғыстау	-2823
▁тәжікстан	-2824
те	-2825
қыш	-2826
▁дж	-2827
▁бау	-2828
▁кету	-2829
▁формат	-2830
▁беруші	-2831
▁тұжырымдама	-2832
▁дс	-2833
▁таяу	-2834
▁қаны	-2835
▁құттықтау	-2836
▁тасымалдау	-2837
▁индустриялық	-2838
▁билік	-2839
әсіл	-2840
▁жеделхат	-2841
▁мүлік	-2842
▁мінде	-2843
▁фестив	-2844
ікті	-2845
▁зал	-2846
▁сынды	-2847
▁қуаттылығ	-2848
▁дос	-2849
▁атырау	-2850
▁жапония	-2851
▁шақырым	-2852
▁шымкент	-2853
лн	-2854
еген	-2855
▁Ақмола	-2856
▁коммер	-2857
▁лауазым	-2858
урет	-2859
▁инфрақұрылымдық	-2860
ғыр	-2861
▁33	-2862
▁мак	-2863
▁конт	-2864
▁зат	-2865
▁мол	-2866
▁мерейт	-2867
ұс	-2868
▁бөлу	-2869
▁проф	-2870
▁модел	-2871
▁доллар	-2872
▁кезекте	-2873
▁Үкімет	-2874
▁насихат	-2875
етін	-2876
омарт	-2877
шық	-2878
▁бә	-2879
дігін	-2880
енттік	-2881
▁шектеулі	-2882
▁трлн	-2883
▁тоқтал	-2884
▁мерейтой	-2885
▁шығармашылық	-2886
дб	-2887
▁ратификациялау	-2888
ысы	-2889
▁жақсарт	-2890
▁жаңғыру	-2891
шар	-2892
▁шв	-2893
▁стат	-2894
▁қарал	-2895
▁мүгедек	-2896
▁көше	-2897
▁сыйлық	-2898
▁прокуратура	-2899
▁36	-2900
▁әлемде	-2901
▁металлург	-2902
▁колледж	-2903
▁кооп	-2904
ва	-2905
▁арна	-2906
▁қада	-2907
▁Ақтөбе	-2908
▁Сен	-2909
▁салаларындағы	-2910
▁күніне	-2911
▁қабілетті	-2912
ны	-2913
айым	-2914
▁тұрм	-2915
▁дұрыс	-2916
▁жақында	-2917
▁v	-2918
таб	-2919
дала	-2920
▁түлек	-2921
▁команда	-2922
▁бос	-2923
▁ұз	-2924
stan	-2925
▁лай	-2926
▁поль	-2927
▁каспий	-2928
▁тобы	-2929
▁бағалау	-2930
▁мыр	-2931
▁үйр	-2932
▁жина	-2933
▁агенттік	-2934
▁34	-2935
дістан	-2936
тация	-2937
▁тәсіл	-2938
еди	-2939
▁күй	-2940
▁қарыз	-2941
▁үкіметтік	-2942
▁суд	-2943
▁механ	-2944
▁қарау	-2945
▁мектеб	-2946
▁монитор	-2947
ғаз	-2948
▁индустриалды	-2949
▁гісі	-2950
▁коммунал	-2951
▁дәлел	-2952
▁конк	-2953
▁аумақ	-2954
▁Еур	-2955
▁Мин	-2956
▁саб	-2957
▁гіз	-2958
▁қха	-2959
▁тегін	-2960
▁шық	-2961
ЭО	-2962
фор	-2963
▁сұраныс	-2964
▁танымал	-2965
▁жауынгерлік	-2966
атындығ	-2967
▁концерт	-2968
▁транзиттік	-2969
▁еэк	-2970
▁ниет	-2971
▁сағат	-2972
▁f	-2973
▁қақ	-2974
▁150	-2975
▁сез	-2976
▁туған	-2977
▁қуаныш	-2978
▁кезек	-2979
▁жүйелі	-2980
▁сағынтаев	-2981
▁ШҚО	-2982
▁жасаған	-2983
▁мерзімді	-2984
▁құрметті	-2985
▁мониторинг	-2986
ник	-2987
▁болма	-2988
▁химия	-2989
▁судья	-2990
ion	-2991
▁көрініс	-2992
▁мамандық	-2993
▁тұтынушы	-2994
өк	-2995
усыз	-2996
ыңғы	-2997
жылдық	-2998
▁қарсаң	-2999
ұхбат	-3000
lo	-3001
▁ЕА	-3002
бетов	-3003
▁Қыз	-3004
аратын	-3005
▁орынды	-3006
▁ықпалдастық	-3007
▁жарыс	-3008
▁сұхбат	-3009
▁қазына	-3010
▁анықтау	-3011
әм	-3012
▁дәреже	-3013
▁Премьер	-3014
▁әбдіқалықова	-3015
▁жекеш	-3016
▁сирия	-3017
▁қарап	-3018
▁қысқа	-3019
ежай	-3020
▁өск	-3021
▁парк	-3022
▁шығаратын	-3023
▁жайлы	-3024
▁d	-3025
▁бекі	-3026
▁жылу	-3027
▁бауыр	-3028
▁АҚ	-3029
окөлік	-3030
су	-3031
▁Бү	-3032
▁әкімшіліг	-3033
▁шо	-3034
▁жұмысшы	-3035
▁кезекті	-3036
30	-3037
фон	-3038
▁тама	-3039
▁кедер	-3040
▁семей	-3041
▁өтілді	-3042
▁келешег	-3043
▁ЕАЭО	-3044
▁шығарыл	-3045
лад	-3046
▁түй	-3047
▁тіркеу	-3048
▁автокөлік	-3049
▁ескерт	-3050
елендіру	-3051
▁кедергі	-3052
▁мәселен	-3053
ve	-3054
ырт	-3055
▁бұқ	-3056
▁қайыр	-3057
▁ұрпақ	-3058
▁мәңгілік	-3059
ірт	-3060
▁раста	-3061
▁сақтандыру	-3062
▁үйлестіру	-3063
бан	-3064
▁бұрынғы	-3065
▁туында	-3066
▁автомат	-3067
▁еуразия	-3068
▁коммуналдық	-3069
▁38	-3070
ықтыру	-3071
▁баспана	-3072
шек	-3073
▁қхр	-3074
▁елеулі	-3075
▁сайлан	-3076
ци	-3077
▁еңбег	-3078
▁жаңғырт	-3079
▁көліктік	-3080
▁37	-3081
▁ду	-3082
▁ео	-3083
▁Ресей	-3084
▁?	-3085
▁дө	-3086
▁ман	-3087
▁бейн	-3088
▁ұлыб	-3089
▁әуежай	-3090
▁ақыл	-3091
▁конв	-3092
▁бірақ	-3093
▁үміткер	-3094
▁олимпиада	-3095
▁Министр	-3096
▁жарияла	-3097
▁кеңістік	-3098
▁бил	-3099
▁грант	-3100
▁алдымен	-3101
▁ассамблеясы	-3102
▁ғасыр	-3103
▁қарсаңында	-3104
▁жарақ	-3105
▁Л	-3106
ділік	-3107
мения	-3108
▁қондыр	-3109
▁есептел	-3110
▁қолжетімді	-3111
▁ұлыбритания	-3112
ic	-3113
▁ән	-3114
деме	-3115
▁ауқат	-3116
▁тамыз	-3117
▁түскен	-3118
▁алдыңғы	-3119
▁полиция	-3120
дің	-3121
тін	-3122
▁Әб	-3123
▁фин	-3124
▁валю	-3125
ғандығ	-3126
▁аурухана	-3127
▁құл	-3128
▁даярлау	-3129
ланд	-3130
▁бұқаралық	-3131
▁міндеттеме	-3132
▁Қазақстандық	-3133
▁үкіметаралық	-3134
ұрт	-3135
▁құз	-3136
▁сурет	-3137
▁қарусыз	-3138
▁жауапкершіліг	-3139
ыстыру	-3140
▁өкілетті	-3141
▁Бүгін	-3142
імен	-3143
▁тағ	-3144
▁тетік	-3145
▁Фото	-3146
▁әңгіме	-3147
белік	-3148
ындал	-3149
▁актив	-3150
▁жасақта	-3151
▁интернет	-3152
есс	-3153
▁озық	-3154
▁аға	-3155
▁экстр	-3156
▁қорша	-3157
▁жаттығу	-3158
▁ресейлік	-3159
▁x	-3160
евт	-3161
▁фер	-3162
▁ауыс	-3163
▁ойла	-3164
арация	-3165
▁үндістан	-3166
▁Қызылорда	-3167
▁оқыт	-3168
▁тіле	-3169
▁демал	-3170
▁мәскеу	-3171
▁талдау	-3172
▁қалай	-3173
▁декл	-3174
▁агроөнеркәсіп	-3175
▁балық	-3176
▁ақтау	-3177
▁секілді	-3178
ота	-3179
рам	-3180
▁аралап	-3181
▁ұстаным	-3182
▁ұйымдастырушы	-3183
улет	-3184
▁Заң	-3185
▁баз	-3186
▁түсіністік	-3187
▁мой	-3188
▁жұмыл	-3189
▁спорттық	-3190
▁әбдір	-3191
▁па	-3192
▁статист	-3193
стер	-3194
ысов	-3195
▁көтеру	-3196
▁польша	-3197
▁объекті	-3198
▁пайызды	-3199
▁парламентаралық	-3200
▁w	-3201
▁75	-3202
аров	-3203
имир	-3204
ойыз	-3205
▁дөңг	-3206
▁уә	-3207
▁көшу	-3208
▁бірлесе	-3209
▁механизм	-3210
▁исп	-3211
қор	-3212
▁парламенттік	-3213
ing	-3214
▁экспорттық	-3215
пус	-3216
▁пойыз	-3217
▁есепте	-3218
▁хаттама	-3219
▁алқа	-3220
ладимир	-3221
▁мәртебе	-3222
▁өңірдегі	-3223
▁штаб	-3224
▁жомарт	-3225
▁ниетті	-3226
▁декларация	-3227
▁клим	-3228
дандыр	-3229
▁атсал	-3230
▁тамақ	-3231
▁уағдала	-3232
▁600	-3233
▁бейім	-3234
менстан	-3235
▁атсалыс	-3236
▁магистр	-3237
екеш	-3238
ec	-3239
еңке	-3240
▁дсұ	-3241
▁маз	-3242
дұ	-3243
▁44	-3244
құлов	-3245
▁арада	-3246
▁экстрем	-3247
▁дым	-3248
▁2009	-3249
▁атом	-3250
▁италия	-3251
улы	-3252
▁клуб	-3253
▁сүру	-3254
йтерек	-3255
шет	-3256
▁кин	-3257
▁әлі	-3258
▁музы	-3259
енд	-3260
▁жылдам	-3261
▁корпус	-3262
▁самұрық	-3263
▁Тә	-3264
▁жоо	-3265
▁дәрі	-3266
▁таны	-3267
▁кітапхана	-3268
анов	-3269
▁істеу	-3270
▁дөңгелек	-3271
▁уағдаластық	-3272
ош	-3273
▁оф	-3274
▁400	-3275
▁рад	-3276
▁ілгерілету	-3277
улин	-3278
▁дыр	-3279
▁кәр	-3280
▁дүние	-3281
▁қазаг	-3282
▁жарқын	-3283
ля	-3284
▁жібек	-3285
дырысов	-3286
▁әңгімеле	-3287
дас	-3288
шын	-3289
▁42	-3290
інің	-3291
▁толығ	-3292
▁фарма	-3293
▁тоқсан	-3294
▁филиал	-3295
▁операция	-3296
зал	-3297
▁президен	-3298
▁конкурс	-3299
▁салынды	-3300
▁отын	-3301
амбетов	-3302
▁салтанат	-3303
▁Ин	-3304
ктор	-3305
▁айыр	-3306
▁орал	-3307
▁құрама	-3308
▁қоғамдастық	-3309
▁l	-3310
▁сарай	-3311
▁аграрлық	-3312
▁бұзушылық	-3313
▁ахметов	-3314
шақ	-3315
▁тасымалда	-3316
нам	-3317
▁инф	-3318
▁көмект	-3319
▁бірде	-3320
ak	-3321
▁ли	-3322
▁жәр	-3323
▁қорытын	-3324
▁48	-3325
▁мықты	-3326
▁күшейт	-3327
▁нормат	-3328
тандырыл	-3329
апур	-3330
▁әде	-3331
▁шебер	-3332
▁меди	-3333
ингапур	-3334
▁ескерткіш	-3335
▁ынша	-3336
▁жеңілдік	-3337
▁жұмыссыз	-3338
икат	-3339
▁қамти	-3340
▁конвенция	-3341
таң	-3342
▁БҰ	-3343
▁ары	-3344
▁бор	-3345
шев	-3346
▁ҚХ	-3347
▁қалыптасқан	-3348
зат	-3349
▁ОҚО	-3350
▁өсу	-3351
жа	-3352
▁сыр	-3353
▁жәрм	-3354
▁кеме	-3355
▁армения	-3356
▁төртінші	-3357
▁марапатта	-3358
▁бұйым	-3359
▁жарық	-3360
▁жаппай	-3361
▁термин	-3362
▁жемісті	-3363
▁БҰҰ	-3364
▁практ	-3365
▁салалық	-3366
▁қайтар	-3367
вт	-3368
тор	-3369
ғат	-3370
▁Түр	-3371
ur	-3372
▁аль	-3373
▁алғы	-3374
▁неміс	-3375
▁орнатыл	-3376
енов	-3377
▁каб	-3378
▁асты	-3379
▁қазагро	-3380
▁жабдықтау	-3381
▁қорытындыл	-3382
дем	-3383
ахманов	-3384
сте	-3385
▁41	-3386
шетау	-3387
▁мекен	-3388
▁жәрмеңке	-3389
▁кәсіптік	-3390
▁Ар	-3391
▁бақылаушы	-3392
▁жоспарлау	-3393
▁55	-3394
ейц	-3395
ерат	-3396
ингі	-3397
▁болжам	-3398
ІМ	-3399
▁пе	-3400
шарт	-3401
▁аман	-3402
▁цифрлық	-3403
ильм	-3404
нама	-3405
▁рез	-3406
▁апта	-3407
▁дағы	-3408
▁жұмсал	-3409
▁орналастыр	-3410
қарас	-3411
▁клас	-3412
▁анықтал	-3413
▁кетерлік	-3414
▁келісімшарт	-3415
▁мерекелік	-3416
сар	-3417
▁шұ	-3418
▁дақыл	-3419
▁Жол	-3420
әдени	-3421
▁47	-3422
vest	-3423
▁ұмтыл	-3424
▁Парлам	-3425
▁орындық	-3426
▁жалғастыру	-3427
▁демократиялық	-3428
▁ұлғайту	-3429
бия	-3430
тқар	-3431
▁нұс	-3432
алиев	-3433
менов	-3434
▁ақпан	-3435
▁әңгімел	-3436
▁көзқарас	-3437
us	-3438
▁иг	-3439
▁фаб	-3440
▁ауқым	-3441
▁жақсар	-3442
▁46	-3443
▁вен	-3444
етнам	-3445
сиада	-3446
▁барл	-3447
▁жалақы	-3448
кені	-3449
▁басқарушы	-3450
▁өйт	-3451
екешев	-3452
▁сынып	-3453
матулин	-3454
▁өйткені	-3455
таж	-3456
▁арх	-3457
▁тел	-3458
▁еуро	-3459
▁инженерлік	-3460
ii	-3461
▁арн	-3462
▁той	-3463
▁ағыл	-3464
▁кені	-3465
▁сұлтанов	-3466
▁логистика	-3467
ль	-3468
ханов	-3469
▁арена	-3470
▁прокурор	-3471
▁h	-3472
жей	-3473
▁39	-3474
▁Бас	-3475
▁пун	-3476
▁мұхам	-3477
▁қадағал	-3478
▁сараптама	-3479
▁ынталандыру	-3480
▁шқо	-3481
▁серв	-3482
▁таза	-3483
▁төле	-3484
зин	-3485
ыстағы	-3486
▁Халық	-3487
▁іскер	-3488
▁хан	-3489
▁професс	-3490
▁моноп	-3491
дану	-3492
цевт	-3493
▁кеңсе	-3494
▁мырза	-3495
▁заманғы	-3496
▁нақтылан	-3497
▁біліктілік	-3498
▁қолданыстағы	-3499
там	-3500
▁жіө	-3501
▁фабр	-3502
изация	-3503
хметов	-3504
▁43	-3505
▁көмір	-3506
▁білікті	-3507
▁біліктіліг	-3508
▁эы	-3509
▁ақша	-3510
▁жұрт	-3511
▁автоб	-3512
▁емхана	-3513
▁медаль	-3514
▁әртарап	-3515
▁төрағалық	-3516
▁қым	-3517
▁опера	-3518
▁үстел	-3519
▁қанағат	-3520
▁тапсырыс	-3521
ЕО	-3522
▁n	-3523
мекен	-3524
уг	-3525
▁сайынғы	-3526
▁президенттік	-3527
▁кар	-3528
▁конф	-3529
▁пункт	-3530
ле	-3531
газ	-3532
ИДЕО	-3533
▁әмір	-3534
▁ВИДЕО	-3535
▁қағаз	-3536
▁қондырғы	-3537
▁қорытындыла	-3538
▁куә	-3539
▁таз	-3540
▁сайт	-3541
▁этнос	-3542
▁хандығ	-3543
up	-3544
▁дала	-3545
▁батыр	-3546
▁бейне	-3547
▁біріг	-3548
▁шықты	-3549
грес	-3550
лігі	-3551
▁құтқар	-3552
▁автожол	-3553
▁аудандық	-3554
одақ	-3555
▁Парламент	-3556
жы	-3557
хай	-3558
▁күз	-3559
ектіг	-3560
▁дәліз	-3561
▁ағылшын	-3562
▁жариялан	-3563
ографиялық	-3564
▁коммерциялық	-3565
ol	-3566
▁владимир	-3567
▁экспортта	-3568
▁индекс	-3569
▁полиг	-3570
▁менедж	-3571
▁сапарбаев	-3572
зра	-3573
діст	-3574
▁сары	-3575
▁валюта	-3576
▁нұрлан	-3577
▁бәйтерек	-3578
▁арм	-3579
▁Сенат	-3580
▁таратпа	-3581
гілі	-3582
▁жүл	-3583
▁әдіст	-3584
ымдылық	-3585
▁бастығ	-3586
▁лайықты	-3587
▁фармацевт	-3588
шұ	-3589
▁си	-3590
амалы	-3591
▁бірт	-3592
▁өзен	-3593
▁Қытай	-3594
▁құзыр	-3595
омәдени	-3596
▁фабрика	-3597
өр	-3598
үрлі	-3599
▁жинақ	-3600
▁пікірінше	-3601
▁тағайындал	-3602
ілі	-3603
▁жобалық	-3604
▁сенатор	-3605
▁сингапур	-3606
▁пайдаланыл	-3607
мұн	-3608
қыз	-3609
▁бітім	-3610
▁азайту	-3611
as	-3612
кет	-3613
▁56	-3614
инат	-3615
▁бағдар	-3616
▁мазмұн	-3617
эн	-3618
утин	-3619
▁берік	-3620
▁аймақта	-3621
▁австр	-3622
▁зертте	-3623
▁ұст	-3624
▁қаси	-3625
▁алекс	-3626
▁өскемен	-3627
▁51	-3628
ылығ	-3629
▁ауд	-3630
▁зар	-3631
▁қабілеттіліг	-3632
ский	-3633
ьетнам	-3634
▁іріктеу	-3635
il	-3636
озиция	-3637
▁акцион	-3638
▁дайындығ	-3639
гог	-3640
▁ауыр	-3641
зраиль	-3642
▁америка	-3643
▁ұжымдық	-3644
ож	-3645
▁52	-3646
▁Пав	-3647
▁мақала	-3648
▁жандандыру	-3649
▁материалдық	-3650
▁штат	-3651
▁тыңда	-3652
▁металлургия	-3653
ation	-3654
▁эыдұ	-3655
▁ұсыну	-3656
ерв	-3657
▁тату	-3658
▁фильм	-3659
▁жаңадан	-3660
▁мақұлда	-3661
▁жабдықтал	-3662
▁тұрақтылығ	-3663
дест	-3664
үлей	-3665
▁ахмет	-3666
▁invest	-3667
▁мейрам	-3668
▁турист	-3669
▁үйлестір	-3670
▁этномәдени	-3671
дж	-3672
аға	-3673
дап	-3674
қай	-3675
інен	-3676
▁сыйл	-3677
ңыр	-3678
▁ұлғайт	-3679
гершілік	-3680
▁әртүрлі	-3681
▁орна	-3682
ткерлік	-3683
▁мәсімов	-3684
▁полигон	-3685
▁құрылғы	-3686
▁кам	-3687
▁лит	-3688
▁шан	-3689
▁ұста	-3690
▁кесте	-3691
▁конгрес	-3692
аулы	-3693
▁тұқ	-3694
▁автобус	-3695
▁баламалы	-3696
ейцария	-3697
дың	-3698
▁қк	-3699
▁ғысы	-3700
▁қысқы	-3701
▁ратификацияла	-3702
дм	-3703
гра	-3704
▁мүш	-3705
жылдығ	-3706
▁тоқтат	-3707
▁оператор	-3708
▁патриоттық	-3709
▁әбдірахманов	-3710
ИДМ	-3711
▁ном	-3712
дагог	-3713
▁сыйлығ	-3714
▁қамтит	-3715
▁қағидат	-3716
▁қадағалау	-3717
ук	-3718
▁цех	-3719
▁Отан	-3720
▁көмег	-3721
▁бақытжан	-3722
▁түсіндіру	-3723
▁сің	-3724
айзия	-3725
▁Нұрлы	-3726
▁қимылды	-3727
▁көмектес	-3728
▁денсаулығ	-3729
▁ста	-3730
▁бюро	-3731
▁басында	-3732
▁Қарағанды	-3733
ева	-3734
▁атамекен	-3735
▁53	-3736
етер	-3737
▁2025	-3738
▁латын	-3739
егер	-3740
ысық	-3741
▁ұқшұ	-3742
қандығ	-3743
▁пысық	-3744
▁шынай	-3745
▁ректор	-3746
▁педагог	-3747
▁түсіндір	-3748
▁бл	-3749
ИДМБ	-3750
андр	-3751
▁пил	-3752
▁фун	-3753
▁жалпыұлттық	-3754
ңғ	-3755
▁көші	-3756
ендіру	-3757
▁есімов	-3758
▁мақсатты	-3759
▁жолындағы	-3760
▁49	-3761
▁54	-3762
▁түб	-3763
▁көкт	-3764
▁өтінім	-3765
▁кейінгі	-3766
▁төмендет	-3767
▁төмендету	-3768
▁рах	-3769
▁уран	-3770
▁сауал	-3771
▁қызыл	-3772
▁климат	-3773
▁мақтан	-3774
▁толықтай	-3775
▁интеграциялық	-3776
akh	-3777
аның	-3778
▁сәт	-3779
▁аяқтау	-3780
▁келешек	-3781
▁телефон	-3782
лар	-3783
үйсен	-3784
▁Павлодар	-3785
▁трансфер	-3786
▁монополия	-3787
▁профессор	-3788
▁СІМ	-3789
зімді	-3790
▁мұғал	-3791
▁король	-3792
▁керектіг	-3793
▁ыдырысов	-3794
▁65	-3795
▁дене	-3796
▁ұзын	-3797
ушылығ	-3798
▁көпір	-3799
▁демалыс	-3800
▁жәрдемдес	-3801
▁У	-3802
▁өңде	-3803
▁кепілдік	-3804
▁тәжірибелік	-3805
тиф	-3806
ылыс	-3807
▁2008	-3808
▁заңсыз	-3809
▁мобиль	-3810
▁кеңістіг	-3811
▁зияткерлік	-3812
ex	-3813
аю	-3814
шаруа	-3815
▁дана	-3816
▁тиес	-3817
кілетті	-3818
om	-3819
кон	-3820
▁маус	-3821
▁топта	-3822
▁төменгі	-3823
▁санат	-3824
лян	-3825
▁мемлекетт	-3826
▁тиесілі	-3827
▁72	-3828
▁вел	-3829
▁жұмса	-3830
▁жекешелендіру	-3831
леме	-3832
▁000	-3833
▁был	-3834
▁алмат	-3835
▁кодекс	-3836
▁сертиф	-3837
▁маусымда	-3838
▁алқ	-3839
▁жинау	-3840
ri	-3841
▁ауыз	-3842
▁кіру	-3843
ерлігі	-3844
▁қаулы	-3845
▁аспекті	-3846
▁көліг	-3847
▁тірке	-3848
▁холдингі	-3849
▁ex	-3850
▁700	-3851
▁орден	-3852
▁Жамбыл	-3853
▁деңгейлі	-3854
▁орналастыру	-3855
▁консультация	-3856
әуір	-3857
індік	-3858
▁барлау	-3859
▁көпжақты	-3860
▁қарастыру	-3861
уел	-3862
▁550	-3863
ғанда	-3864
▁жетк	-3865
▁тұру	-3866
▁испания	-3867
ине	-3868
▁бәрі	-3869
▁доста	-3870
▁келісті	-3871
тим	-3872
инет	-3873
▁үйрен	-3874
иб	-3875
▁Тәуел	-3876
▁награ	-3877
▁әріпте	-3878
▁қысқарту	-3879
▁мемлекетаралық	-3880
▁сим	-3881
ляндия	-3882
ербайжан	-3883
▁ауылшаруа	-3884
ета	-3885
▁атам	-3886
▁хандығының	-3887
▁аэа	-3888
▁хор	-3889
▁өрт	-3890
▁тәрбие	-3891
▁ұйымдас	-3892
▁универсиада	-3893
el	-3894
гр	-3895
stana	-3896
▁ИИДМБ	-3897
▁қарас	-3898
▁қойна	-3899
▁әділет	-3900
▁серіктестіг	-3901
▁кес	-3902
дарлы	-3903
тығыс	-3904
▁Ас	-3905
шара	-3906
▁мына	-3907
▁тест	-3908
▁әбіш	-3909
▁шақыру	-3910
▁сөзінше	-3911
▁түрікменстан	-3912
ылы	-3913
▁250	-3914
▁алушы	-3915
▁тарату	-3916
▁жеңілдет	-3917
▁кетерлігі	-3918
мед	-3919
▁57	-3920
▁шаң	-3921
▁сауд	-3922
▁береке	-3923
▁едәуір	-3924
узия	-3925
ымыз	-3926
▁мұқ	-3927
ендір	-3928
шілес	-3929
▁шынайы	-3930
▁жекемен	-3931
▁кабинет	-3932
онд	-3933
▁Қо	-3934
▁2030	-3935
▁орыс	-3936
▁қысқарт	-3937
▁терминал	-3938
▁сайыс	-3939
▁сындарлы	-3940
▁қақтығыс	-3941
▁тез	-3942
▁апат	-3943
▁рефор	-3944
▁қауым	-3945
▁әрдай	-3946
▁егемен	-3947
▁жаңарту	-3948
▁қолданыс	-3949
▁жекеменшік	-3950
▁қайырымдылық	-3951
сты	-3952
тану	-3953
▁Кор	-3954
▁ерт	-3955
▁рух	-3956
▁жасқа	-3957
▁қозға	-3958
▁күнімен	-3959
▁мұражай	-3960
лав	-3961
лым	-3962
▁адамзат	-3963
▁әрдайым	-3964
▁қажеттілік	-3965
▁қызығушылығ	-3966
▁62	-3967
▁нидер	-3968
▁серік	-3969
▁бекіту	-3970
▁қабілеттілік	-3971
аңк	-3972
▁74	-3973
▁етіл	-3974
▁сүлей	-3975
▁kazakh	-3976
▁бостан	-3977
▁фестивал	-3978
то	-3979
▁85	-3980
алан	-3981
далы	-3982
▁пәт	-3983
ермен	-3984
▁резерв	-3985
лин	-3986
сақ	-3987
егия	-3988
умын	-3989
▁аөк	-3990
▁пара	-3991
імбаев	-3992
▁тамаш	-3993
▁израиль	-3994
▁өнімділіг	-3995
ейс	-3996
▁асыл	-3997
▁ахқо	-3998
▁лаңк	-3999
▁әдеби	-4000
ография	-4001
▁орнықты	-4002
цуз	-4003
▁каз	-4004
▁пан	-4005
ляция	-4006
▁сату	-4007
▁ғасы	-4008
▁авиация	-4009
ли	-4010
▁64	-4011
өніс	-4012
▁табы	-4013
▁былтыр	-4014
▁көкөніс	-4015
▁түркістан	-4016
ғар	-4017
қас	-4018
▁ұкп	-4019
▁жекеле	-4020
қашан	-4021
▁абай	-4022
▁қалып	-4023
▁трансп	-4024
ди	-4025
▁өсір	-4026
▁вьетнам	-4027
▁комис	-4028
▁ғалам	-4029
дин	-4030
▁грам	-4031
▁әліп	-4032
икатор	-4033
▁мұғалім	-4034
po	-4035
әк	-4036
▁I	-4037
roup	-4038
▁800	-4039
▁гей	-4040
▁ҚХА	-4041
▁сабақ	-4042
▁сайлаушы	-4043
un	-4044
нен	-4045
сай	-4046
▁афр	-4047
ирург	-4048
▁атқару	-4049
▁жарлығ	-4050
▁шанхай	-4051
рий	-4052
▁қож	-4053
▁алты	-4054
▁азайт	-4055
▁тілді	-4056
▁түйін	-4057
бет	-4058
▁58	-4059
ератив	-4060
▁игеру	-4061
▁тыйым	-4062
▁негізде	-4063
ономикалық	-4064
▁швейцария	-4065
▁әзірбайжан	-4066
ынан	-4067
▁лиц	-4068
орған	-4069
▁ойым	-4070
лемдік	-4071
▁ерлан	-4072
▁александр	-4073
▁акционерлік	-4074
ЫҰ	-4075
сих	-4076
▁күм	-4077
▁әрине	-4078
агн	-4079
сас	-4080
▁әк	-4081
▁зерт	-4082
▁консул	-4083
▁реформ	-4084
▁толықтыр	-4085
▁өлш	-4086
▁псих	-4087
▁қуатты	-4088
▁ерекшеліг	-4089
▁құрастыру	-4090
лет	-4091
▁95	-4092
▁То	-4093
▁тараз	-4094
▁туғыз	-4095
▁пайдалы	-4096
▁насихаттау	-4097
▁59	-4098
▁чех	-4099
ұрлым	-4100
▁ашты	-4101
▁карт	-4102
▁қабілет	-4103
▁ұзындығ	-4104
▁лаңкестік	-4105
is	-4106
▁қт	-4107
стру	-4108
▁ант	-4109
▁номин	-4110
тамалық	-4111
▁кооператив	-4112
▁статистика	-4113
ерал	-4114
▁өзіндік	-4115
▁конфессия	-4116
▁пек	-4117
▁өсіру	-4118
▁команд	-4119
▁тамашала	-4120
▁қытайлық	-4121
▁соз	-4122
▁абат	-4123
▁жазыл	-4124
▁ұқсас	-4125
▁базалық	-4126
▁ұзақмер	-4127
▁басшылық	-4128
▁индикатор	-4129
▁экстремизм	-4130
▁1000	-4131
▁жеткізіл	-4132
▁исекешев	-4133
леу	-4134
▁ену	-4135
▁плат	-4136
▁қоғамда	-4137
▁пилоттық	-4138
▁тереңдету	-4139
▁шағ	-4140
▁ірг	-4141
егейлі	-4142
ғалиев	-4143
▁досаев	-4144
▁байқаушы	-4145
▁түбегейлі	-4146
▁нормативтік	-4147
ov	-4148
ent	-4149
▁99	-4150
сыру	-4151
▁АҚШ	-4152
тылық	-4153
▁Елші	-4154
▁болат	-4155
▁бөліс	-4156
▁жүкте	-4157
▁ұстаз	-4158
▁канада	-4159
станалық	-4160
▁хал	-4161
▁тілін	-4162
▁контейн	-4163
▁әрекетт	-4164
ехн	-4165
▁78	-4166
▁арз	-4167
▁келі	-4168
▁көрк	-4169
▁аралас	-4170
▁болдыр	-4171
▁тұрмыс	-4172
▁әліпби	-4173
▁награда	-4174
▁тапсыру	-4175
▁қауіпсіз	-4176
ңір	-4177
▁97	-4178
▁ом	-4179
▁120	-4180
▁тай	-4181
кістан	-4182
▁грамота	-4183
▁елшіліг	-4184
▁жатқандығ	-4185
ad	-4186
ess	-4187
круг	-4188
▁диз	-4189
шалық	-4190
▁Азия	-4191
▁көбе	-4192
▁округ	-4193
▁кеңесші	-4194
▁ерекшелік	-4195
▁әңгімелесу	-4196
ром	-4197
▁92	-4198
▁ағаш	-4199
▁қамты	-4200
▁жайында	-4201
▁жәрдемақы	-4202
▁отбасылық	-4203
▁тағайындау	-4204
▁әзербайжан	-4205
оф	-4206
▁боз	-4207
баева	-4208
▁егін	-4209
▁жету	-4210
▁салт	-4211
▁диагн	-4212
▁жаңалық	-4213
▁француз	-4214
вол	-4215
кес	-4216
▁Кон	-4217
▁арман	-4218
▁дүйсен	-4219
▁келуші	-4220
▁транзит	-4221
▁хатшылығ	-4222
▁98	-4223
▁дән	-4224
▁қатаң	-4225
▁қашық	-4226
▁сербия	-4227
▁сәулет	-4228
іміздегі	-4229
▁себепті	-4230
▁комиссар	-4231
▁көкшетау	-4232
▁химиялық	-4233
▁шал	-4234
стырыл	-4235
окзал	-4236
ірткі	-4237
▁айда	-4238
▁шығу	-4239
▁армия	-4240
▁қуанышты	-4241
ir	-4242
анс	-4243
мау	-4244
▁сти	-4245
▁бекет	-4246
▁қалды	-4247
▁Сағынтаев	-4248
▁ризашылық	-4249
lob	-4250
▁рф	-4251
▁кіл	-4252
▁путин	-4253
▁түсім	-4254
▁бірден	-4255
▁көктем	-4256
▁кандидатура	-4257
тің	-4258
▁іі	-4259
бург	-4260
▁айн	-4261
▁мег	-4262
▁петр	-4263
▁автор	-4264
▁туынды	-4265
▁табыста	-4266
▁малайзия	-4267
иж	-4268
▁қап	-4269
lobal	-4270
бинат	-4271
▁тудыр	-4272
▁оқытушы	-4273
▁өсімдік	-4274
▁ризашылығ	-4275
▁сертификат	-4276
қау	-4277
▁63	-4278
▁67	-4279
▁ұн	-4280
▁кур	-4281
▁тұта	-4282
▁жылжым	-4283
▁r	-4284
▁61	-4285
▁сл	-4286
▁үмі	-4287
▁виза	-4288
▁киім	-4289
▁өлім	-4290
▁емдеу	-4291
▁жинақта	-4292
▁ұзақмерзімді	-4293
▁66	-4294
ырақ	-4295
▁бур	-4296
▁вас	-4297
▁пән	-4298
▁ТМ	-4299
айтын	-4300
▁атаулы	-4301
▁шектеу	-4302
қаз	-4303
▁вело	-4304
▁стипен	-4305
▁есірткі	-4306
▁қатарлы	-4307
▁өркенде	-4308
▁бірлестіг	-4309
▁билет	-4310
▁платформа	-4311
▁ев	-4312
▁ваг	-4313
ғарыш	-4314
▁ұшыр	-4315
▁грузия	-4316
▁тексеріс	-4317
▁геологиялық	-4318
▁др	-4319
▁ши	-4320
азил	-4321
мбул	-4322
▁атт	-4323
▁кім	-4324
жарстан	-4325
ғандай	-4326
▁терез	-4327
▁патриот	-4328
▁мәлімдеме	-4329
▁тұрмыстық	-4330
ЭК	-4331
адалық	-4332
▁румын	-4333
▁қызметк	-4334
▁цифрландыр	-4335
▁құй	-4336
▁Ұлы	-4337
▁2007	-4338
▁жетіс	-4339
▁шоғыр	-4340
▁финляндия	-4341
em	-4342
малы	-4343
▁ауа	-4344
▁кат	-4345
екция	-4346
лемент	-4347
▁төлен	-4348
▁әбішұлы	-4349
▁фестиваль	-4350
алов	-4351
▁кред	-4352
▁сіңір	-4353
▁корпорат	-4354
▁68	-4355
ірім	-4356
▁заңда	-4357
▁уақытша	-4358
▁әмірлік	-4359
▁диагност	-4360
▁нығматулин	-4361
тел	-4362
▁77	-4363
ілеу	-4364
атория	-4365
▁көрші	-4366
▁тұсау	-4367
▁Тоқаев	-4368
▁энерго	-4369
▁делегат	-4370
▁элемент	-4371
▁үнемдеу	-4372
ДМ	-4373
▁ұт	-4374
▁баб	-4375
▁арабия	-4376
▁комбинат	-4377
▁дипломатия	-4378
▁оңтайландыру	-4379
▁73	-4380
▁ұшу	-4381
▁өзект	-4382
▁сауықтыру	-4383
▁сараптамалық	-4384
▁_	-4385
▁Ис	-4386
▁прин	-4387
▁Еуроп	-4388
▁вагон	-4389
▁зардап	-4390
▁беделді	-4391
▁позиция	-4392
▁қиындық	-4393
▁76	-4394
▁күре	-4395
▁ыңғай	-4396
▁қанат	-4397
▁практикалық	-4398
ымбаев	-4399
▁шешіл	-4400
▁британ	-4401
▁терезе	-4402
▁жауынгер	-4403
▁пайдаланушы	-4404
▁нәр	-4405
▁салым	-4406
▁үйлес	-4407
імбетов	-4408
▁ойымша	-4409
▁бейімдел	-4410
ттен	-4411
▁дин	-4412
▁тіні	-4413
▁орман	-4414
▁бөлшек	-4415
▁бастапқы	-4416
▁инфляция	-4417
уд	-4418
▁71	-4419
▁мж	-4420
▁Қор	-4421
▁түсір	-4422
▁жоғарыл	-4423
▁көпшілік	-4424
▁кв	-4425
асан	-4426
▁жой	-4427
▁қтж	-4428
▁атағ	-4429
▁оңай	-4430
▁Қазақ	-4431
▁әртіс	-4432
▁І	-4433
нис	-4434
оңыр	-4435
ірек	-4436
▁биік	-4437
▁берме	-4438
▁санитарлық	-4439
▁сүлейменов	-4440
▁субсидиялау	-4441
▁быз	-4442
▁көрн	-4443
▁гүлден	-4444
▁байқоңыр	-4445
ки	-4446
оч	-4447
омп	-4448
ытыл	-4449
▁шаб	-4450
▁музык	-4451
▁диплом	-4452
▁қамқор	-4453
▁атамқұлов	-4454
етте	-4455
▁мүл	-4456
▁тұт	-4457
дарындағы	-4458
▁пайыздық	-4459
▁африка	-4460
▁негізінен	-4461
▁онк	-4462
▁офиц	-4463
▁нұсқа	-4464
▁тетіг	-4465
▁қыркүйег	-4466
ду	-4467
шк	-4468
арк	-4469
▁ДС	-4470
▁түп	-4471
▁group	-4472
▁мұның	-4473
▁тапшылығ	-4474
▁қарусыздану	-4475
ыма	-4476
талас	-4477
өндір	-4478
▁басын	-4479
▁содан	-4480
▁доктор	-4481
▁сервис	-4482
▁аумақтық	-4483
▁таныстыру	-4484
▁департамен	-4485
дыз	-4486
дібек	-4487
майды	-4488
▁буын	-4489
▁ықпалда	-4490
ха	-4491
▁мағ	-4492
халық	-4493
қанды	-4494
▁ақпа	-4495
▁ісін	-4496
▁шұғыл	-4497
▁astana	-4498
▁бесінші	-4499
▁жетістіг	-4500
▁шеберлік	-4501
▁xx	-4502
▁аяғ	-4503
▁ест	-4504
▁рау	-4505
енинг	-4506
▁венгр	-4507
▁генерал	-4508
▁тәуекел	-4509
мағамбетов	-4510
▁мас	-4511
андыр	-4512
▁алда	-4513
▁қайт	-4514
▁үнемі	-4515
▁өзгерт	-4516
▁тұсаукес	-4517
et	-4518
аж	-4519
ыпов	-4520
дігер	-4521
ұлдыз	-4522
▁белгі	-4523
▁жанар	-4524
▁халықтық	-4525
▁Халықаралық	-4526
▁академиялық	-4527
▁бағдарламалық	-4528
▁бітімгершілік	-4529
авл	-4530
▁тж	-4531
▁бир	-4532
▁тұсаукесер	-4533
▁мәліметінше	-4534
вия	-4535
шығ	-4536
▁ла	-4537
ықтыр	-4538
▁адал	-4539
▁дерб	-4540
елеком	-4541
▁даярлық	-4542
▁қолжетімділіг	-4543
20	-4544
зи	-4545
▁194	-4546
▁лат	-4547
▁тим	-4548
▁әрқай	-4549
▁отырғыз	-4550
▁ам	-4551
▁қоя	-4552
▁клин	-4553
▁оңал	-4554
▁форма	-4555
▁қорғас	-4556
▁нақтыла	-4557
▁астаналық	-4558
▁пікірталас	-4559
▁әртараптандыру	-4560
▁87	-4561
ұхам	-4562
▁Маң	-4563
▁дім	-4564
▁піз	-4565
▁юнес	-4566
▁жарлық	-4567
▁өркени	-4568
▁ашықтығ	-4569
кс	-4570
ылу	-4571
▁гу	-4572
▁ұб	-4573
▁принц	-4574
шімбаев	-4575
▁сандық	-4576
▁86	-4577
▁шол	-4578
▁йтін	-4579
▁бидай	-4580
▁орнына	-4581
▁қызықты	-4582
еран	-4583
▁Кең	-4584
▁ТМД	-4585
▁рек	-4586
ежелі	-4587
кцион	-4588
овтың	-4589
▁2005	-4590
▁көшір	-4591
▁лидер	-4592
▁нығаю	-4593
▁федер	-4594
▁құрлық	-4595
▁білімді	-4596
▁үміттен	-4597
▁ахметжан	-4598
▁номинация	-4599
▁толыққанды	-4600
уыл	-4601
▁үстем	-4602
▁аудару	-4603
▁белдеу	-4604
▁юнеско	-4605
нің	-4606
ьян	-4607
▁ск	-4608
▁күр	-4609
▁Еураз	-4610
▁ерікті	-4611
▁үнемде	-4612
▁демократия	-4613
▁индустриял	-4614
сон	-4615
зинь	-4616
▁виз	-4617
▁тұс	-4618
▁қарапайым	-4619
экономикалық	-4620
ac	-4621
ed	-4622
ot	-4623
кп	-4624
▁сәр	-4625
▁жұлдыз	-4626
▁таңдау	-4627
▁Қостанай	-4628
▁жандандыр	-4629
▁кооперация	-4630
меу	-4631
опавл	-4632
▁аэро	-4633
▁айтар	-4634
▁динам	-4635
▁литва	-4636
▁Жарлығ	-4637
▁дәрмек	-4638
▁қосылу	-4639
▁зертхана	-4640
▁орындалу	-4641
▁жеткілікті	-4642
▁байланыстыр	-4643
до	-4644
▁физ	-4645
▁саты	-4646
▁ұлан	-4647
қандай	-4648
▁бағын	-4649
▁жасақ	-4650
▁кеңей	-4651
▁сүйен	-4652
▁қатты	-4653
▁жалғыз	-4654
▁іздест	-4655
▁салықтық	-4656
алай	-4657
▁фот	-4658
▁васил	-4659
▁жұмағ	-4660
▁көркем	-4661
▁қалдық	-4662
▁шақырыл	-4663
▁қолбасшы	-4664
▁чемпионат	-4665
еф	-4666
▁шоб	-4667
▁тәуліг	-4668
▁қашықтық	-4669
▁меңгеруші	-4670
▁69	-4671
тары	-4672
▁мез	-4673
▁ник	-4674
▁рейс	-4675
▁Кеңес	-4676
▁жеміс	-4677
▁сіңірген	-4678
▁институционалды	-4679
аби	-4680
пин	-4681
▁82	-4682
▁84	-4683
дустр	-4684
▁алыс	-4685
▁плен	-4686
▁амбул	-4687
ордалық	-4688
▁тармақ	-4689
▁ұлтаралық	-4690
ера	-4691
▁даң	-4692
▁жеті	-4693
▁вокзал	-4694
▁символ	-4695
▁тағдыр	-4696
▁экология	-4697
▁корольдіг	-4698
▁Әбдіқалықова	-4699
или	-4700
▁нью	-4701
▁Жолда	-4702
▁жапон	-4703
▁жөнде	-4704
▁көбей	-4705
▁global	-4706
▁байбек	-4707
▁көшбас	-4708
▁шартты	-4709
▁тереңдет	-4710
▁жұмыссыздық	-4711
▁СҚО	-4712
болат	-4713
ордан	-4714
ыртқы	-4715
▁макро	-4716
▁тұтыну	-4717
▁қымбат	-4718
▁жылыжай	-4719
▁мажарстан	-4720
▁дон	-4721
▁ұлға	-4722
азилия	-4723
▁жөнел	-4724
▁түрін	-4725
▁аударыл	-4726
▁функция	-4727
▁құтқару	-4728
▁менеджмент	-4729
қыр	-4730
▁96	-4731
еция	-4732
▁салығ	-4733
▁ешқандай	-4734
▁қаржылай	-4735
▁Маңғыстау	-4736
▁ретіндегі	-4737
▁құрылымдық	-4738
▁белсенділіг	-4739
▁$	-4740
рон	-4741
әміз	-4742
▁кла	-4743
▁сағ	-4744
▁2006	-4745
▁рәміз	-4746
▁арнаулы	-4747
▁нәтижелі	-4748
аяси	-4749
▁мәм	-4750
▁минер	-4751
▁Сыртқы	-4752
▁ұсыным	-4753
▁дәрежелі	-4754
ЖК	-4755
сыл	-4756
▁ағын	-4757
▁суар	-4758
▁медиа	-4759
▁ауданда	-4760
▁көмекші	-4761
▁біріктіру	-4762
со	-4763
▁ро	-4764
▁Бай	-4765
ектен	-4766
бекова	-4767
▁станса	-4768
▁өңіраралық	-4769
уар	-4770
▁130	-4771
▁мвт	-4772
тырау	-4773
▁дәрілік	-4774
▁қарқыны	-4775
ұз	-4776
кте	-4777
абай	-4778
▁ғалы	-4779
▁офицер	-4780
▁қолдап	-4781
едерация	-4782
▁ынталандыр	-4783
▁ота	-4784
▁марат	-4785
▁Атырау	-4786
▁болмайды	-4787
▁достастық	-4788
▁басымдылық	-4789
▁K	-4790
▁81	-4791
▁рег	-4792
найгаз	-4793
▁жүлде	-4794
▁жүктел	-4795
▁еңбекақы	-4796
▁өкілеттік	-4797
▁коммуникациялық	-4798
эр	-4799
олю	-4800
іпті	-4801
▁Орт	-4802
▁вол	-4803
▁мор	-4804
▁айлық	-4805
▁мүддел	-4806
▁сәйкест	-4807
▁үстіміздегі	-4808
▁қолжетімділік	-4809
▁Ер	-4810
▁Бір	-4811
▁кіші	-4812
▁түсу	-4813
▁иелен	-4814
▁тасым	-4815
▁тіпті	-4816
▁несиелік	-4817
▁жеңілдету	-4818
gy	-4819
тіл	-4820
алия	-4821
▁ЕЭК	-4822
▁тренинг	-4823
▁өкілдіг	-4824
▁кепілден	-4825
үн	-4826
art	-4827
▁94	-4828
▁фак	-4829
отехн	-4830
шылар	-4831
▁кард	-4832
▁тиек	-4833
▁арзан	-4834
▁асыра	-4835
▁кәрім	-4836
▁өлшем	-4837
формация	-4838
▁өкілдік	-4839
▁уақытылы	-4840
▁бизнесмен	-4841
▁ынтымақтас	-4842
▁трансұлттық	-4843
еұ	-4844
гел	-4845
тон	-4846
▁ШО	-4847
▁хқ	-4848
▁аккр	-4849
▁білу	-4850
▁көтеріл	-4851
▁қы	-4852
▁есім	-4853
▁кино	-4854
▁дағды	-4855
▁лицен	-4856
▁анықтама	-4857
▁Ор	-4858
▁Тө	-4859
▁кол	-4860
▁мир	-4861
талық	-4862
▁қант	-4863
асында	-4864
ңғолия	-4865
▁биржа	-4866
▁гүлшара	-4867
▁суретші	-4868
▁басымдығ	-4869
▁трансферт	-4870
▁корпоративтік	-4871
▁88	-4872
▁еқ	-4873
▁бак	-4874
▁бын	-4875
даған	-4876
▁тұрып	-4877
▁ақшалай	-4878
▁жоспарлы	-4879
▁көрнекті	-4880
▁саясаткер	-4881
▁Тәуелсіздік	-4882
▁+	-4883
▁2000	-4884
▁азат	-4885
▁тала	-4886
▁біртұ	-4887
▁табиғат	-4888
атындығын	-4889
олис	-4890
▁пак	-4891
▁ықыл	-4892
▁өтіл	-4893
▁кітаб	-4894
▁аккреди	-4895
▁тұрақтандыру	-4896
йр	-4897
асы	-4898
бағ	-4899
▁83	-4900
▁жж	-4901
реат	-4902
стай	-4903
▁ақы	-4904
▁йор	-4905
▁принцип	-4906
▁дүйсенова	-4907
тқыш	-4908
циал	-4909
▁игі	-4910
▁айып	-4911
▁әске	-4912
▁қадағ	-4913
▁қасиет	-4914
▁көрермен	-4915
▁қанағаттан	-4916
▁мерейтойлық	-4917
СК	-4918
▁бағам	-4919
▁дәуір	-4920
▁сөзсіз	-4921
▁лауреат	-4922
▁қорғаушы	-4923
▁артықшылық	-4924
ыұ	-4925
артап	-4926
▁грек	-4927
▁иеле	-4928
▁қысы	-4929
▁даярла	-4930
▁музыка	-4931
▁бердібек	-4932
▁стипендия	-4933
▁айтылғандай	-4934
өп	-4935
ысу	-4936
▁аө	-4937
ылау	-4938
іпов	-4939
▁игілі	-4940
▁корей	-4941
▁сыйла	-4942
▁оқулық	-4943
▁қалдыр	-4944
▁венгрия	-4945
▁еншілес	-4946
▁кадрлық	-4947
анды	-4948
▁сей	-4949
▁expo	-4950
▁орда	-4951
спірім	-4952
етіндіг	-4953
▁мұхтар	-4954
▁осыдан	-4955
▁тамаша	-4956
ошта	-4957
▁Бол	-4958
▁баә	-4959
▁геос	-4960
▁келу	-4961
▁мұны	-4962
▁фото	-4963
▁қорын	-4964
▁бағалы	-4965
▁мойында	-4966
▁қоғамды	-4967
am	-4968
▁егіс	-4969
▁жасө	-4970
▁сәтт	-4971
▁сатыл	-4972
елендір	-4973
▁мәлімде	-4974
▁стартап	-4975
ком	-4976
▁93	-4977
алқы	-4978
▁иыұ	-4979
▁Қыр	-4980
▁Ұлт	-4981
▁тыныш	-4982
әлемдік	-4983
▁көшіру	-4984
▁Орталық	-4985
▁тәрбиелен	-4986
ват	-4987
теп	-4988
▁79	-4989
▁ги	-4990
ыстан	-4991
▁интел	-4992
▁жасақтау	-4993
▁пәкістан	-4994
▁белсенділік	-4995
ДБ	-4996
▁нү	-4997
збек	-4998
итын	-4999
пелі	-5000
▁180	-5001
▁350	-5002
▁Жас	-5003
▁Мам	-5004
▁төс	-5005
▁шай	-5006
▁шер	-5007
▁шың	-5008
кестр	-5009
емелік	-5010
▁аралық	-5011
▁мобильді	-5012
▁тұрақсыз	-5013
▁өзектіліг	-5014
ату	-5015
▁91	-5016
▁абд	-5017
ондон	-5018
▁2021	-5019
▁чехия	-5020
▁оркестр	-5021
▁динамика	-5022
▁реформалау	-5023
▁мырзахметов	-5024
▁индустриялды	-5025
юз	-5026
▁Ч	-5027
▁нақ	-5028
▁рев	-5029
ланды	-5030
▁муль	-5031
▁аудит	-5032
▁парад	-5033
▁реглам	-5034
▁экспоз	-5035
▁ыңғайлы	-5036
▁әдебиет	-5037
▁әрқашан	-5038
▁болдырмау	-5039
▁жақсыбеков	-5040
▁экспорттау	-5041
os	-5042
спа	-5043
▁хх	-5044
▁бап	-5045
ыртқа	-5046
▁зиян	-5047
▁адами	-5048
▁ауыстыр	-5049
▁айқындал	-5050
▁көктемгі	-5051
▁ілгерілет	-5052
▁трансформация	-5053
елең	-5054
▁Сам	-5055
▁мамандығ	-5056
▁қадағала	-5057
▁өркениет	-5058
▁шынықтыру	-5059
▁экспозиция	-5060
▁фармацевтикалық	-5061
▁Сау	-5062
▁жиі	-5063
▁этно	-5064
▁тұқым	-5065
▁науқас	-5066
▁құрбан	-5067
▁нарықта	-5068
▁оңтайлы	-5069
▁конфессияаралық	-5070
▁ҰК	-5071
▁Бат	-5072
▁пақ	-5073
иринг	-5074
▁пост	-5075
▁таста	-5076
▁ақорда	-5077
▁есептеу	-5078
етіндігін	-5079
▁жұмыртқа	-5080
▁ғарыштық	-5081
▁жасөспірім	-5082
етас	-5083
имен	-5084
▁тор	-5085
▁түрк	-5086
▁инженер	-5087
▁мұрағат	-5088
▁жаңғыртыл	-5089
▁қаражатты	-5090
▁әдістемелік	-5091
▁ұя	-5092
▁болг	-5093
▁деген	-5094
▁жарна	-5095
▁Төтенше	-5096
▁лицензия	-5097
▁бесжылдығ	-5098
▁мөлшерлеме	-5099
▁ауылшаруашылық	-5100
окс	-5101
берг	-5102
ғали	-5103
▁140	-5104
▁мұз	-5105
▁үеұ	-5106
сылман	-5107
өндіру	-5108
▁мұсылман	-5109
▁василенко	-5110
ари	-5111
емат	-5112
▁Бел	-5113
▁паш	-5114
▁күміс	-5115
▁үнқат	-5116
▁қорғал	-5117
▁бауырлас	-5118
▁көпшіліг	-5119
▁нарықтық	-5120
▁тасымалдаушы	-5121
уч	-5122
▁оск	-5123
▁шағым	-5124
▁құнды	-5125
шалықты	-5126
▁жөндел	-5127
іпсіздік	-5128
▁визалық	-5129
▁жасақтал	-5130
▁тестілеу	-5131
▁қонақтары	-5132
пан	-5133
▁Жаң	-5134
ьютер	-5135
▁турн	-5136
▁демеу	-5137
▁жүргізуші	-5138
▁тиімділік	-5139
▁консультат	-5140
ьг	-5141
авк	-5142
мыс	-5143
ғақ	-5144
▁ЕҚ	-5145
▁Тұ	-5146
▁ми	-5147
▁900	-5148
▁аза	-5149
▁жүг	-5150
▁іім	-5151
▁ерік	-5152
дерлік	-5153
▁қазат	-5154
ордания	-5155
▁турнир	-5156
▁белгілеу	-5157
▁әдістеме	-5158
▁пленарлық	-5159
▁сәйкесінше	-5160
▁ок	-5161
арна	-5162
▁айд	-5163
▁абыр	-5164
▁мону	-5165
▁туыс	-5166
ербаев	-5167
▁алқап	-5168
▁архит	-5169
▁бермеу	-5170
▁латвия	-5171
▁ондағы	-5172
▁осынау	-5173
мұнайгаз	-5174
▁румыния	-5175
▁жұмылдыр	-5176
▁тәртіпті	-5177
▁музыкалық	-5178
▁жәрдемдесу	-5179
сшк	-5180
инск	-5181
▁инсп	-5182
▁аөсшк	-5183
▁көтерме	-5184
▁командир	-5185
▁бозымбаев	-5186
▁G	-5187
por	-5188
икл	-5189
ғым	-5190
▁st	-5191
▁Жең	-5192
▁күл	-5193
▁егжей	-5194
▁сегіз	-5195
▁іздеу	-5196
▁жаңарт	-5197
▁күннен	-5198
▁Қырғыз	-5199
пұл	-5200
іле	-5201
дайы	-5202
▁төз	-5203
▁әсет	-5204
иниринг	-5205
▁тегжей	-5206
▁Конститу	-5207
▁жұртшылық	-5208
лен	-5209
оком	-5210
ығыс	-5211
▁блок	-5212
▁ерте	-5213
▁балет	-5214
▁тимур	-5215
ігерлік	-5216
▁дербес	-5217
▁оңалту	-5218
▁жақыпов	-5219
▁жұмыскер	-5220
▁фармацевтика	-5221
көл	-5222
дама	-5223
▁ШОБ	-5224
▁айл	-5225
▁лиз	-5226
▁мик	-5227
▁ораз	-5228
▁смет	-5229
▁өтем	-5230
▁мәтін	-5231
▁абырой	-5232
▁жариял	-5233
▁орасан	-5234
▁австрия	-5235
▁бразилия	-5236
▁дегенмен	-5237
▁моңғолия	-5238
▁жылжымайтын	-5239
эм	-5240
хим	-5241
▁Қас	-5242
▁аспа	-5243
демелі	-5244
▁талаб	-5245
▁текше	-5246
▁ықылас	-5247
▁азиялық	-5248
▁толеран	-5249
▁кәсіподақ	-5250
▁уәкілетті	-5251
юс	-5252
ный	-5253
пеу	-5254
▁мжә	-5255
▁піш	-5256
▁әке	-5257
майыл	-5258
хирург	-5259
▁жаста	-5260
▁париж	-5261
▁ұдайы	-5262
▁Ақорда	-5263
▁мейман	-5264
▁мұқтаж	-5265
▁Индустр	-5266
▁этникалық	-5267
▁америкалық	-5268
жын	-5269
тип	-5270
хам	-5271
▁ир	-5272
▁нө	-5273
ович	-5274
ілім	-5275
▁фут	-5276
▁шыр	-5277
▁сахн	-5278
▁атлет	-5279
▁цзинь	-5280
▁ескерту	-5281
▁өндіріл	-5282
▁монумент	-5283
▁тасымалы	-5284
▁этносаралық	-5285
ia	-5286
қаб	-5287
▁фра	-5288
урстық	-5289
▁мезгіл	-5290
▁жобалау	-5291
▁қойылым	-5292
▁көшербаев	-5293
▁сұхбаттас	-5294
эс	-5295
▁кә	-5296
энерг	-5297
ымдылығ	-5298
▁Түркия	-5299
▁концер	-5300
▁іргетас	-5301
nex	-5302
сей	-5303
▁al	-5304
▁it	-5305
▁Оң	-5306
▁сұ	-5307
▁эт	-5308
арал	-5309
▁Шығыс	-5310
▁еңсер	-5311
▁мұхит	-5312
▁соған	-5313
▁таныл	-5314
▁апатты	-5315
▁герман	-5316
▁жүздес	-5317
▁жиналыс	-5318
▁үдемелі	-5319
▁жақсылық	-5320
▁мақұлдан	-5321
▁телеарна	-5322
▁инвестицияла	-5323
ног	-5324
▁ша	-5325
▁басқ	-5326
▁жаза	-5327
едиұлы	-5328
▁бітір	-5329
▁күндел	-5330
▁талдық	-5331
▁жүректен	-5332
▁мақтаныш	-5333
▁Ассамблея	-5334
▁британдық	-5335
▁петропавл	-5336
жел	-5337
һар	-5338
▁Біз	-5339
▁баж	-5340
▁син	-5341
▁ермек	-5342
▁дәлелде	-5343
▁процесс	-5344
▁төрайым	-5345
▁тегжейлі	-5346
▁таныстырылым	-5347
▁эн	-5348
▁шат	-5349
▁ұос	-5350
емент	-5351
олюция	-5352
▁ертең	-5353
▁тарта	-5354
▁мүшеліг	-5355
▁бауыржан	-5356
▁бесжылдық	-5357
▁компьютер	-5358
▁уақытында	-5359
▁қатарынан	-5360
▁Еуразиялық	-5361
▁талдықорған	-5362
▁статистикалық	-5363
ЭМ	-5364
ғм	-5365
али	-5366
ойл	-5367
омб	-5368
▁жұ	-5369
▁ҚК	-5370
ельс	-5371
еліс	-5372
стаф	-5373
▁ҰЭМ	-5374
▁хқко	-5375
▁қазы	-5376
▁қалу	-5377
▁ақылды	-5378
▁констру	-5379
▁аккредитт	-5380
▁қамқорлығ	-5381
▁инжиниринг	-5382
▁см	-5383
▁Жақ	-5384
▁оқо	-5385
▁айтулы	-5386
▁қосалқы	-5387
▁еуроодақ	-5388
▁патриотизм	-5389
▁170	-5390
лінше	-5391
▁2022	-5392
▁дами	-5393
▁норв	-5394
шыбаев	-5395
▁айына	-5396
▁минут	-5397
▁тырыс	-5398
ариялық	-5399
▁kaznex	-5400
▁мейлінше	-5401
▁іздестіру	-5402
▁o	-5403
▁ур	-5404
▁егі	-5405
бірек	-5406
тимал	-5407
▁ұшақ	-5408
әсімов	-5409
▁белор	-5410
▁Мәсімов	-5411
▁ғылымды	-5412
▁тұтастай	-5413
▁лауазымды	-5414
жо	-5415
жт	-5416
▁A	-5417
олі	-5418
usin	-5419
онез	-5420
▁бғм	-5421
▁соғ	-5422
▁Құр	-5423
▁оқыл	-5424
▁өтеу	-5425
▁Қасым	-5426
usiness	-5427
▁Сұлтан	-5428
▁алаңда	-5429
▁америк	-5430
▁қамсыз	-5431
▁үстіне	-5432
▁үстінде	-5433
▁гендерлік	-5434
▁депутаттық	-5435
▁тақырыптық	-5436
▁ип	-5437
арқа	-5438
дігі	-5439
▁xxi	-5440
▁бан	-5441
▁кәм	-5442
▁ром	-5443
▁аула	-5444
▁пров	-5445
▁асқан	-5446
▁бақша	-5447
▁бренд	-5448
▁жазғы	-5449
▁жетім	-5450
▁модер	-5451
▁төңір	-5452
ымбетов	-5453
▁айыппұл	-5454
▁тоқтату	-5455
▁ықтимал	-5456
▁марапаттау	-5457
ra	-5458
um	-5459
▁Жо	-5460
▁тк	-5461
▁Фран	-5462
▁кері	-5463
▁сәул	-5464
▁өңдел	-5465
▁лондон	-5466
▁тәрбиеле	-5467
▁қасиетті	-5468
▁қасымбек	-5469
▁дәрігерлік	-5470
▁бүкіләлемдік	-5471
жк	-5472
бор	-5473
▁Гер	-5474
індей	-5475
▁бөлме	-5476
▁қалма	-5477
▁төңірег	-5478
▁Оңтүстік	-5479
гіш	-5480
еев	-5481
рад	-5482
▁89	-5483
▁БА	-5484
балы	-5485
елер	-5486
еміз	-5487
озит	-5488
▁104	-5489
▁Көк	-5490
▁ескі	-5491
▁жала	-5492
▁ради	-5493
▁реда	-5494
танушы	-5495
▁жүрек	-5496
▁иегер	-5497
▁сауық	-5498
майылов	-5499
▁сыйақы	-5500
▁практика	-5501
▁ғаламдық	-5502
▁қызметтік	-5503
омөнеркәсіп	-5504
▁магистраль	-5505
кин	-5506
▁Сер	-5507
▁дәй	-5508
▁мах	-5509
▁шег	-5510
▁сұра	-5511
▁татар	-5512
▁тілек	-5513
▁Еуропа	-5514
▁айнала	-5515
▁саябақ	-5516
▁тастау	-5517
▁құрғақ	-5518
ақтастық	-5519
▁ұзақтығ	-5520
▁Қорғаныс	-5521
▁аэроғарыш	-5522
▁эм	-5523
иент	-5524
▁конд	-5525
▁мегап	-5526
▁қазба	-5527
▁жіберу	-5528
▁сайлану	-5529
▁құжатта	-5530
▁партиялық	-5531
▁Ю	-5532
▁Ғ	-5533
дев	-5534
▁Төр	-5535
▁сел	-5536
▁баба	-5537
▁прог	-5538
▁жолды	-5539
▁мерей	-5540
▁талқы	-5541
▁телім	-5542
▁жазушы	-5543
▁сержан	-5544
▁тілект	-5545
▁көбірек	-5546
▁геосаяси	-5547
▁интеллек	-5548
▁мерзімде	-5549
▁абаттандыру	-5550
▁ақпараттандыру	-5551
жб	-5552
ter	-5553
▁Би	-5554
ландия	-5555
▁борыш	-5556
▁импор	-5557
▁процед	-5558
▁тәулік	-5559
▁татулық	-5560
▁қауіпті	-5561
▁Өкілетті	-5562
▁тәрбиелеу	-5563
уп	-5564
▁рус	-5565
▁спу	-5566
оқала	-5567
▁толтыр	-5568
▁мегаполис	-5569
▁насихатта	-5570
▁авиациялық	-5571
im	-5572
шіт	-5573
ресс	-5574
▁тіг	-5575
▁Қау	-5576
▁тамыр	-5577
▁бурабай	-5578
▁келеміз	-5579
▁өңдеуші	-5580
▁бостандығ	-5581
▁күнделікті	-5582
▁әріптестіг	-5583
ОС	-5584
▁en	-5585
далас	-5586
▁Иран	-5587
митрий	-5588
▁нағыз	-5589
▁тағам	-5590
▁атақты	-5591
▁майдан	-5592
▁соттал	-5593
▁kazakhstan	-5594
гал	-5595
▁дом	-5596
▁объ	-5597
▁шах	-5598
кімен	-5599
▁зиялы	-5600
▁омаров	-5601
▁Беларусь	-5602
үни	-5603
▁АӨ	-5604
▁эр	-5605
баст	-5606
ория	-5607
тағы	-5608
▁гар	-5609
▁зай	-5610
▁газды	-5611
▁класс	-5612
▁маниф	-5613
▁мұрат	-5614
▁сахна	-5615
▁сезін	-5616
▁модель	-5617
▁шиелен	-5618
▁қолбас	-5619
▁фракция	-5620
▁архитект	-5621
▁ауыстыру	-5622
▁коммерция	-5623
▁географиялық	-5624
▁онкологиялық	-5625
иде	-5626
ынов	-5627
ірет	-5628
қызы	-5629
өнер	-5630
▁160	-5631
▁БҚО	-5632
▁куб	-5633
▁архе	-5634
▁ассо	-5635
▁дәнді	-5636
▁дәріс	-5637
▁арадағы	-5638
▁сметалық	-5639
▁тартымдылығ	-5640
ity	-5641
мон	-5642
▁ад	-5643
▁ив	-5644
идмб	-5645
ісіз	-5646
▁110	-5647
▁идм	-5648
▁тура	-5649
▁радио	-5650
▁салау	-5651
активті	-5652
▁сіздер	-5653
▁теңдік	-5654
▁фермер	-5655
▁бағалан	-5656
▁жоғарыда	-5657
▁кәсіпорны	-5658
II	-5659
ве	-5660
го	-5661
ейх	-5662
▁каф	-5663
▁ақын	-5664
итория	-5665
онезия	-5666
циация	-5667
▁белде	-5668
▁мақта	-5669
▁Төраға	-5670
▁басқос	-5671
▁көреген	-5672
▁теміртау	-5673
▁дінаралық	-5674
▁қазмұнайгаз	-5675
лон	-5676
атау	-5677
итер	-5678
стал	-5679
бизнес	-5680
▁күшті	-5681
станция	-5682
▁менеджер	-5683
▁шоғырлан	-5684
▁контейнерлік	-5685
▁автоматтандыру	-5686
▁автоматтандырыл	-5687
роп	-5688
ымыр	-5689
▁Жұм	-5690
▁Нығ	-5691
▁тым	-5692
ардың	-5693
▁терг	-5694
ковник	-5695
▁қоныс	-5696
▁тасқын	-5697
▁ашықтық	-5698
▁мынадай	-5699
▁уағдалас	-5700
▁ассоциация	-5701
▁нидерланды	-5702
▁консультативтік	-5703
эқ	-5704
гро	-5705
емет	-5706
▁103	-5707
▁198	-5708
▁тра	-5709
▁ұэм	-5710
▁жиыр	-5711
▁жылж	-5712
▁айлағ	-5713
▁аустр	-5714
▁елдік	-5715
▁мысыр	-5716
▁реттел	-5717
▁тергеу	-5718
▁кластер	-5719
деріндегі	-5720
▁былтырғы	-5721
▁салауатты	-5722
co	-5723
le	-5724
ҒМ	-5725
ыту	-5726
▁АЭ	-5727
▁жқ	-5728
▁по	-5729
кеев	-5730
▁102	-5731
▁БҒМ	-5732
▁Мәс	-5733
транс	-5734
▁Дүни	-5735
▁диас	-5736
▁ежел	-5737
тілдес	-5738
қазған	-5739
▁бетон	-5740
▁майлы	-5741
▁менің	-5742
▁Тұңғыш	-5743
▁аттест	-5744
▁картоп	-5745
▁футбол	-5746
▁Федерация	-5747
▁нидерланд	-5748
▁қамқорлық	-5749
ch	-5750
▁vi	-5751
▁рін	-5752
дықов	-5753
▁кілт	-5754
▁аспап	-5755
▁демек	-5756
▁медал	-5757
▁үлгер	-5758
▁Универ	-5759
▁саттық	-5760
▁тұрғыз	-5761
▁экспед	-5762
▁егістік	-5763
▁пысықта	-5764
▁Германия	-5765
▁біртұтас	-5766
▁процедура	-5767
▁сауалнама	-5768
▁шикізаттық	-5769
▁j	-5770
быс	-5771
ияр	-5772
інж	-5773
▁үи	-5774
▁бах	-5775
▁егу	-5776
ослав	-5777
▁бокс	-5778
▁жуығ	-5779
▁әбді	-5780
▁ақылы	-5781
▁нәрсе	-5782
▁слова	-5783
▁тарал	-5784
▁лизинг	-5785
▁монтаж	-5786
▁меніңше	-5787
▁елордалық	-5788
▁Ы	-5789
имов	-5790
▁ату	-5791
▁пыз	-5792
онент	-5793
▁андр	-5794
▁етпе	-5795
▁ҚазА	-5796
▁бұзыл	-5797
▁зымыр	-5798
▁тоғыз	-5799
▁осында	-5800
▁талғат	-5801
▁теннис	-5802
▁цемент	-5803
▁шалғай	-5804
езқазған	-5805
▁белорус	-5806
▁қабатты	-5807
▁заңдылық	-5808
▁сарыарқа	-5809
▁перспективалы	-5810
ag	-5811
пар	-5812
қақ	-5813
һаз	-5814
▁sm	-5815
▁Аз	-5816
▁air	-5817
▁гол	-5818
▁мод	-5819
▁шот	-5820
ератор	-5821
ттылық	-5822
▁нөмір	-5823
▁Өзбек	-5824
▁жағалау	-5825
▁серпінді	-5826
гор	-5827
кір	-5828
▁му	-5829
▁лук	-5830
▁шир	-5831
адиев	-5832
▁ветер	-5833
▁жиһаз	-5834
▁өскелең	-5835
▁норматив	-5836
▁ақпараттан	-5837
▁сайлауалды	-5838
лаг	-5839
цен	-5840
▁қм	-5841
илов	-5842
ізді	-5843
▁ҰКП	-5844
▁жүру	-5845
▁шейх	-5846
▁қола	-5847
▁кредит	-5848
▁секция	-5849
▁естелік	-5850
▁жастағы	-5851
▁жоғарыла	-5852
▁моноқала	-5853
▁мыңдаған	-5854
▁амбулатория	-5855
▁тәрбиеленуші	-5856
▁педагогикалық	-5857
РА	-5858
құ	-5859
▁Эк	-5860
▁миг	-5861
опарк	-5862
танов	-5863
▁анағ	-5864
▁атан	-5865
ғжанов	-5866
▁белес	-5867
▁күріш	-5868
▁никол	-5869
еттілік	-5870
▁елшілік	-5871
▁ерболат	-5872
▁кәсіпорн	-5873
▁мердігер	-5874
▁әзірлеме	-5875
▁бостандық	-5876
▁жұмылдыру	-5877
▁қалыптасу	-5878
▁келімбетов	-5879
ay	-5880
кей	-5881
мад	-5882
құр	-5883
▁св	-5884
алин	-5885
усин	-5886
▁Жап	-5887
▁нат	-5888
▁1500	-5889
формат	-5890
▁арала	-5891
▁Мәскеу	-5892
▁игіліг	-5893
▁көбейту	-5894
▁нарықты	-5895
▁сөндіру	-5896
▁жошыбаев	-5897
▁анағұрлым	-5898
▁экспедиция	-5899
▁Дүниежүзілік	-5900
oo	-5901
но	-5902
нь	-5903
▁Я	-5904
ect	-5905
ist	-5906
белі	-5907
отив	-5908
▁мих	-5909
▁үнде	-5910
▁мейір	-5911
▁тойла	-5912
▁тұғыр	-5913
▁құпта	-5914
▁үндеу	-5915
▁зорлық	-5916
▁иордания	-5917
▁цзиньпин	-5918
▁Өзбекстан	-5919
▁тасымалдан	-5920
▁жартыжылдығ	-5921
НЕ	-5922
▁&	-5923
ань	-5924
▁кас	-5925
кенов	-5926
▁өкім	-5927
туалды	-5928
▁дүкен	-5929
▁майор	-5930
▁күресу	-5931
▁фараби	-5932
▁ірікте	-5933
▁болғанда	-5934
▁сервистік	-5935
▁американдық	-5936
▁мұхамедиұлы	-5937
▁Қауіпсіздік	-5938
▁Ес	-5939
▁ик	-5940
отек	-5941
▁101	-5942
▁Гүл	-5943
▁ИДМ	-5944
иктор	-5945
▁1992	-5946
▁ошақ	-5947
▁ұлғаю	-5948
інжіпов	-5949
▁болжан	-5950
▁танысу	-5951
▁даярлығ	-5952
▁екендік	-5953
▁ұмтылыс	-5954
▁Көкшетау	-5955
▁еңбеккер	-5956
▁тартымды	-5957
▁өркендеу	-5958
▁парламентші	-5959
кек	-5960
шама	-5961
деген	-5962
дығын	-5963
сейіт	-5964
▁жасас	-5965
▁мешіт	-5966
▁нығая	-5967
ational	-5968
омпания	-5969
▁жиналы	-5970
муникация	-5971
▁марапаттал	-5972
▁назарбаева	-5973
ИК	-5974
▁од	-5975
▁115	-5976
▁қом	-5977
инция	-5978
▁Жаңа	-5979
▁Батыс	-5980
▁Мамин	-5981
▁бәрін	-5982
▁дизель	-5983
▁швеция	-5984
▁амандық	-5985
▁тұжырым	-5986
▁тұқымды	-5987
▁мұхаммед	-5988
▁алматылық	-5989
▁минералды	-5990
▁шекаралық	-5991
▁Нығматулин	-5992
▁үйлестіруші	-5993
▁металлургиялық	-5994
▁перспективалық	-5995
re	-5996
▁V	-5997
▁лю	-5998
▁фл	-5999
улла	-6000
▁тыл	-6001
▁эст	-6002
▁1200	-6003
▁ажыр	-6004
▁иман	-6005
▁меке	-6006
▁салм	-6007
▁ерлік	-6008
▁жүгін	-6009
▁лайық	-6010
▁маған	-6011
▁сонда	-6012
▁айырма	-6013
▁құндылығ	-6014
▁провинция	-6015
▁S	-6016
▁роб	-6017
▁Қай	-6018
▁ұбт	-6019
динов	-6020
▁бельг	-6021
▁бөлік	-6022
▁көпұл	-6023
▁петер	-6024
▁тыңай	-6025
▁факті	-6026
▁игілік	-6027
▁күндік	-6028
▁Болашақ	-6029
▁байытыл	-6030
▁дарынды	-6031
▁business	-6032
▁регламент	-6033
▁қуаттылық	-6034
жи	-6035
фф	-6036
▁X	-6037
and	-6038
лов	-6039
дығы	-6040
▁105	-6041
▁ҰОС	-6042
ымсыз	-6043
▁еқдб	-6044
▁ізгі	-6045
▁Қаржы	-6046
▁өткер	-6047
▁жылыту	-6048
▁сыздар	-6049
▁хабарлан	-6050
▁құрылтай	-6051
▁Конституция	-6052
емел	-6053
▁106	-6054
▁197	-6055
▁неғ	-6056
▁үгі	-6057
шағай	-6058
▁1995	-6059
▁Араб	-6060
▁танк	-6061
▁түкп	-6062
▁қозғ	-6063
▁ұмыт	-6064
кетинг	-6065
▁сауат	-6066
▁дамушы	-6067
▁ендігі	-6068
▁экспор	-6069
халықтық	-6070
▁Шымкент	-6071
▁диаспор	-6072
▁жүктеме	-6073
▁неғұрлым	-6074
▁смайылов	-6075
▁түркімен	-6076
▁психологиялық	-6077
▁ауылшаруашылығ	-6078
▁шу	-6079
▁айғ	-6080
▁гидр	-6081
▁прав	-6082
▁экск	-6083
▁дәйек	-6084
▁сезім	-6085
▁дизайн	-6086
▁түкпір	-6087
▁басылым	-6088
▁депозит	-6089
▁жаңашыл	-6090
▁диаспора	-6091
▁мемориал	-6092
▁ерекшелен	-6093
▁контейнер	-6094
▁қолданбалы	-6095
▁кепілдендір	-6096
як	-6097
ият	-6098
ипаж	-6099
онат	-6100
ішев	-6101
▁ими	-6102
▁таш	-6103
▁тән	-6104
естір	-6105
ченко	-6106
▁беруі	-6107
▁болжа	-6108
▁жасам	-6109
▁талда	-6110
▁теріс	-6111
▁уәкіл	-6112
қабатты	-6113
▁ипотек	-6114
▁экипаж	-6115
▁бағытты	-6116
▁әзірлік	-6117
▁мерекелеу	-6118
▁агробизнес	-6119
▁E	-6120
▁щ	-6121
янс	-6122
▁мун	-6123
▁пор	-6124
▁түн	-6125
▁көне	-6126
▁тиім	-6127
▁шақы	-6128
▁ұшқыш	-6129
▁қайтыс	-6130
окомотив	-6131
▁Самұрық	-6132
▁клиника	-6133
▁мемлекеттен	-6134
пер	-6135
сін	-6136
ласт	-6137
▁рол	-6138
етика	-6139
▁офис	-6140
ембаев	-6141
ингтон	-6142
▁жылқы	-6143
▁имидж	-6144
▁келме	-6145
▁ұшыра	-6146
▁Елорда	-6147
▁рекорд	-6148
▁табыст	-6149
▁тармағ	-6150
▁шабуыл	-6151
▁орындаушы	-6152
▁несиелендіру	-6153
▁орналастырыл	-6154
he	-6155
жің	-6156
уен	-6157
oing	-6158
берн	-6159
ісов	-6160
▁АӨК	-6161
▁ОСК	-6162
▁рай	-6163
▁қас	-6164
▁кент	-6165
▁ізде	-6166
▁пошта	-6167
▁роман	-6168
▁қуант	-6169
▁бастан	-6170
▁игеріл	-6171
▁модерн	-6172
▁мәртеб	-6173
▁хорват	-6174
▁ұтымды	-6175
▁керемет	-6176
▁тағылым	-6177
▁қомақты	-6178
▁әрқайсы	-6179
▁Индустрия	-6180
▁локомотив	-6181
▁революция	-6182
▁тыңайтқыш	-6183
▁сенімділік	-6184
▁Қырғызстан	-6185
▁өнімділігін	-6186
ig	-6187
▁аң	-6188
ауыз	-6189
▁былай	-6190
▁жарам	-6191
▁жарым	-6192
▁нүкте	-6193
▁қоржын	-6194
▁әкелін	-6195
▁есептік	-6196
▁отандас	-6197
▁телеком	-6198
изациялау	-6199
▁несиелеу	-6200
▁қазтранс	-6201
▁үздіксіз	-6202
▁консулдық	-6203
▁таныстырыл	-6204
▁демографиялық	-6205
наз	-6206
▁иб	-6207
серв	-6208
▁кво	-6209
▁сұй	-6210
▁эстаф	-6211
▁ұстау	-6212
андылық	-6213
▁аралау	-6214
▁пәтерлі	-6215
▁тереңде	-6216
▁көпұлтты	-6217
▁норвегия	-6218
▁қазандық	-6219
▁қаншалықты	-6220
▁түркітілдес	-6221
эй	-6222
қыс	-6223
▁мм	-6224
циент	-6225
▁блог	-6226
▁табу	-6227
▁арнап	-6228
▁жоғал	-6229
▁квота	-6230
▁толма	-6231
▁үйрет	-6232
▁құрылу	-6233
▁әйгілі	-6234
ашингтон	-6235
▁баталов	-6236
▁пациент	-6237
▁болгария	-6238
▁тиісінше	-6239
▁жартыжылдық	-6240
ие	-6241
мос	-6242
сип	-6243
▁ШЫҰ	-6244
▁омб	-6245
▁ақта	-6246
▁марш	-6247
ақтылы	-6248
▁күшей	-6249
▁тілеу	-6250
▁ферма	-6251
▁таңдал	-6252
шекаралық	-6253
▁бастауыш	-6254
▁исламдық	-6255
▁эстафета	-6256
▁үнқатысу	-6257
▁индонезия	-6258
дім	-6259
ида	-6260
көр	-6261
▁ек	-6262
▁эф	-6263
▁Жыл	-6264
▁гім	-6265
▁ткш	-6266
ынсыз	-6267
▁поли	-6268
▁степ	-6269
▁Ислам	-6270
▁Корея	-6271
▁жарат	-6272
▁жатақ	-6273
▁кафед	-6274
▁пакет	-6275
▁жөнелт	-6276
▁мұқият	-6277
▁сүйемел	-6278
▁уақтылы	-6279
▁жұмағалиев	-6280
ut	-6281
мк	-6282
ech	-6283
ене	-6284
▁эл	-6285
ағаш	-6286
фера	-6287
ілер	-6288
▁жары	-6289
▁толы	-6290
▁әлде	-6291
▁батыл	-6292
▁жайын	-6293
▁бордақ	-6294
▁достығ	-6295
▁көптеп	-6296
▁Жапония	-6297
▁жасампаз	-6298
▁жеткізуші	-6299
▁үшіншіден	-6300
▁кс	-6301
▁әм	-6302
сысы	-6303
▁бүл	-6304
ногор	-6305
▁бриг	-6306
▁айдын	-6307
▁оңайл	-6308
▁келісу	-6309
▁мағына	-6310
ғандығын	-6311
▁итальян	-6312
▁қонақжай	-6313
▁қызықтыр	-6314
▁жатақхана	-6315
▁мобильдік	-6316
▁полковник	-6317
▁әңгімелес	-6318
▁ықпалдастығ	-6319
▁олимпиадалық	-6320
атов	-6321
ейро	-6322
▁1991	-6323
▁2003	-6324
▁ЕҚЫҰ	-6325
▁коал	-6326
▁тіре	-6327
▁өкін	-6328
▁тілде	-6329
▁байыту	-6330
▁салмақ	-6331
бернатор	-6332
▁керекті	-6333
▁ташкент	-6334
▁тәрізді	-6335
▁коалиция	-6336
▁конгресс	-6337
▁құрылысшы	-6338
▁қамсыздандыру	-6339
▁диагностикалық	-6340
▁индустрияландыр	-6341
асыз	-6342
стар	-6343
▁ҚХР	-6344
▁шолу	-6345
▁қаша	-6346
аматты	-6347
басына	-6348
▁тренд	-6349
▁байлық	-6350
▁Қазына	-6351
▁жылында	-6352
▁манифес	-6353
▁айналдыр	-6354
▁медиация	-6355
▁бастамашы	-6356
▁мәртебелі	-6357
▁губернатор	-6358
▁көпқабатты	-6359
▁әрекеттестік	-6360
▁трансшекаралық	-6361
же	-6362
кең	-6363
қой	-6364
ышев	-6365
▁шәк	-6366
▁құю	-6367
ведев	-6368
иланд	-6369
ияның	-6370
▁жанж	-6371
▁мусин	-6372
▁режім	-6373
▁тынық	-6374
▁панель	-6375
▁хирург	-6376
▁кемінде	-6377
▁ҚазАгро	-6378
емлекеттік	-6379
id	-6380
ава	-6381
мұх	-6382
▁Аб	-6383
▁эп	-6384
есті	-6385
илен	-6386
ырлы	-6387
еттер	-6388
індеп	-6389
▁балқ	-6390
▁тікұ	-6391
▁жақта	-6392
▁пішін	-6393
▁құйыл	-6394
▁өкініш	-6395
▁жылдағы	-6396
▁стацион	-6397
▁тарифтік	-6398
▁ілгеріле	-6399
▁бағдарлан	-6400
▁заңдастыр	-6401
▁құрметіне	-6402
▁толеранттылық	-6403
ld	-6404
бо	-6405
бит	-6406
шін	-6407
▁xv	-6408
ипет	-6409
▁107	-6410
▁125	-6411
▁реп	-6412
▁соқ	-6413
▁құб	-6414
аметр	-6415
▁есіл	-6416
▁Өкім	-6417
▁болмас	-6418
▁студен	-6419
▁дмитрий	-6420
▁жағымды	-6421
▁курсант	-6422
▁көлемді	-6423
▁мультим	-6424
▁әкімшіл	-6425
▁пысықтау	-6426
▁ғарышкер	-6427
▁конструкт	-6428
▁субсидияла	-6429
абек	-6430
дерг	-6431
омен	-6432
тник	-6433
▁том	-6434
паров	-6435
▁бару	-6436
▁менш	-6437
▁ержан	-6438
▁пайым	-6439
▁рельс	-6440
▁созыл	-6441
▁хатта	-6442
▁балалы	-6443
▁бейнеу	-6444
▁даниал	-6445
▁жиырма	-6446
▁салмағ	-6447
▁саябағ	-6448
▁өсімді	-6449
▁арыстан	-6450
▁біртіндеп	-6451
▁жезқазған	-6452
▁болатындығ	-6453
▁қоғамдастығ	-6454
▁интерактивті	-6455
▁экспорттаушы	-6456
▁инвестициялау	-6457
▁тасмағамбетов	-6458
gov	-6459
гүл	-6460
orld	-6461
стас	-6462
юмин	-6463
▁эск	-6464
▁әли	-6465
иссер	-6466
▁есен	-6467
▁зомб	-6468
▁міне	-6469
▁ұлық	-6470
▁ұялы	-6471
▁жасыр	-6472
▁талан	-6473
▁альянс	-6474
▁түсіну	-6475
▁зымыран	-6476
▁спутник	-6477
тарындағы	-6478
▁сәттілік	-6479
▁құрастыр	-6480
▁отырғандығ	-6481
▁экспорттал	-6482
▁оңтайландыр	-6483
▁стандарттау	-6484
ИКА	-6485
▁el	-6486
▁дэ	-6487
▁но	-6488
едов	-6489
иров	-6490
▁Тар	-6491
▁гео	-6492
▁жен	-6493
▁нық	-6494
дегер	-6495
▁есік	-6496
▁күйз	-6497
▁қазп	-6498
дардың	-6499
▁кәріз	-6500
▁нышан	-6501
▁қарағ	-6502
▁профил	-6503
▁тамара	-6504
▁дәленов	-6505
▁жиынтық	-6506
▁төлеуші	-6507
▁іріктел	-6508
▁қайтару	-6509
▁зомбылық	-6510
▁тәжірибелі	-6511
▁адамгершілік	-6512
▁шығармашылығ	-6513
бар	-6514
иан	-6515
▁lt	-6516
▁Кү	-6517
▁ққ	-6518
урен	-6519
▁жаяу	-6520
▁біреу	-6521
▁ниетт	-6522
▁санкт	-6523
ытбеков	-6524
▁зердел	-6525
▁шектел	-6526
▁Франция	-6527
▁тапсырыл	-6528
ew	-6529
ub	-6530
уш	-6531
бұл	-6532
нар	-6533
анақ	-6534
деле	-6535
ирма	-6536
▁вар	-6537
▁жүн	-6538
тынды	-6539
ғанов	-6540
▁шаққа	-6541
▁бригада	-6542
▁тәуелді	-6543
▁жинақтал	-6544
▁заңдастыру	-6545
▁кәсіпкерліг	-6546
ею	-6547
бал	-6548
ров	-6549
▁ww	-6550
▁Тәж	-6551
▁балл	-6552
▁жете	-6553
▁кваз	-6554
▁такт	-6555
▁трам	-6556
▁баспа	-6557
▁емдел	-6558
▁күллі	-6559
▁съезд	-6560
▁трилл	-6561
▁тізбе	-6562
▁ыстық	-6563
▁қоспа	-6564
дамалық	-6565
ханалық	-6566
▁руслан	-6567
▁Қарулы	-6568
▁босатыл	-6569
▁математ	-6570
▁Исекешев	-6571
▁бейімдеу	-6572
▁көршілес	-6573
▁федералдық	-6574
ФО	-6575
РАФ	-6576
▁кг	-6577
асов	-6578
окат	-6579
янью	-6580
▁Сол	-6581
▁құп	-6582
▁үгіт	-6583
РАФИКА	-6584
дықтар	-6585
олдова	-6586
▁inter	-6587
▁жазба	-6588
▁жасай	-6589
▁марка	-6590
▁Стратег	-6591
▁жанында	-6592
▁жүлдегер	-6593
▁тоғжанов	-6594
▁аймақаралық	-6595
▁түркіменстан	-6596
oc	-6597
ТА	-6598
эт	-6599
сап	-6600
▁ИН	-6601
диев	-6602
евич	-6603
мелі	-6604
сейн	-6605
▁108	-6606
▁Дос	-6607
▁астр	-6608
▁барр	-6609
▁жұма	-6610
▁тара	-6611
▁қауп	-6612
▁Ұлыб	-6613
▁дания	-6614
▁жаһан	-6615
▁шаңғы	-6616
▁қабыр	-6617
▁виктор	-6618
▁королі	-6619
▁таяуда	-6620
▁физика	-6621
▁жанармай	-6622
▁көршілік	-6623
▁мүдделілік	-6624
▁ведомствоаралық	-6625
eg	-6626
▁Ц	-6627
баз	-6628
уан	-6629
шам	-6630
▁196	-6631
▁com	-6632
▁біш	-6633
атлон	-6634
▁ИНФО	-6635
▁мама	-6636
▁шыны	-6637
айынов	-6638
▁абаев	-6639
▁ежелгі	-6640
▁жағала	-6641
▁шешуші	-6642
етикалық	-6643
кеңестік	-6644
▁зерделе	-6645
▁кафедра	-6646
▁топтама	-6647
▁қызылша	-6648
▁триллион	-6649
▁мәдениетті	-6650
▁террористік	-6651
▁Ұлыбритания	-6652
ap	-6653
ира	-6654
нер	-6655
арла	-6656
▁Дам	-6657
▁ван	-6658
▁жері	-6659
▁мәжб	-6660
▁мәмс	-6661
ГРАФИКА	-6662
▁бензин	-6663
▁бүлдір	-6664
▁жануар	-6665
▁көрген	-6666
▁Ахметов	-6667
▁бекітіл	-6668
▁қарасты	-6669
▁қапшағай	-6670
▁зейнеткер	-6671
▁технопарк	-6672
▁қолбасшылығ	-6673
▁посткеңестік	-6674
рак	-6675
беба	-6676
гері	-6677
улез	-6678
▁Ден	-6679
▁Сап	-6680
▁аша	-6681
ақтас	-6682
▁сиыр	-6683
уралық	-6684
▁кеңею	-6685
▁кибер	-6686
етіндей	-6687
▁Жарлық	-6688
▁квазим	-6689
▁қарама	-6690
▁еуразэқ	-6691
▁сержант	-6692
▁тыныштық	-6693
▁қозғаушы	-6694
▁достастығ	-6695
▁студенттік	-6696
▁проблемалық	-6697
КҚ	-6698
атэ	-6699
оск	-6700
арий	-6701
илев	-6702
▁240	-6703
▁450	-6704
▁www	-6705
▁баш	-6706
▁сор	-6707
кенде	-6708
▁2004	-6709
▁йорк	-6710
▁марк	-6711
▁мерк	-6712
▁әдеп	-6713
▁әнші	-6714
▁киелі	-6715
еркулез	-6716
▁толған	-6717
▁бірауыз	-6718
▁қожалық	-6719
▁қолөнер	-6720
▁жариялау	-6721
▁словакия	-6722
▁алмастыру	-6723
▁ИНФОГРАФИКА	-6724
пек	-6725
сел	-6726
шау	-6727
альд	-6728
идің	-6729
▁ltd	-6730
▁әкк	-6731
лагин	-6732
▁отыру	-6733
▁андрей	-6734
▁жаттық	-6735
▁камера	-6736
▁тоқыма	-6737
▁велосип	-6738
▁көшпелі	-6739
▁вашингтон	-6740
▁профилакт	-6741
▁тамақтану	-6742
▁өнімділік	-6743
da	-6744
ку	-6745
▁ii	-6746
▁АШ	-6747
есте	-6748
▁112	-6749
▁vii	-6750
▁Тұр	-6751
▁алп	-6752
▁бәй	-6753
▁құм	-6754
көріс	-6755
ньган	-6756
ындай	-6757
қаржы	-6758
▁egov	-6759
▁арыз	-6760
спанов	-6761
▁бұұдб	-6762
▁ерліг	-6763
▁машин	-6764
дағыдай	-6765
▁босату	-6766
▁магатэ	-6767
▁құқылы	-6768
▁ескеріл	-6769
▁валюталық	-6770
▁велосипед	-6771
▁маркетинг	-6772
▁православ	-6773
▁шақырылым	-6774
▁төзімділік	-6775
▁тағылымдама	-6776
▁әртараптандыр	-6777
ец	-6778
мей	-6779
▁to	-6780
▁Кө	-6781
▁ҰҚ	-6782
▁109	-6783
▁Бей	-6784
▁адб	-6785
▁вак	-6786
▁хок	-6787
▁Укра	-6788
▁цикл	-6789
▁алқаб	-6790
▁қайтал	-6791
▁Гүлшара	-6792
▁бельгия	-6793
▁өмірлік	-6794
▁Сұлтанов	-6795
▁күнкөріс	-6796
▁салмақты	-6797
▁сағадиев	-6798
▁австралия	-6799
▁құжаттама	-6800
▁әрқайсысы	-6801
га	-6802
нд	-6803
ану	-6804
жас	-6805
ила	-6806
мар	-6807
▁ch	-6808
изон	-6809
▁БЖК	-6810
▁туб	-6811
▁көру	-6812
▁істі	-6813
саулық	-6814
▁Асқар	-6815
▁алтай	-6816
▁иидмб	-6817
ғылықты	-6818
▁алюмин	-6819
▁саяхат	-6820
▁жүйелік	-6821
▁мерейлі	-6822
▁өкілетт	-6823
▁Мәңгілік	-6824
▁айналдыру	-6825
▁татарстан	-6826
▁елдеріндегі	-6827
▁әкімшілендіру	-6828
ког	-6829
амаз	-6830
▁280	-6831
▁Шет	-6832
▁нов	-6833
бебап	-6834
талия	-6835
▁арыс	-6836
▁карл	-6837
епарат	-6838
игация	-6839
қызмет	-6840
▁күзет	-6841
▁робот	-6842
▁кедерг	-6843
▁теңдес	-6844
▁толқын	-6845
▁электро	-6846
▁эстония	-6847
▁қабырға	-6848
▁әмбебап	-6849
яньюньган	-6850
▁Ыдырысов	-6851
▁талантты	-6852
▁импорттық	-6853
▁итальяндық	-6854
▁командалық	-6855
▁жекешелендір	-6856
ұт	-6857
ұу	-6858
дек	-6859
▁Ай	-6860
▁КО	-6861
▁Ол	-6862
▁Әс	-6863
еден	-6864
емей	-6865
ініз	-6866
▁195	-6867
▁АШМ	-6868
ометр	-6869
▁граф	-6870
▁жемі	-6871
▁спек	-6872
▁сәби	-6873
▁ұсақ	-6874
зиялық	-6875
▁Мұхам	-6876
▁газет	-6877
▁контр	-6878
▁пласт	-6879
▁алатау	-6880
▁даңғыл	-6881
▁заңгер	-6882
▁куәлік	-6883
▁мәміле	-6884
▁Украина	-6885
▁болмаса	-6886
▁ешқашан	-6887
▁алмастыр	-6888
▁ашықбаев	-6889
▁энерготи	-6890
▁автоматты	-6891
▁агроөндір	-6892
▁артықшылығ	-6893
▁концерттік	-6894
▁көшбасшылық	-6895
▁қаржыландырыл	-6896
чи	-6897
нан	-6898
▁тб	-6899
▁шө	-6900
ener	-6901
баян	-6902
ентт	-6903
▁ОКҚ	-6904
▁вир	-6905
▁тәм	-6906
▁фит	-6907
іктіг	-6908
▁Даму	-6909
▁теңг	-6910
▁smart	-6911
▁поляк	-6912
▁ресім	-6913
▁ширек	-6914
баевтың	-6915
▁көбейт	-6916
▁бассейн	-6917
▁деректі	-6918
▁өтемақы	-6919
▁климатты	-6920
▁күйзеліс	-6921
▁шығарушы	-6922
▁бүлдіршін	-6923
▁кредиттік	-6924
▁тұғырнама	-6925
▁депутаттығ	-6926
▁туберкулез	-6927
▁саясаттанушы	-6928
▁ше	-6929
▁яс	-6930
циум	-6931
▁нам	-6932
▁шоу	-6933
▁Биыл	-6934
▁юрий	-6935
▁doing	-6936
▁телек	-6937
тикалық	-6938
▁жандан	-6939
▁мәжбүр	-6940
▁таиланд	-6941
▁қалыпты	-6942
▁жабдықта	-6943
▁мойындал	-6944
▁бишімбаев	-6945
▁ипотекалық	-6946
▁кедергісіз	-6947
▁тұрақсыздық	-6948
▁юн	-6949
абар	-6950
ібек	-6951
қалы	-6952
▁Күш	-6953
▁гим	-6954
▁1994	-6955
▁держ	-6956
▁күнт	-6957
аторий	-6958
ылбаев	-6959
юзивті	-6960
▁Түрік	-6961
▁жабық	-6962
▁карди	-6963
▁кедей	-6964
▁клиент	-6965
▁шаңырақ	-6966
▁жетіспеу	-6967
▁меморган	-6968
▁орналасу	-6969
▁сараптау	-6970
▁шамасында	-6971
▁дағдарысты	-6972
▁сарапшылық	-6973
РЕ	-6974
all	-6975
ПОР	-6976
лом	-6977
пес	-6978
іре	-6979
▁as	-6980
▁ЖҚ	-6981
▁ҚТ	-6982
▁Әз	-6983
емір	-6984
олит	-6985
сель	-6986
ытты	-6987
▁леб	-6988
▁тім	-6989
▁күту	-6990
алалық	-6991
андыру	-6992
▁world	-6993
▁жылжы	-6994
▁сыйым	-6995
импиада	-6996
итерлік	-6997
▁египет	-6998
▁сарбаз	-6999
▁ансамбл	-7000
▁жіберіл	-7001
▁қалаушы	-7002
▁нысаналы	-7003
▁Денсаулық	-7004
▁аудитория	-7005
▁петербург	-7006
▁теңдессіз	-7007
▁бордақылау	-7008
▁кондитерлік	-7009
▁транспорттық	-7010
ers	-7011
ТАЖ	-7012
▁ян	-7013
ентр	-7014
идео	-7015
ульт	-7016
ғылы	-7017
шілер	-7018
ПОРТАЖ	-7019
аспорт	-7020
бекұлы	-7021
ентина	-7022
▁драма	-7023
▁Жолдау	-7024
▁Жомарт	-7025
▁басталу	-7026
▁сипатта	-7027
▁құзырет	-7028
▁Әлемдік	-7029
▁бағыттау	-7030
▁отырысты	-7031
▁география	-7032
40	-7033
▁B	-7034
▁гв	-7035
ыншы	-7036
▁бұй	-7037
▁мэр	-7038
▁сіл	-7039
▁сқо	-7040
▁хам	-7041
▁қдб	-7042
▁даби	-7043
▁лейт	-7044
▁ойна	-7045
коголь	-7046
▁қарақ	-7047
▁кардио	-7048
РЕПОРТАЖ	-7049
▁балапан	-7050
▁жолдама	-7051
▁кемшілік	-7052
▁мерекеле	-7053
▁шиеленіс	-7054
ига	-7055
ңгі	-7056
берт	-7057
очта	-7058
▁190	-7059
▁био	-7060
▁ким	-7061
лылығ	-7062
▁1998	-7063
▁атау	-7064
▁гарн	-7065
▁екеу	-7066
▁инкл	-7067
▁план	-7068
▁стен	-7069
▁әсем	-7070
дамалы	-7071
орциум	-7072
ісінше	-7073
▁биліг	-7074
▁жүрег	-7075
▁тұтас	-7076
▁молдова	-7077
▁нақтылау	-7078
▁шеберліг	-7079
▁қымбатта	-7080
▁жұртшылығ	-7081
▁жаттықтыру	-7082
▁жетекшілік	-7083
▁ФОТОРЕПОРТАЖ	-7084
кб	-7085
▁ҮИ	-7086
авто	-7087
кери	-7088
әкір	-7089
▁320	-7090
▁без	-7091
▁хри	-7092
▁ғым	-7093
авказ	-7094
арлан	-7095
лылық	-7096
тихан	-7097
▁ибра	-7098
▁ұғым	-7099
▁Семей	-7100
▁кәмел	-7101
▁лагер	-7102
▁сирек	-7103
▁intern	-7104
▁аталым	-7105
▁келелі	-7106
▁Сенатор	-7107
▁бақытты	-7108
▁держава	-7109
▁санкция	-7110
▁түсінік	-7111
▁құрамда	-7112
▁зерделеу	-7113
▁кеңестік	-7114
▁егемендік	-7115
▁көрсеткен	-7116
▁физикалық	-7117
▁экстремиз	-7118
▁сәрінжіпов	-7119
▁индустриалдық	-7120
аил	-7121
аны	-7122
пын	-7123
▁Бә	-7124
▁әд	-7125
илер	-7126
инов	-7127
▁230	-7128
▁ерк	-7129
▁тип	-7130
▁тос	-7131
▁ҚТЖ	-7132
генде	-7133
таңба	-7134
▁мере	-7135
▁үиид	-7136
альдық	-7137
▁жанжал	-7138
▁мыңдай	-7139
▁биатлон	-7140
▁мүшелік	-7141
▁әділбек	-7142
▁алкоголь	-7143
▁біртанов	-7144
▁гарнизон	-7145
▁жапондық	-7146
▁препарат	-7147
▁рәсімдеу	-7148
▁Стратегия	-7149
▁керісінше	-7150
▁құтқарушы	-7151
яз	-7152
қм	-7153
ығы	-7154
▁co	-7155
▁РФ	-7156
изия	-7157
стіг	-7158
ттан	-7159
▁cor	-7160
▁pro	-7161
▁нав	-7162
▁пін	-7163
▁ғыз	-7164
бация	-7165
ресми	-7166
▁азаю	-7167
▁жіті	-7168
▁әбіл	-7169
▁Жеңіс	-7170
▁мирзи	-7171
▁Король	-7172
▁достас	-7173
▁женева	-7174
▁лейтен	-7175
▁шәкірт	-7176
▁құлдыр	-7177
▁емтихан	-7178
▁жасанды	-7179
▁жәдігер	-7180
▁паспорт	-7181
▁бейресми	-7182
▁дүниежүз	-7183
▁функцион	-7184
▁саламатты	-7185
▁ляньюньган	-7186
▁трансформат	-7187
▁сәйкестендіру	-7188
ce	-7189
аза	-7190
ӘДМ	-7191
уған	-7192
▁жіт	-7193
сонал	-7194
қайда	-7195
▁Ауыл	-7196
▁праг	-7197
байұлы	-7198
▁естер	-7199
▁көшет	-7200
▁қабат	-7201
▁құпия	-7202
▁балама	-7203
▁зиянды	-7204
▁модуль	-7205
▁украин	-7206
▁мұндағы	-7207
▁тазарту	-7208
▁тікұшақ	-7209
▁прогресс	-7210
▁кардиохирург	-7211
▁археологиялық	-7212
▁q	-7213
old	-7214
сим	-7215
сут	-7216
▁iv	-7217
▁тг	-7218
спен	-7219
▁Бер	-7220
▁гон	-7221
▁гфр	-7222
▁шаш	-7223
▁әйт	-7224
альон	-7225
▁ақсу	-7226
▁бұзу	-7227
▁ерен	-7228
▁кісі	-7229
▁Әкім	-7230
▁ДСӘДМ	-7231
▁алғыш	-7232
▁көбею	-7233
▁әлиев	-7234
▁дәулет	-7235
▁дәурен	-7236
▁кавказ	-7237
▁құрман	-7238
▁меңгеру	-7239
▁қайғылы	-7240
қазақстан	-7241
▁батальон	-7242
▁тыңдаушы	-7243
▁курорттық	-7244
▁лейтенант	-7245
екі	-7246
сүй	-7247
қал	-7248
▁го	-7249
▁Әл	-7250
олла	-7251
қара	-7252
▁220	-7253
▁con	-7254
▁ДСҰ	-7255
▁қыл	-7256
▁Өск	-7257
зақов	-7258
▁мекс	-7259
▁став	-7260
электр	-7261
▁Кеден	-7262
▁Шетел	-7263
▁аспан	-7264
▁лукаш	-7265
▁спект	-7266
▁суару	-7267
▁шекті	-7268
▁әреке	-7269
▁контин	-7270
▁резиден	-7271
▁мұнайгаз	-7272
▁персонал	-7273
▁Сапарбаев	-7274
▁жылжымалы	-7275
▁келісімде	-7276
▁ресурстық	-7277
▁консорциум	-7278
▁интеграциялан	-7279
ахан	-7280
ения	-7281
ттар	-7282
берді	-7283
малық	-7284
іркеу	-7285
▁1997	-7286
▁жазу	-7287
бастұз	-7288
енциал	-7289
▁күнде	-7290
▁терап	-7291
▁түйме	-7292
▁бейжің	-7293
▁талпын	-7294
▁тиімсіз	-7295
▁трактор	-7296
▁қожалығ	-7297
▁құзірет	-7298
▁Өскемен	-7299
▁ғаламтор	-7300
▁санаттағы	-7301
▁транспорт	-7302
▁құсайынов	-7303
▁клиникалық	-7304
▁биологиялық	-7305
▁international	-7306
▁хабарланғанда	-7307
▁KA	-7308
▁un	-7309
▁111	-7310
▁ақи	-7311
▁веб	-7312
▁жәм	-7313
▁окқ	-7314
▁ток	-7315
ырман	-7316
▁көбі	-7317
▁төте	-7318
інізге	-7319
▁Энерг	-7320
▁жинағ	-7321
▁көбін	-7322
▁Досаев	-7323
▁Италия	-7324
ақұрылыс	-7325
▁алтыншы	-7326
▁бауырла	-7327
▁жиынтығ	-7328
▁кулагин	-7329
▁шарттық	-7330
▁қадамды	-7331
▁көмірсут	-7332
▁Корольдіг	-7333
▁жылдамдық	-7334
▁инспектор	-7335
▁ілгерілеу	-7336
▁әлдеқайда	-7337
▁индустриаландыр	-7338
ian	-7339
rim	-7340
цин	-7341
▁БЕ	-7342
дуақ	-7343
ятын	-7344
ғазы	-7345
▁ұқк	-7346
артия	-7347
▁Поль	-7348
▁иесі	-7349
▁Путин	-7350
▁аглом	-7351
▁кубог	-7352
▁парыз	-7353
▁оқитын	-7354
халықова	-7355
▁салымшы	-7356
▁тауарлы	-7357
▁көбінесе	-7358
▁тіршіліг	-7359
▁қортынды	-7360
▁Еуропалық	-7361
▁үйлесімді	-7362
▁тактикалық	-7363
du	-7364
әл	-7365
пақ	-7366
рид	-7367
▁ит	-7368
ская	-7369
шеру	-7370
өзен	-7371
▁114	-7372
▁бін	-7373
▁кри	-7374
▁лив	-7375
▁рақ	-7376
бұлақ	-7377
тылай	-7378
▁патр	-7379
▁ұқса	-7380
▁тыныс	-7381
▁концеп	-7382
▁күнтіз	-7383
▁спектр	-7384
▁сырқат	-7385
▁тастал	-7386
▁қолдай	-7387
▁біршама	-7388
▁кезеңді	-7389
▁нәресте	-7390
▁атлетика	-7391
▁жартылай	-7392
▁меншікті	-7393
▁міндетте	-7394
▁шығындар	-7395
▁ойдағыдай	-7396
▁рейтингіс	-7397
▁естерінізге	-7398
ЙНЕ	-7399
ақб	-7400
эль	-7401
ёев	-7402
▁Ан	-7403
▁ЕО	-7404
▁Мұ	-7405
▁өк	-7406
окөр	-7407
өпір	-7408
▁арг	-7409
▁асф	-7410
▁кил	-7411
▁ора	-7412
▁қош	-7413
▁Сауд	-7414
▁жүзу	-7415
▁мәми	-7416
▁форм	-7417
▁қызу	-7418
▁бейін	-7419
▁дубай	-7420
▁машық	-7421
▁мінез	-7422
▁сәуле	-7423
▁этика	-7424
▁өрлеу	-7425
сенбаев	-7426
▁жерден	-7427
▁меншіг	-7428
▁автоном	-7429
▁қалаулы	-7430
▁алғышарт	-7431
▁жеткілік	-7432
▁коллегия	-7433
▁мемқызмет	-7434
▁диагностика	-7435
▁классикалық	-7436
▁орталықтандырыл	-7437
зе	-7438
ье	-7439
піш	-7440
▁Ең	-7441
port	-7442
таль	-7443
ттер	-7444
▁192	-7445
▁алл	-7446
▁иль	-7447
▁пот	-7448
▁қаш	-7449
ейтін	-7450
уллин	-7451
▁1993	-7452
▁ЖҚЖК	-7453
▁арғы	-7454
▁киіз	-7455
▁меже	-7456
▁свет	-7457
▁БЕЙНЕ	-7458
▁атмос	-7459
ағалиев	-7460
▁грекия	-7461
▁жоқтығ	-7462
▁кірпіш	-7463
▁үйрету	-7464
▁аймақты	-7465
▁консерв	-7466
▁қашаған	-7467
▁режиссер	-7468
▁сәулетші	-7469
▁жалпыхалықтық	-7470
ard	-7471
▁Шв	-7472
кова	-7473
ожүй	-7474
▁гал	-7475
▁дей	-7476
авкат	-7477
келік	-7478
ников	-7479
сенбі	-7480
▁2001	-7481
▁Әлем	-7482
▁орнық	-7483
▁тірек	-7484
▁фирма	-7485
▁қолға	-7486
▁қоқыс	-7487
▁әлсіз	-7488
автожол	-7489
▁жолдан	-7490
▁михаил	-7491
▁рахмет	-7492
▁ставка	-7493
▁қатары	-7494
▁оқырман	-7495
▁мазмұнды	-7496
▁редакция	-7497
▁ермекбаев	-7498
▁жұмағұлов	-7499
▁экономист	-7500
▁үстемдігін	-7501
▁қанағаттандыр	-7502
ДҰ	-7503
кк	-7504
▁C	-7505
ate	-7506
бұз	-7507
иум	-7508
шин	-7509
әлі	-7510
▁гор	-7511
▁див	-7512
▁елу	-7513
▁пын	-7514
▁тұз	-7515
▁щуч	-7516
▁Қан	-7517
еттеу	-7518
▁ақтө	-7519
▁түле	-7520
▁катар	-7521
▁кеніш	-7522
▁Азамат	-7523
▁байлығ	-7524
▁композ	-7525
▁хоккей	-7526
▁сатылым	-7527
▁жинақтау	-7528
▁сириялық	-7529
▁жеделдету	-7530
▁мейрамхана	-7531
▁қазагроқаржы	-7532
▁трансформацияла	-7533
ab	-7534
вер	-7535
рут	-7536
тап	-7537
▁ле	-7538
вейт	-7539
▁113	-7540
▁БАҚ	-7541
▁Мал	-7542
▁раз	-7543
▁шен	-7544
сының	-7545
ғарғы	-7546
▁бект	-7547
▁даңқ	-7548
▁ксро	-7549
▁теор	-7550
▁өзег	-7551
▁абзал	-7552
▁бәсең	-7553
▁жидек	-7554
▁салыс	-7555
▁стенд	-7556
▁трамп	-7557
▁өткел	-7558
телеком	-7559
▁балқаш	-7560
▁берлин	-7561
▁критер	-7562
▁көбіне	-7563
▁спекта	-7564
▁Жоғарғы	-7565
▁жалғасы	-7566
▁жарақат	-7567
▁мұхамед	-7568
▁ондаған	-7569
▁тарихшы	-7570
▁қалашығ	-7571
▁геология	-7572
▁экспонат	-7573
▁қолғабыс	-7574
▁түсінікті	-7575
▁федералды	-7576
▁жарықтандыру	-7577
ik	-7578
иш	-7579
ank	-7580
пау	-7581
▁Гр	-7582
ress	-7583
лана	-7584
▁145	-7585
▁175	-7586
▁анг	-7587
▁жэк	-7588
▁квт	-7589
▁кіш	-7590
ожүйе	-7591
▁бұйр	-7592
▁дата	-7593
▁дисп	-7594
жанова	-7595
окөрме	-7596
терлік	-7597
ханұлы	-7598
▁базар	-7599
▁біраз	-7600
▁диақб	-7601
▁ешбір	-7602
▁нашар	-7603
▁парал	-7604
▁парақ	-7605
▁телев	-7606
▁құрық	-7607
инарлық	-7608
▁Талдық	-7609
▁ағарту	-7610
▁жаңаша	-7611
▁рахмон	-7612
ландырыл	-7613
▁айналма	-7614
▁мексика	-7615
▁қалашық	-7616
▁бағындыр	-7617
▁ықпалдас	-7618
▁қазақмыс	-7619
▁дауылбаев	-7620
▁Талдықорған	-7621
қк	-7622
арх	-7623
гөз	-7624
жтм	-7625
тин	-7626
▁кн	-7627
конг	-7628
▁116	-7629
▁асу	-7630
▁кал	-7631
▁раш	-7632
▁цел	-7633
меген	-7634
▁жабу	-7635
▁отыз	-7636
аралас	-7637
юссель	-7638
▁Кәсіп	-7639
▁көгал	-7640
▁лицей	-7641
▁Әбдір	-7642
▁бішкек	-7643
▁түсіру	-7644
▁әзірге	-7645
poration	-7646
тациялық	-7647
ымыздағы	-7648
▁арқалық	-7649
▁білдіру	-7650
▁жылжыту	-7651
▁ирандық	-7652
▁ынтымақ	-7653
еративтік	-7654
▁айқындау	-7655
▁алюминий	-7656
▁теңгелік	-7657
▁компонент	-7658
▁телекөпір	-7659
▁фотокөрме	-7660
▁шекаралас	-7661
▁Әкімшіліг	-7662
▁конкурстық	-7663
▁кезеңіндегі	-7664
ык	-7665
яқ	-7666
▁y	-7667
ани	-7668
рах	-7669
әдм	-7670
▁sh	-7671
▁МЖ	-7672
▁Ни	-7673
кляр	-7674
шава	-7675
▁128	-7676
▁евр	-7677
▁так	-7678
▁тоз	-7679
білік	-7680
ектік	-7681
тырақ	-7682
ылған	-7683
▁атыс	-7684
▁ижтм	-7685
▁көпп	-7686
▁інші	-7687
▁бәсек	-7688
▁түзет	-7689
▁қолай	-7690
▁дәріпт	-7691
▁жатқыз	-7692
▁жұмсау	-7693
▁кезект	-7694
▁куәліг	-7695
▁тосқау	-7696
▁төндір	-7697
▁Әскери	-7698
▁гумилев	-7699
▁демеуші	-7700
▁толтыру	-7701
▁жеделдет	-7702
▁ирландия	-7703
▁медведев	-7704
▁онжылдық	-7705
▁параметр	-7706
▁шұғылдан	-7707
▁қосарлан	-7708
▁көмектесу	-7709
▁өкілеттіг	-7710
▁баяндамашы	-7711
▁әрекеттесу	-7712
▁агломерация	-7713
▁көрсеткендей	-7714
жө	-7715
ill	-7716
вто	-7717
лес	-7718
ment	-7719
ақов	-7720
ерге	-7721
урін	-7722
▁118	-7723
▁124	-7724
▁Нау	-7725
▁гип	-7726
▁стр	-7727
иллер	-7728
шанбе	-7729
▁Орал	-7730
▁атақ	-7731
▁мұса	-7732
▁теге	-7733
▁Әділ	-7734
ативті	-7735
▁Еңбек	-7736
▁аслан	-7737
▁жабыл	-7738
▁өріст	-7739
▁бұйрығ	-7740
▁келбет	-7741
▁объект	-7742
▁алаңдау	-7743
▁жасалын	-7744
▁оспанов	-7745
▁болдырма	-7746
▁интернат	-7747
▁кеткенде	-7748
▁негізсіз	-7749
▁тегеурін	-7750
мұхамбетов	-7751
▁Тәжікстан	-7752
▁жалдамалы	-7753
▁құзыретті	-7754
▁білетіндей	-7755
▁математика	-7756
▁сүйемелдеу	-7757
▁компьютерлік	-7758
▁жетіспеушіліг	-7759
▁агроөндірістік	-7760
ияз	-7761
тум	-7762
альт	-7763
метт	-7764
смен	-7765
техн	-7766
▁кос	-7767
обель	-7768
іспен	-7769
▁канц	-7770
▁лебіз	-7771
▁Арабия	-7772
▁теңгер	-7773
▁тілдес	-7774
▁шексіз	-7775
▁апаттық	-7776
▁аукцион	-7777
▁таратыл	-7778
▁тіркелу	-7779
▁қарашығ	-7780
▁тауарлық	-7781
▁төмендеу	-7782
▁Солтүстік	-7783
▁реформала	-7784
▁жетекшіліг	-7785
▁Тәуелсіздіг	-7786
▁аккредиттеу	-7787
▁мемлекеттіліг	-7788
iv	-7789
еңк	-7790
иск	-7791
ита	-7792
құл	-7793
▁Бр	-7794
▁До	-7795
▁Со	-7796
▁шк	-7797
асты	-7798
ауыл	-7799
тинг	-7800
▁157	-7801
▁лаг	-7802
▁пир	-7803
▁шоқ	-7804
▁ісп	-7805
▁гелі	-7806
▁икем	-7807
▁стад	-7808
▁сырд	-7809
▁юнис	-7810
▁дсәдм	-7811
▁ералы	-7812
▁жойыл	-7813
▁жылын	-7814
▁катег	-7815
▁мойын	-7816
▁Есімов	-7817
ақтастығ	-7818
▁астықты	-7819
▁жарамды	-7820
▁нысанын	-7821
▁құбылыс	-7822
бұзушылық	-7823
▁ведомств	-7824
▁отырғызу	-7825
▁пысықтал	-7826
▁суармалы	-7827
▁сүйіспен	-7828
▁тосқауыл	-7829
▁қаржылан	-7830
▁теориялық	-7831
▁учаскелік	-7832
▁мәжілісмен	-7833
▁Универсиада	-7834
▁трансформатор	-7835
▁Ах	-7836
▁еу	-7837
▁мс	-7838
▁цз	-7839
▁ҚМ	-7840
аева	-7841
екер	-7842
ғары	-7843
▁йық	-7844
амбет	-7845
оссер	-7846
▁Банк	-7847
▁алаш	-7848
▁жасы	-7849
▁ұрыс	-7850
▁жарғы	-7851
▁кемел	-7852
▁сәлем	-7853
▁Польша	-7854
▁абылай	-7855
▁дархан	-7856
▁көтерм	-7857
▁лагерь	-7858
▁монета	-7859
▁салушы	-7860
оссертал	-7861
▁стадион	-7862
▁Малайзия	-7863
▁елбасына	-7864
▁кейіннен	-7865
▁нақтырақ	-7866
▁қайталан	-7867
▁идеология	-7868
▁канадалық	-7869
▁категория	-7870
▁машинақұрылыс	-7871
▁қарусыздандыр	-7872
▁архитектуралық	-7873
ОО	-7874
лу	-7875
est	-7876
ады	-7877
ако	-7878
бль	-7879
▁оа	-7880
▁193	-7881
▁ойл	-7882
▁рим	-7883
▁қоң	-7884
қоңыр	-7885
▁биле	-7886
▁вена	-7887
▁нұсқ	-7888
▁элек	-7889
▁Алтын	-7890
▁Тараз	-7891
▁донор	-7892
▁күмән	-7893
▁мәңгі	-7894
▁шақты	-7895
ногорск	-7896
▁дуалды	-7897
▁мүлдем	-7898
▁оқытыл	-7899
▁шіркеу	-7900
▁юнисеф	-7901
▁іргелі	-7902
▁қуандық	-7903
▁тұтастығ	-7904
▁амбулатор	-7905
▁пайымынша	-7906
▁жаңашылдық	-7907
▁мамытбеков	-7908
еул	-7909
▁Ру	-7910
▁Үн	-7911
атар	-7912
әрім	-7913
▁155	-7914
▁the	-7915
▁нөл	-7916
▁сән	-7917
▁эйр	-7918
▁экс	-7919
доған	-7920
спорт	-7921
▁prim	-7922
▁аэха	-7923
▁литр	-7924
▁қарт	-7925
егенов	-7926
▁Алмат	-7927
▁Ауған	-7928
▁айдар	-7929
▁айғағ	-7930
атындай	-7931
▁Наурыз	-7932
ографика	-7933
▁Ядролық	-7934
▁ердоған	-7935
▁жасаушы	-7936
▁үшжақты	-7937
▁Владимир	-7938
▁аттестат	-7939
▁жаңаөзен	-7940
▁сырдария	-7941
▁теңестір	-7942
▁қаппаров	-7943
▁қоныстан	-7944
▁екібастұз	-7945
▁жылдамдығ	-7946
▁инспекция	-7947
▁магистрал	-7948
▁бауырластық	-7949
▁сұхбаттасушы	-7950
ek	-7951
ics	-7952
еми	-7953
ешт	-7954
раж	-7955
окко	-7956
▁117	-7957
▁260	-7958
▁ЖОО	-7959
▁аек	-7960
▁тақ	-7961
▁іжө	-7962
▁ұбх	-7963
inist	-7964
▁гала	-7965
▁сына	-7966
▁эстр	-7967
миссия	-7968
түстіг	-7969
▁махаб	-7970
▁раунд	-7971
▁сусын	-7972
▁ферро	-7973
▁қалан	-7974
▁көпбал	-7975
▁орайла	-7976
▁сөйлеу	-7977
▁учаскі	-7978
бергенов	-7979
оператор	-7980
ұхамедов	-7981
▁графика	-7982
▁маршрут	-7983
▁төреліг	-7984
▁шешімді	-7985
▁артиллер	-7986
▁мезгілде	-7987
▁светлана	-7988
▁рекордтық	-7989
▁түймебаев	-7990
▁композитор	-7991
▁тілеуберді	-7992
▁қазавтожол	-7993
▁архитектура	-7994
▁ветеринарлық	-7995
▁интеллектуалды	-7996
КО	-7997
ао	-7998
акр	-7999
арм	-8000
кор	-8001
▁жк	-8002
▁фр	-8003
абор	-8004
езов	-8005
икан	-8006
▁127	-8007
▁Инф	-8008
▁рмк	-8009
▁рым	-8010
▁шев	-8011
▁ұак	-8012
гінші	-8013
ымдық	-8014
▁ақто	-8015
▁джон	-8016
▁жуыр	-8017
▁ирак	-8018
▁туыл	-8019
▁цент	-8020
дылығы	-8021
▁Сауда	-8022
▁волон	-8023
▁мәсел	-8024
▁портф	-8025
▁фотос	-8026
▁шатыр	-8027
▁асхана	-8028
▁босқын	-8029
▁бұрғыл	-8030
▁тұлпар	-8031
▁үйрену	-8032
▁жәмішев	-8033
▁прагмат	-8034
▁тезірек	-8035
▁қоңырау	-8036
▁әзірліг	-8037
▁кәсіпқой	-8038
▁пәтерлік	-8039
▁сотталған	-8040
отехнология	-8041
▁жинақтаушы	-8042
▁минералдық	-8043
▁corporation	-8044
▁айырмашылық	-8045
▁операциялық	-8046
▁тілектестік	-8047
▁конструктивті	-8048
ШҰ	-8049
вай	-8050
вен	-8051
ема	-8052
тек	-8053
ээн	-8054
▁ro	-8055
▁Дж	-8056
▁ТЖ	-8057
▁137	-8058
▁and	-8059
▁наш	-8060
▁сәл	-8061
гілік	-8062
машев	-8063
мақшы	-8064
▁1999	-8065
▁бұру	-8066
▁драй	-8067
▁сали	-8068
денция	-8069
сайлау	-8070
▁дистр	-8071
▁жағар	-8072
▁жүкті	-8073
▁малай	-8074
▁рекон	-8075
▁смарт	-8076
inister	-8077
▁ойынша	-8078
▁таныту	-8079
▁құрлығ	-8080
струкция	-8081
▁метрлік	-8082
▁сапалық	-8083
▁қасымов	-8084
▁қатерлі	-8085
▁жүргінші	-8086
▁километр	-8087
▁атмосфера	-8088
▁концепция	-8089
▁сыйымдылығ	-8090
аф	-8091
тс	-8092
ый	-8093
▁'	-8094
ine	-8095
құм	-8096
үст	-8097
▁ХҚ	-8098
ажай	-8099
орон	-8100
ософ	-8101
▁аақ	-8102
▁мел	-8103
амжар	-8104
аясат	-8105
урсия	-8106
▁атта	-8107
▁брон	-8108
▁лига	-8109
▁шеру	-8110
▁ілес	-8111
▁қазм	-8112
▁ұран	-8113
▁өлке	-8114
ақылау	-8115
ольник	-8116
▁жарма	-8117
▁микро	-8118
▁парас	-8119
▁ақышев	-8120
▁мандат	-8121
▁ұзарту	-8122
ээнбеков	-8123
▁кәмелет	-8124
▁экожүйе	-8125
▁Біріккен	-8126
▁Бәйтерек	-8127
▁айналысу	-8128
▁егеменді	-8129
▁кезектегі	-8130
▁көпбалалы	-8131
▁экскурсия	-8132
▁беретіндіг	-8133
▁инклюзивті	-8134
▁Инфографика	-8135
▁ведомстволық	-8136
▁жаттықтырушы	-8137
▁салыстырмалы	-8138
▁сәйкестендір	-8139
юр	-8140
ric	-8141
еля	-8142
зым	-8143
ино	-8144
мун	-8145
спе	-8146
▁ЖІ	-8147
▁әш	-8148
итан	-8149
ымов	-8150
ырза	-8151
▁бэк	-8152
▁туу	-8153
▁қыш	-8154
▁құж	-8155
маков	-8156
уашев	-8157
ыстар	-8158
▁3000	-8159
▁алым	-8160
▁есіг	-8161
▁рота	-8162
▁сцен	-8163
▁Өңір	-8164
еңкелі	-8165
сүйгіш	-8166
▁көкей	-8167
▁ойлау	-8168
▁паром	-8169
▁санит	-8170
▁қанша	-8171
амжаров	-8172
▁келдік	-8173
▁кувейт	-8174
▁транск	-8175
▁шындық	-8176
▁берілме	-8177
▁дистриб	-8178
▁жетінші	-8179
▁күнінде	-8180
▁философ	-8181
eminister	-8182
леріндегі	-8183
▁Шетелдік	-8184
▁объектив	-8185
▁салиқалы	-8186
▁тіршілік	-8187
▁Ауғанстан	-8188
▁құрылысты	-8189
▁абаттандыр	-8190
▁газдандыру	-8191
▁туроператор	-8192
▁кепілдендіру	-8193
дп	-8194
зо	-8195
жық	-8196
ыға	-8197
▁ил	-8198
тияр	-8199
▁119	-8200
▁141	-8201
▁Кан	-8202
▁Мер	-8203
▁вин	-8204
▁под	-8205
қылық	-8206
▁евро	-8207
▁руда	-8208
▁турб	-8209
абеков	-8210
дапешт	-8211
▁десан	-8212
▁дуаль	-8213
▁ешкім	-8214
▁қысым	-8215
▁ұрпағ	-8216
молалық	-8217
▁Каспий	-8218
▁тойлау	-8219
▁қуатта	-8220
ляциялық	-8221
▁тазалау	-8222
сайлауком	-8223
▁жүздеген	-8224
▁резидент	-8225
▁қайтарыл	-8226
▁жекешелік	-8227
▁климаттық	-8228
▁көлеңкелі	-8229
▁оптикалық	-8230
▁отырғанда	-8231
▁потенциал	-8232
▁магистрант	-8233
▁құрылтайшы	-8234
▁ортсайлауком	-8235
▁primeminister	-8236
▁мемлекеттілік	-8237
▁тұжырымдамалық	-8238
ge	-8239
iz	-8240
ви	-8241
еч	-8242
яд	-8243
сем	-8244
▁tr	-8245
▁Сә	-8246
атол	-8247
ауов	-8248
банк	-8249
дина	-8250
ыпта	-8251
▁122	-8252
▁126	-8253
▁ЖІӨ	-8254
▁бжк	-8255
▁бух	-8256
▁чер	-8257
маған	-8258
іктір	-8259
▁Амер	-8260
▁жүре	-8261
▁шама	-8262
▁ҮИИД	-8263
абалин	-8264
ахстан	-8265
▁алуан	-8266
▁көкжи	-8267
▁серия	-8268
▁урбан	-8269
▁Қанат	-8270
▁әулет	-8271
▁максим	-8272
▁шалдық	-8273
▁далалық	-8274
▁кепілді	-8275
▁шақырту	-8276
▁Байқоңыр	-8277
▁брюссель	-8278
▁критерий	-8279
▁мирзиёев	-8280
▁спектакл	-8281
▁ведомства	-8282
▁тенденция	-8283
▁фотосурет	-8284
▁көшбасшылығ	-8285
▁Түрікменстан	-8286
EX	-8287
пей	-8288
ьев	-8289
▁іт	-8290
рейн	-8291
інді	-8292
▁135	-8293
▁270	-8294
▁АЭФ	-8295
▁Чех	-8296
▁бұн	-8297
▁дев	-8298
▁при	-8299
▁бөлш	-8300
▁намы	-8301
▁тепе	-8302
▁ұшағ	-8303
гілдір	-8304
▁ақсақ	-8305
▁бұның	-8306
▁тақта	-8307
▁қаһар	-8308
▁жастан	-8309
▁арзанда	-8310
▁асфальт	-8311
▁аударма	-8312
▁гонконг	-8313
▁концерн	-8314
▁николай	-8315
▁астрахан	-8316
▁иманғали	-8317
▁көгілдір	-8318
оссерталес	-8319
▁ақтөбелік	-8320
▁континент	-8321
▁бітімгерлік	-8322
▁жеткіліксіз	-8323
▁декларацияла	-8324
▁идеологиялық	-8325
▁қызметіндегі	-8326
▁реконструкция	-8327
діз	-8328
скі	-8329
тақ	-8330
▁Оп	-8331
▁гл	-8332
▁мб	-8333
есек	-8334
рант	-8335
улат	-8336
▁206	-8337
▁БАӘ	-8338
▁Сай	-8339
▁Сан	-8340
▁кир	-8341
▁рыс	-8342
▁сег	-8343
▁төн	-8344
▁шөп	-8345
анбай	-8346
омали	-8347
стиан	-8348
ымбек	-8349
▁арту	-8350
▁слов	-8351
▁эпид	-8352
▁ҰҚШҰ	-8353
▁өлең	-8354
дердің	-8355
▁аттан	-8356
▁Қоғам	-8357
▁ұлғая	-8358
▁өлкет	-8359
▁өлшеу	-8360
▁бейнеб	-8361
▁жабылу	-8362
▁кірген	-8363
▁күндіз	-8364
▁нобель	-8365
▁нұсқау	-8366
▁тағзым	-8367
отехника	-8368
▁аустрия	-8369
▁аяқталу	-8370
▁канцлер	-8371
▁меркель	-8372
▁сарапта	-8373
▁ұрпақты	-8374
▁акционер	-8375
▁махаббат	-8376
▁редактор	-8377
▁хорватия	-8378
▁аргентина	-8379
▁бейімделу	-8380
▁егемендіг	-8381
▁лукашенко	-8382
▁польшалық	-8383
▁резиденция	-8384
▁қазақтелеком	-8385
по	-8386
уи	-8387
sat	-8388
елл	-8389
кий	-8390
пат	-8391
▁ЖШ	-8392
едер	-8393
▁154	-8394
▁750	-8395
▁Мед	-8396
▁неб	-8397
▁әбу	-8398
болла	-8399
сайыс	-8400
▁Петр	-8401
▁апар	-8402
▁мото	-8403
▁ошағ	-8404
▁әдем	-8405
▁Опера	-8406
▁аграр	-8407
▁битум	-8408
▁ертіс	-8409
▁радик	-8410
▁скляр	-8411
кенбаев	-8412
▁Сербия	-8413
▁еңсеру	-8414
▁жуырда	-8415
▁қорған	-8416
▁әуезов	-8417
▁баррель	-8418
▁көрікті	-8419
▁орынбор	-8420
▁құлдыра	-8421
▁серпіліс	-8422
▁айымбетов	-8423
▁мораторий	-8424
PO	-8425
ct	-8426
эц	-8427
ҚМ	-8428
аун	-8429
бел	-8430
енц	-8431
ниг	-8432
пон	-8433
ыла	-8434
▁аи	-8435
арон	-8436
оның	-8437
▁121	-8438
▁бож	-8439
▁бқо	-8440
▁дәм	-8441
▁рог	-8442
▁шор	-8443
альго	-8444
ендік	-8445
имова	-8446
коның	-8447
пенді	-8448
імова	-8449
▁саға	-8450
▁таба	-8451
olding	-8452
атолий	-8453
▁Жасыл	-8454
▁балан	-8455
▁жітім	-8456
▁нейро	-8457
▁түпкі	-8458
ттігіне	-8459
▁ересек	-8460
▁кесене	-8461
▁шавкат	-8462
▁әлихан	-8463
▁асырылу	-8464
▁аударым	-8465
▁ауқымда	-8466
▁биіктіг	-8467
▁жетіспе	-8468
▁атамбаев	-8469
▁жансейіт	-8470
▁қазғарыш	-8471
▁Үндістан	-8472
▁докторант	-8473
▁моральдық	-8474
▁аттестация	-8475
▁жұмылдырыл	-8476
▁одақтастық	-8477
▁тұрақтандыр	-8478
au	-8479
мо	-8480
әқ	-8481
ina	-8482
дро	-8483
ере	-8484
ағай	-8485
иева	-8486
иног	-8487
▁123	-8488
▁Kaz	-8489
▁kad	-8490
▁ЖШС	-8491
▁Сәр	-8492
▁адв	-8493
▁тжм	-8494
▁1996	-8495
▁Ақта	-8496
▁атай	-8497
▁манс	-8498
▁сөйт	-8499
▁хоре	-8500
▁хром	-8501
▁Басшы	-8502
▁бесіг	-8503
▁күтім	-8504
▁қарар	-8505
▁Мәдени	-8506
▁бабына	-8507
▁ескеру	-8508
▁жалған	-8509
▁жетісу	-8510
▁кезден	-8511
▁ойыншы	-8512
▁полиэт	-8513
▁басқосу	-8514
▁жетімді	-8515
▁жолақты	-8516
▁контент	-8517
▁кәсібил	-8518
▁тарапты	-8519
ларындағы	-8520
▁бейнелен	-8521
▁қайтадан	-8522
▁құрамдас	-8523
▁дайындалу	-8524
▁дүниежүзі	-8525
▁корольдік	-8526
▁шетелдегі	-8527
▁қысқартыл	-8528
▁көмірсутек	-8529
▁Университет	-8530
ip	-8531
фа	-8532
анг	-8533
вид	-8534
иға	-8535
лия	-8536
рин	-8537
▁01	-8538
▁ag	-8539
▁de	-8540
▁Мем	-8541
▁гур	-8542
▁док	-8543
▁еұу	-8544
▁инк	-8545
▁рас	-8546
▁сың	-8547
▁тұм	-8548
▁ққс	-8549
далла	-8550
ғарин	-8551
▁comp	-8552
▁elect	-8553
▁Жұмыс	-8554
▁басыл	-8555
▁испан	-8556
▁лабор	-8557
▁минск	-8558
▁сәтте	-8559
▁таулы	-8560
▁тәмам	-8561
▁әбден	-8562
ентация	-8563
▁жетеле	-8564
▁карьер	-8565
▁ілгері	-8566
гендігін	-8567
▁Америка	-8568
▁бөлмелі	-8569
▁еркіндік	-8570
▁қолтаңба	-8571
▁малайзиялық	-8572
▁магистратура	-8573
▁ақпараттандыр	-8574
▁профилактикалық	-8575
45	-8576
80	-8577
ma	-8578
гу	-8579
шт	-8580
▁M	-8581
ast	-8582
ару	-8583
овь	-8584
▁op	-8585
▁ph	-8586
▁пу	-8587
конт	-8588
паев	-8589
▁182	-8590
▁ІІМ	-8591
▁Исп	-8592
▁Фин	-8593
▁абу	-8594
▁мүс	-8595
▁рос	-8596
▁скр	-8597
▁шип	-8598
▁ғұм	-8599
терлі	-8600
▁ешкі	-8601
▁нато	-8602
▁осал	-8603
▁поез	-8604
▁сочи	-8605
▁ынта	-8606
▁ұлас	-8607
маркет	-8608
удсмен	-8609
▁Жақсы	-8610
▁авиак	-8611
▁жетпе	-8612
▁кәміл	-8613
▁мүлде	-8614
▁түгел	-8615
▁түнгі	-8616
▁Байбек	-8617
▁шөкеев	-8618
▁Вьетнам	-8619
▁перинат	-8620
▁эстрада	-8621
▁жағымсыз	-8622
▁сарыағаш	-8623
▁сенбілік	-8624
▁қазтрансойл	-8625
▁модернизациялау	-8626
зю	-8627
мә	-8628
беу	-8629
нек	-8630
▁II	-8631
▁ҰБ	-8632
2050	-8633
дром	-8634
олик	-8635
ордж	-8636
ффиц	-8637
▁360	-8638
▁for	-8639
▁ару	-8640
▁бин	-8641
▁жэо	-8642
▁нот	-8643
▁нәз	-8644
▁рио	-8645
▁сұл	-8646
▁іле	-8647
ининг	-8648
ілігі	-8649
құжат	-8650
үстем	-8651
▁2002	-8652
▁city	-8653
▁анал	-8654
▁едік	-8655
▁ұпай	-8656
energy	-8657
▁Нидер	-8658
▁арсен	-8659
▁рашид	-8660
▁тоғыс	-8661
▁фитос	-8662
ектілік	-8663
▁заңдық	-8664
▁сөйтіп	-8665
▁талант	-8666
▁хартия	-8667
▁Испания	-8668
▁капитан	-8669
▁шығынды	-8670
▁безендір	-8671
▁көшпенді	-8672
▁қайшылық	-8673
▁қаһарман	-8674
▁әшімбаев	-8675
▁шығарылым	-8676
▁қолданушы	-8677
▁Жақсыбеков	-8678
▁полиэтилен	-8679
▁шығармашыл	-8680
▁қазтрансгаз	-8681
▁қайырбекова	-8682
▁бейнебақылау	-8683
▁жылдарындағы	-8684
▁T	-8685
any	-8686
ell	-8687
иян	-8688
тір	-8689
▁ar	-8690
ышты	-8691
▁146	-8692
▁210	-8693
▁exp	-8694
▁Ком	-8695
▁аял	-8696
▁меж	-8697
▁пәр	-8698
▁экв	-8699
янмен	-8700
ғолия	-8701
▁баку	-8702
▁омбы	-8703
▁уәли	-8704
▁шикі	-8705
арафон	-8706
дығына	-8707
ұзақов	-8708
▁Келіс	-8709
▁айгүл	-8710
▁аллея	-8711
▁антон	-8712
▁бірте	-8713
▁дарын	-8714
▁иммун	-8715
▁мұнан	-8716
▁парсы	-8717
▁талай	-8718
▁финал	-8719
▁ықшам	-8720
▁Бейбіт	-8721
▁Рухани	-8722
▁дерлік	-8723
▁лекция	-8724
▁пәрмен	-8725
▁аяғында	-8726
▁варшава	-8727
▁жайылым	-8728
▁оңайлат	-8729
▁процент	-8730
▁сұйытыл	-8731
▁тізілім	-8732
қандардың	-8733
▁бұрғылау	-8734
▁дирекция	-8735
▁игерілме	-8736
▁музыкант	-8737
▁сауықтыр	-8738
▁өткенінде	-8739
▁қозғалтқыш	-8740
▁қарашығанақ	-8741
▁авиакомпания	-8742
▁сертификаттау	-8743
ob	-8744
дс	-8745
ят	-8746
ЫДҰ	-8747
ула	-8748
ғау	-8749
▁ОА	-8750
▁ех	-8751
▁шү	-8752
▁ұғ	-8753
ital	-8754
асын	-8755
етан	-8756
▁АЭА	-8757
▁Бри	-8758
▁Кел	-8759
▁вер	-8760
▁коэ	-8761
▁опп	-8762
сенов	-8763
стану	-8764
▁ЭЫДҰ	-8765
▁сеул	-8766
▁түйе	-8767
едония	-8768
әтерлі	-8769
▁kadex	-8770
▁алпыс	-8771
▁армян	-8772
▁рақым	-8773
▁талас	-8774
▁шұжық	-8775
▁қалам	-8776
▁қорық	-8777
едиялық	-8778
▁асанов	-8779
▁гимназ	-8780
▁жасасу	-8781
▁жасына	-8782
▁Армения	-8783
▁арсенал	-8784
▁аумақты	-8785
▁мөлшерле	-8786
▁нұсқаушы	-8787
▁реттеуші	-8788
▁словения	-8789
▁электром	-8790
▁ветеринар	-8791
▁Энергетика	-8792
▁украиналық	-8793
▁технологиялы	-8794
▁энерготиімділік	-8795
бу	-8796
▁D	-8797
int	-8798
ood	-8799
гет	-8800
ейд	-8801
орь	-8802
риш	-8803
▁жс	-8804
ксем	-8805
лану	-8806
обил	-8807
отип	-8808
оқұр	-8809
ұран	-8810
▁131	-8811
▁153	-8812
▁мит	-8813
▁сур	-8814
гелді	-8815
ыпова	-8816
▁емде	-8817
▁куба	-8818
▁қаби	-8819
▁үсте	-8820
▁барла	-8821
▁бұлар	-8822
▁бұлақ	-8823
▁мохам	-8824
▁мүсін	-8825
▁ондай	-8826
▁оқшау	-8827
▁сүтті	-8828
▁тілші	-8829
▁тұспа	-8830
▁ұйғар	-8831
▁әкелу	-8832
контент	-8833
▁Дүйсен	-8834
▁бастық	-8835
▁жалтар	-8836
▁жетпес	-8837
▁консал	-8838
▁рүстем	-8839
▁тұтқын	-8840
▁өтпелі	-8841
▁holding	-8842
▁адвокат	-8843
▁бабының	-8844
▁мекенде	-8845
▁олқылық	-8846
▁құзырлы	-8847
▁ұлықтау	-8848
▁гимназия	-8849
▁оңайлату	-8850
▁қырымбек	-8851
▁өндірген	-8852
▁жаһандану	-8853
▁көтермелеу	-8854
▁алаңдаушылық	-8855
▁интеграцияла	-8856
▁автоматтандыр	-8857
әз	-8858
loc	-8859
mat	-8860
ике	-8861
лұм	-8862
шов	-8863
▁ры	-8864
▁сх	-8865
▁ха	-8866
rate	-8867
егіш	-8868
естр	-8869
ктік	-8870
▁151	-8871
▁650	-8872
▁iii	-8873
▁акц	-8874
▁екп	-8875
▁лин	-8876
▁мжс	-8877
▁пеш	-8878
▁сит	-8879
▁шаһ	-8880
▁ғай	-8881
▁ұәқ	-8882
еланд	-8883
іңғай	-8884
▁асық	-8885
▁бөле	-8886
▁кәде	-8887
▁мырз	-8888
▁ісік	-8889
ұлының	-8890
▁Ақтау	-8891
▁ауысу	-8892
▁гастр	-8893
▁жанды	-8894
▁игорь	-8895
▁канал	-8896
▁тігін	-8897
▁түспе	-8898
▁тәлім	-8899
▁ғұмыр	-8900
▁қырық	-8901
▁ұзарт	-8902
▁жаңару	-8903
▁мүшелі	-8904
▁науқан	-8905
▁тазарт	-8906
▁тамшыл	-8907
екциялық	-8908
ксембург	-8909
▁ертеңгі	-8910
▁көлікті	-8911
▁прогрес	-8912
▁біріңғай	-8913
▁психолог	-8914
▁скрининг	-8915
▁стипенди	-8916
▁электров	-8917
▁құрметте	-8918
▁жээнбеков	-8919
▁спектакль	-8920
▁стационар	-8921
▁құрметпен	-8922
▁Назарбаева	-8923
▁консалтинг	-8924
▁Ассамблеясы	-8925
▁көгалдандыру	-8926
▁санитариялық	-8927
▁сүйіспеншілік	-8928
ЖТ	-8929
алл	-8930
бей	-8931
ния	-8932
онг	-8933
echn	-8934
быра	-8935
овск	-8936
▁136	-8937
▁172	-8938
▁Пер	-8939
▁гри	-8940
▁лав	-8941
ұтқыр	-8942
▁Алек	-8943
▁гааг	-8944
▁күше	-8945
▁мигр	-8946
▁түрт	-8947
▁Әмір	-8948
▁әдет	-8949
rategy	-8950
берген	-8951
ілігін	-8952
қалиев	-8953
▁Білім	-8954
▁заңжо	-8955
▁солай	-8956
▁теңде	-8957
▁филип	-8958
▁құдай	-8959
ономика	-8960
▁ауылды	-8961
▁біркел	-8962
▁вектор	-8963
▁жүзден	-8964
▁мағлұм	-8965
▁істеме	-8966
▁Қайрат	-8967
▁Еуразия	-8968
▁Жақыпов	-8969
▁душанбе	-8970
▁дәнекер	-8971
▁марокко	-8972
▁кореялық	-8973
▁іздестір	-8974
▁Финляндия	-8975
▁басындағы	-8976
▁бейнебаян	-8977
▁омбудсмен	-8978
▁трансплан	-8979
▁объективті	-8980
▁электровоз	-8981
▁түркменстан	-8982
▁Экономикалық	-8983
▁қарағандылық	-8984
▁консультациялық	-8985
нау	-8986
ний	-8987
энь	-8988
қыт	-8989
▁Ку	-8990
▁Ма	-8991
осов	-8992
цикл	-8993
ыған	-8994
▁156	-8995
▁keg	-8996
▁МЖӘ	-8997
▁аэф	-8998
▁цир	-8999
▁іід	-9000
▁ііі	-9001
анова	-9002
артыл	-9003
▁кора	-9004
▁мәре	-9005
ультет	-9006
▁жаман	-9007
▁жолақ	-9008
▁жолғы	-9009
▁прези	-9010
▁транш	-9011
иноград	-9012
шыларын	-9013
▁Инвест	-9014
▁банкро	-9015
▁дариға	-9016
▁реестр	-9017
▁реттік	-9018
▁қастер	-9019
▁гүлдену	-9020
▁домбыра	-9021
▁коэффиц	-9022
▁логотип	-9023
▁макарон	-9024
▁мұрагер	-9025
▁планета	-9026
▁ресімде	-9027
▁сегмент	-9028
▁құрамды	-9029
▁жұмыстан	-9030
▁концентр	-9031
▁тұрғызыл	-9032
▁төлқұжат	-9033
▁Олимпиада	-9034
▁азаматтығ	-9035
▁сәйкестіг	-9036
▁факультет	-9037
▁шәкіртақы	-9038
▁ықпалдасу	-9039
▁шақырымдық	-9040
▁әділеттілік	-9041
▁стационарлық	-9042
sk	-9043
ul	-9044
км	-9045
шю	-9046
юн	-9047
▁F	-9048
ash	-9049
erg	-9050
iii	-9051
икс	-9052
иоп	-9053
чес	-9054
▁of	-9055
▁зт	-9056
байн	-9057
даль	-9058
▁ДСМ	-9059
▁аян	-9060
далау	-9061
ислав	-9062
пания	-9063
трина	-9064
шықты	-9065
ьекті	-9066
▁азая	-9067
▁жқжк	-9068
▁заид	-9069
▁мүлк	-9070
▁неке	-9071
▁тану	-9072
▁тонн	-9073
▁ядро	-9074
тардың	-9075
▁Бақыт	-9076
▁Темір	-9077
▁арқау	-9078
▁береш	-9079
▁божко	-9080
▁денис	-9081
▁ербол	-9082
▁күйін	-9083
▁порту	-9084
▁рахым	-9085
▁рефер	-9086
▁схема	-9087
▁титан	-9088
▁қалау	-9089
дылығын	-9090
туалдық	-9091
▁Нұрлан	-9092
▁отырар	-9093
▁парник	-9094
▁әнұран	-9095
▁Израиль	-9096
▁араласу	-9097
▁аумақта	-9098
▁банктік	-9099
▁беларус	-9100
▁біртұта	-9101
▁дамитын	-9102
▁штаттық	-9103
▁электор	-9104
▁болжамды	-9105
▁импортта	-9106
елеріндегі	-9107
▁Дүйсенова	-9108
▁Саудабаев	-9109
▁Швейцария	-9110
▁оппозиция	-9111
▁қатардағы	-9112
▁жетілдіріл	-9113
▁көппәтерлі	-9114
▁жарақтандырыл	-9115
иу	-9116
фт	-9117
қу	-9118
ace	-9119
жин	-9120
кок	-9121
▁02	-9122
▁Ду	-9123
▁МБ	-9124
▁жө	-9125
▁из	-9126
алав	-9127
ранс	-9128
▁133	-9129
▁850	-9130
▁Абд	-9131
▁ддұ	-9132
сапар	-9133
хатшы	-9134
▁кемс	-9135
▁прот	-9136
▁реад	-9137
▁симп	-9138
▁эфир	-9139
▁ясжт	-9140
▁әуек	-9141
терриш	-9142
▁білме	-9143
▁бірік	-9144
▁евген	-9145
▁жұман	-9146
▁ибраг	-9147
▁колум	-9148
▁рынок	-9149
▁шекте	-9150
▁шыған	-9151
энергия	-9152
▁айырыл	-9153
▁біржан	-9154
▁коллек	-9155
▁тыңдау	-9156
▁түрткі	-9157
▁қайнар	-9158
▁айғақта	-9159
▁жөнелту	-9160
▁комбайн	-9161
▁көшірме	-9162
▁мигрант	-9163
▁оралман	-9164
▁тарихта	-9165
▁қажырлы	-9166
▁Мәдениет	-9167
▁академик	-9168
▁бекетаев	-9169
▁дәріптеу	-9170
▁төмендегі	-9171
▁австриялық	-9172
▁белоруссия	-9173
▁метрология	-9174
▁реадмиссия	-9175
▁мүмкіншілік	-9176
▁ынтымақтасу	-9177
▁кәсіпорнының	-9178
▁модернизация	-9179
▁Республикалық	-9180
tz	-9181
тк	-9182
ans	-9183
бау	-9184
еан	-9185
итм	-9186
нұс	-9187
қдб	-9188
▁ло	-9189
▁уі	-9190
▁шә	-9191
екен	-9192
зада	-9193
ігіт	-9194
▁138	-9195
▁147	-9196
▁KAZ	-9197
▁Лит	-9198
▁Шан	-9199
▁йын	-9200
▁мил	-9201
▁саз	-9202
▁хай	-9203
▁эко	-9204
▁юни	-9205
▁1941	-9206
▁ақиұ	-9207
▁банг	-9208
▁мойн	-9209
▁през	-9210
▁тұра	-9211
▁чили	-9212
▁Әбді	-9213
лендір	-9214
▁алшақ	-9215
▁елена	-9216
▁такси	-9217
▁тенге	-9218
▁швейц	-9219
▁қадір	-9220
▁қуғын	-9221
▁әдемі	-9222
▁әркім	-9223
еландия	-9224
▁Бизнес	-9225
▁Шанхай	-9226
▁бейнек	-9227
▁палест	-9228
▁сүргін	-9229
▁тальго	-9230
▁ұмтылу	-9231
▁алексей	-9232
▁ақтоғай	-9233
▁бакалав	-9234
▁зерттел	-9235
▁көмекте	-9236
▁шығанағ	-9237
циалистік	-9238
▁анатолий	-9239
▁күндізгі	-9240
▁монғолия	-9241
▁сүлеймен	-9242
▁зерттеуші	-9243
▁символдық	-9244
▁террорлық	-9245
▁қабиболла	-9246
▁жоғарылату	-9247
▁мүдделіліг	-9248
▁сенімділіг	-9249
▁жақындастыр	-9250
▁нейрохирург	-9251
▁сабақтастығ	-9252
▁степногорск	-9253
▁орайластырыл	-9254
▁пайдаланылма	-9255
▁құқықбұзушылық	-9256
of	-9257
ph	-9258
ron	-9259
был	-9260
евр	-9261
ини	-9262
ифа	-9263
ное	-9264
▁07	-9265
▁XX	-9266
▁po	-9267
дель	-9268
окал	-9269
▁129	-9270
▁185	-9271
▁ktz	-9272
▁бүр	-9273
▁рен	-9274
▁Қол	-9275
дірек	-9276
ерген	-9277
илиси	-9278
қорыт	-9279
▁1945	-9280
▁2023	-9281
▁амал	-9282
▁ауыт	-9283
▁тұса	-9284
▁цирк	-9285
еліліг	-9286
ингент	-9287
ождест	-9288
ошенко	-9289
тындығ	-9290
▁Жібек	-9291
▁ауырт	-9292
▁аштық	-9293
▁валер	-9294
▁гвард	-9295
▁екпін	-9296
▁көкте	-9297
▁тәтті	-9298
енконың	-9299
▁Жоғары	-9300
▁монако	-9301
▁нотари	-9302
▁спарта	-9303
▁тазала	-9304
▁тұрған	-9305
▁этника	-9306
▁қоятын	-9307
пеушілік	-9308
▁голланд	-9309
▁картина	-9310
▁одақтас	-9311
▁орнымен	-9312
▁центнер	-9313
▁іссапар	-9314
▁әділдік	-9315
▁Сингапур	-9316
▁будапешт	-9317
▁бұзылған	-9318
▁доктрина	-9319
▁медиатор	-9320
▁түсінікт	-9321
▁школьник	-9322
▁әлеуметт	-9323
▁Азаматтық	-9324
▁Петропавл	-9325
▁мыңжылдық	-9326
▁саудабаев	-9327
▁Келімбетов	-9328
▁контингент	-9329
▁нұрымбетов	-9330
▁стандартты	-9331
▁целиноград	-9332
▁мәдениетаралық	-9333
▁қатысатындығын	-9334
ru	-9335
КМ	-9336
бр	-9337
ое	-9338
▁P	-9339
erv	-9340
ван	-9341
▁EX	-9342
ирия	-9343
исян	-9344
ожин	-9345
отор	-9346
▁134	-9347
▁168	-9348
▁183	-9349
▁188	-9350
▁Ата	-9351
▁жығ	-9352
▁хкб	-9353
▁шап	-9354
бетон	-9355
имент	-9356
мұхан	-9357
озиум	-9358
селор	-9359
ұлына	-9360
▁ақыр	-9361
▁педи	-9362
▁роль	-9363
▁түйт	-9364
▁әлім	-9365
ованың	-9366
овьева	-9367
омпром	-9368
ыздағы	-9369
▁kegoc	-9370
▁Чехия	-9371
▁акциз	-9372
▁ескір	-9373
▁пекин	-9374
▁сынау	-9375
▁сәкен	-9376
▁ханым	-9377
▁қызық	-9378
азиялық	-9379
ократия	-9380
пондент	-9381
▁Astana	-9382
▁баспан	-9383
▁біржол	-9384
▁бұндай	-9385
▁жүгіру	-9386
▁кішкен	-9387
▁немере	-9388
▁сәдуақ	-9389
▁жарнама	-9390
▁жүздесу	-9391
▁сырттан	-9392
▁төрелік	-9393
▁эпидеми	-9394
икативтік	-9395
кендердің	-9396
▁бюджетте	-9397
▁еркіндіг	-9398
▁испандық	-9399
▁келтіріл	-9400
▁кешендік	-9401
▁қазпошта	-9402
▁алатындығ	-9403
▁гүлденген	-9404
▁негіздеме	-9405
▁сақтандыр	-9406
▁симпозиум	-9407
▁толғандыр	-9408
▁корпоратив	-9409
▁стипендиат	-9410
▁ферроқорыт	-9411
▁конфедерация	-9412
▁шоғырландыру	-9413
▁Әбдірахманов	-9414
▁қалаларындағы	-9415
se	-9416
йс	-9417
има	-9418
▁тш	-9419
ават	-9420
егат	-9421
кара	-9422
ныша	-9423
стам	-9424
туар	-9425
ызша	-9426
▁144	-9427
▁165	-9428
▁203	-9429
▁cit	-9430
▁gov	-9431
▁nur	-9432
▁Пар	-9433
▁дүр	-9434
абаев	-9435
бағыс	-9436
скіде	-9437
ілген	-9438
▁EXPO	-9439
▁арыл	-9440
▁дода	-9441
▁иван	-9442
▁княз	-9443
▁күрт	-9444
▁іңіз	-9445
▁өлше	-9446
▁Литва	-9447
▁бөгет	-9448
▁касса	-9449
▁кілем	-9450
▁нәзік	-9451
▁тараб	-9452
▁шырша	-9453
▁ұйғыр	-9454
бағдарл	-9455
▁жылжыт	-9456
▁коммун	-9457
▁кіргіз	-9458
▁көпсал	-9459
▁симфон	-9460
▁тілдік	-9461
▁үстеме	-9462
екторлық	-9463
▁марафон	-9464
▁маркалы	-9465
▁сауатты	-9466
▁үнқатыс	-9467
▁колумбия	-9468
▁оңтүстіг	-9469
▁қалдырма	-9470
▁сәйкестік	-9471
▁үстемдігі	-9472
▁регламентт	-9473
▁мемориалдық	-9474
▁бастамашылық	-9475
▁экстремистік	-9476
▁әңгімелесуші	-9477
nov	-9478
ЖТМ	-9479
бад	-9480
орг	-9481
улл	-9482
▁Ав	-9483
▁ЕХ	-9484
▁Сы	-9485
атер	-9486
баға	-9487
еван	-9488
мира	-9489
ройл	-9490
ьяна	-9491
ғаев	-9492
▁139	-9493
▁380	-9494
▁gre	-9495
▁Мон	-9496
▁анд	-9497
▁апт	-9498
▁бун	-9499
▁жам	-9500
▁жэс	-9501
▁пет	-9502
▁пре	-9503
тарап	-9504
ылығы	-9505
қанов	-9506
қарлы	-9507
▁1300	-9508
▁ИЖТМ	-9509
▁алар	-9510
▁крем	-9511
▁сипа	-9512
▁ырық	-9513
▁үнді	-9514
керлер	-9515
▁алгор	-9516
▁асеан	-9517
▁батар	-9518
▁бетпе	-9519
▁гидро	-9520
▁кірме	-9521
▁сотта	-9522
▁татул	-9523
▁тәжік	-9524
▁шаһар	-9525
▁эфиоп	-9526
▁Қайыр	-9527
▁әнуар	-9528
шевройл	-9529
▁kazsat	-9530
▁болжау	-9531
▁волков	-9532
▁жазған	-9533
▁қиылыс	-9534
▁үлесті	-9535
▁Әділет	-9536
▁әкімші	-9537
ождество	-9538
▁абонент	-9539
▁айталық	-9540
▁бейнеле	-9541
▁бетінше	-9542
▁желілік	-9543
▁жұмыста	-9544
игациялық	-9545
истикалық	-9546
▁strategy	-9547
▁Мұхаммед	-9548
▁ажырамас	-9549
▁жағармай	-9550
▁кампания	-9551
▁күнбағыс	-9552
▁мекенжай	-9553
▁пробация	-9554
▁теңгерім	-9555
▁қауқарлы	-9556
▁ұқсастығ	-9557
▁басшыларын	-9558
▁сауаттылығ	-9559
▁тапсырысты	-9560
▁құрастырыл	-9561
▁Бейбітшілік	-9562
▁органикалық	-9563
▁әуекомпания	-9564
▁жарақтандыру	-9565
▁профессорлық	-9566
▁қалыптастырыл	-9567
▁интеллектуалдық	-9568
▁қанағаттанарлық	-9569
10	-9570
17	-9571
ади	-9572
ато	-9573
рор	-9574
тте	-9575
янь	-9576
әрі	-9577
▁ot	-9578
ерея	-9579
став	-9580
терм	-9581
шалы	-9582
▁142	-9583
▁164	-9584
▁171	-9585
▁sol	-9586
▁Тай	-9587
▁Тас	-9588
▁бөр	-9589
▁дэф	-9590
▁сым	-9591
▁ҰБТ	-9592
басын	-9593
▁ЕҚДБ	-9594
▁олег	-9595
▁суық	-9596
▁ішін	-9597
▁үйір	-9598
▁Ұйым	-9599
▁Сүлей	-9600
▁Түркі	-9601
▁етуші	-9602
▁еққдб	-9603
▁залал	-9604
▁керам	-9605
▁күзде	-9606
▁таппа	-9607
▁токио	-9608
▁өтпек	-9609
ғалиева	-9610
▁дұрыст	-9611
▁керуен	-9612
▁мыңбай	-9613
▁нысана	-9614
▁статус	-9615
▁ұйымды	-9616
иядролық	-9617
▁абдалла	-9618
▁айырбас	-9619
▁жасырын	-9620
▁корабль	-9621
▁нашарла	-9622
▁татьяна	-9623
▁эмомали	-9624
▁қазірде	-9625
▁гранттық	-9626
▁мағлұмат	-9627
▁тамшылат	-9628
▁қазпочта	-9629
▁kazenergy	-9630
▁африкалық	-9631
▁импорттал	-9632
▁сыйластық	-9633
▁тәртіппен	-9634
▁жұманғарин	-9635
▁территория	-9636
▁тәуелділік	-9637
▁құрылымдау	-9638
▁күнтізбелік	-9639
▁лоссерталес	-9640
▁сингапурлық	-9641
▁түсініктеме	-9642
▁журналистика	-9643
▁мемқызметкер	-9644
▁шеккендердің	-9645
▁әбдіхалықова	-9646
жу	-9647
пы	-9648
bus	-9649
авт	-9650
ико	-9651
ияс	-9652
нит	-9653
ода	-9654
она	-9655
пол	-9656
унд	-9657
упп	-9658
цев	-9659
▁on	-9660
▁шқ	-9661
диум	-9662
палы	-9663
стаг	-9664
тығы	-9665
үнем	-9666
▁169	-9667
▁173	-9668
▁Вен	-9669
▁Сот	-9670
▁кре	-9671
▁сах	-9672
▁түл	-9673
▁эли	-9674
▁Құл	-9675
галия	-9676
ейбол	-9677
киада	-9678
химия	-9679
ценат	-9680
қазан	-9681
▁bank	-9682
▁Абай	-9683
▁боса	-9684
▁әріп	-9685
сыздан	-9686
убатор	-9687
ымызды	-9688
▁Петер	-9689
▁Серік	-9690
▁асхат	-9691
▁видео	-9692
▁жекпе	-9693
▁камер	-9694
▁ілтип	-9695
▁қапта	-9696
▁ұлтты	-9697
демелік	-9698
кциялық	-9699
▁бекіре	-9700
▁жоғалт	-9701
▁курорт	-9702
▁Құрама	-9703
оқұрылым	-9704
▁express	-9705
▁апталығ	-9706
▁бахрейн	-9707
▁меценат	-9708
▁мойнына	-9709
▁мультип	-9710
▁қателік	-9711
▁үлескер	-9712
теріндегі	-9713
▁Президен	-9714
▁байменов	-9715
▁биология	-9716
▁гутерриш	-9717
▁хатшылық	-9718
▁автономды	-9719
▁астрахань	-9720
▁болғандығ	-9721
▁заңгерлік	-9722
▁инкубатор	-9723
▁казахстан	-9724
▁кепілдеме	-9725
▁көпсалалы	-9726
▁сегізінші	-9727
▁өркендету	-9728
▁аккредитте	-9729
▁демеушілік	-9730
▁мүгедектік	-9731
▁тыңғылықты	-9732
▁тұрғылықты	-9733
▁қожамжаров	-9734
қазақстандық	-9735
▁антиядролық	-9736
▁институттық	-9737
log	-9738
дым	-9739
фат	-9740
ігі	-9741
▁ri	-9742
ейлі	-9743
имит	-9744
рдек	-9745
роду	-9746
▁148	-9747
▁pol	-9748
▁Жер	-9749
▁жұқ	-9750
▁инв	-9751
▁лен	-9752
▁мад	-9753
▁пас	-9754
▁саң	-9755
▁теп	-9756
▁три	-9757
▁хдп	-9758
▁ғұр	-9759
ендум	-9760
щенко	-9761
ғылық	-9762
▁аңыз	-9763
▁крас	-9764
▁масш	-9765
▁неге	-9766
▁смағ	-9767
▁тірі	-9768
▁түзе	-9769
▁фоль	-9770
уалдық	-9771
▁Ахмет	-9772
▁артығ	-9773
▁асқақ	-9774
▁аягөз	-9775
▁драйв	-9776
▁дулат	-9777
▁киноф	-9778
▁корол	-9779
▁метро	-9780
бердиев	-9781
дігінше	-9782
▁ауыртп	-9783
▁балтық	-9784
▁джордж	-9785
▁жатқан	-9786
▁шахмат	-9787
▁абдулла	-9788
▁альберт	-9789
▁бейімде	-9790
▁парасат	-9791
▁ілтипат	-9792
▁қысқаша	-9793
▁Кедендік	-9794
▁алгоритм	-9795
▁асыраушы	-9796
▁белорусь	-9797
▁тапшылық	-9798
▁өлкетану	-9799
▁аэроұтқыр	-9800
▁жасұзақов	-9801
▁монтаждау	-9802
▁философия	-9803
отехникалық	-9804
▁жақсылықов	-9805
▁орталықтан	-9806
▁референдум	-9807
▁жасампаздық	-9808
▁меморгандар	-9809
▁миллиондаған	-9810
▁амбулаториялық	-9811
if	-9812
our	-9813
лақ	-9814
над	-9815
уля	-9816
шқа	-9817
эла	-9818
ғаш	-9819
▁ap	-9820
▁sp	-9821
▁эс	-9822
ицид	-9823
улен	-9824
құрт	-9825
▁189	-9826
▁370	-9827
▁айб	-9828
▁жад	-9829
▁кін	-9830
▁уль	-9831
▁ұңғ	-9832
сынов	-9833
танды	-9834
қақов	-9835
▁ХҚКО	-9836
▁Штат	-9837
▁мила	-9838
▁түпк	-9839
▁ұшта	-9840
▁әлия	-9841
бастау	-9842
инский	-9843
шылдық	-9844
▁Австр	-9845
▁армат	-9846
▁ақпар	-9847
▁жарыл	-9848
▁жолағ	-9849
▁күзгі	-9850
▁сұрып	-9851
▁толқы	-9852
▁тораб	-9853
▁қайғы	-9854
▁құтты	-9855
▁Сайлау	-9856
▁бұйрық	-9857
▁жоятын	-9858
▁жүрдек	-9859
▁микрон	-9860
▁растау	-9861
▁ынталы	-9862
▁масштаб	-9863
▁педиатр	-9864
▁тәжірби	-9865
▁ұмытпау	-9866
▁велошеру	-9867
▁зеландия	-9868
▁транспар	-9869
▁шектелме	-9870
▁Қоғамдық	-9871
▁әйтімова	-9872
▁Астаналық	-9873
дімұхамедов	-9874
▁жеткізілім	-9875
▁прагматизм	-9876
▁айырмашылығ	-9877
▁лицензиялау	-9878
▁селекторлық	-9879
▁инфроқұрылым	-9880
▁мейірімділік	-9881
▁федеративтік	-9882
▁ферроқорытпа	-9883
▁артиллериялық	-9884
▁биотехнология	-9885
▁функционалдық	-9886
▁электромобиль	-9887
дә	-9888
▁Й	-9889
und	-9890
СКО	-9891
алу	-9892
сіп	-9893
іту	-9894
қаш	-9895
▁03	-9896
▁is	-9897
▁рә	-9898
▁тх	-9899
▁як	-9900
maty	-9901
абет	-9902
амад	-9903
банг	-9904
дара	-9905
егал	-9906
одты	-9907
ғалы	-9908
▁143	-9909
▁158	-9910
▁ipo	-9911
▁nad	-9912
▁Сал	-9913
▁апа	-9914
▁мөз	-9915
▁піс	-9916
▁род	-9917
▁фос	-9918
▁іқм	-9919
ырлық	-9920
▁арпа	-9921
▁арын	-9922
▁бояу	-9923
▁омар	-9924
▁шеше	-9925
▁қарп	-9926
▁қоян	-9927
▁қыра	-9928
▁өріс	-9929
▁өтпе	-9930
ельсин	-9931
▁Мырза	-9932
▁авток	-9933
▁ахмед	-9934
▁дириж	-9935
▁жазда	-9936
▁иелік	-9937
▁күшею	-9938
▁рамаз	-9939
▁шегер	-9940
▁шыңда	-9941
бангулы	-9942
дігінен	-9943
ділігін	-9944
изиялық	-9945
сембаев	-9946
▁Global	-9947
▁nadloc	-9948
▁Грузия	-9949
▁бірігу	-9950
▁ведомс	-9951
▁имашев	-9952
▁оқыған	-9953
▁парашю	-9954
▁топтық	-9955
▁шолпан	-9956
▁құлшын	-9957
novation	-9958
ционалды	-9959
▁company	-9960
▁дональд	-9961
▁тұрақта	-9962
▁тәртіпт	-9963
▁щучинск	-9964
▁агротехн	-9965
▁волейбол	-9966
▁инфекция	-9967
▁кепілдіг	-9968
▁мультимо	-9969
▁мультипл	-9970
▁мұсабаев	-9971
▁сыздықов	-9972
▁жоғарылат	-9973
▁президиум	-9974
▁сипаттама	-9975
▁шеберхана	-9976
▁диагностик	-9977
▁көрегендіг	-9978
▁люксембург	-9979
▁сауаттылық	-9980
▁түпкілікті	-9981
муникациялық	-9982
▁жалғастырыл	-9983
▁симфониялық	-9984
▁тілектестіг	-9985
▁қонақжайлық	-9986
▁швейцариялық	-9987
15	-9988
ST	-9989
зім	-9990
лод	-9991
сиф	-9992
фия	-9993
▁ad	-9994
▁im	-9995
▁Де	-9996
dust	-9997
асса	-9998
ешев	-9999
ібай	-10000
імше	-10001
▁178	-10002
▁215	-10003
▁Жан	-10004
▁айр	-10005
▁бро	-10006
▁жыр	-10007
▁зен	-10008
▁пик	-10009
▁пош	-10010
▁шим	-10011
▁энд	-10012
иннің	-10013
мегия	-10014
ғымас	-10015
▁2500	-10016
▁алаб	-10017
▁бабы	-10018
▁бриф	-10019
▁зонд	-10020
▁перз	-10021
▁стил	-10022
▁тани	-10023
дендір	-10024
дестаг	-10025
тіксіз	-10026
ішілік	-10027
▁автов	-10028
▁айыру	-10029
▁актер	-10030
▁жатпа	-10031
▁макет	-10032
▁сұйық	-10033
▁тәнті	-10034
▁шошқа	-10035
мегияев	-10036
назаров	-10037
▁Королі	-10038
▁бухгал	-10039
▁жалдау	-10040
▁жаңбыр	-10041
▁кабель	-10042
▁мастер	-10043
▁түркпа	-10044
▁фолькл	-10045
▁шамасы	-10046
▁экспер	-10047
▁ілеспе	-10048
▁қазалы	-10049
▁үиидмб	-10050
ессиялық	-10051
▁Брифинг	-10052
▁адалдық	-10053
▁башқұрт	-10054
▁гвардия	-10055
▁жүлделі	-10056
▁мегават	-10057
▁парақша	-10058
▁сарыбай	-10059
▁ынтымағ	-10060
▁қашанда	-10061
▁үнемдел	-10062
▁жеңілдіг	-10063
▁христиан	-10064
▁қолайсыз	-10065
▁Түркістан	-10066
▁айдарбаев	-10067
▁македония	-10068
▁мүлтіксіз	-10069
▁отырғызыл	-10070
▁сербияның	-10071
▁композиция	-10072
▁концентрат	-10073
▁инфляциялық	-10074
▁абаттандырыл	-10075
▁зейнеткерлік	-10076
▁мүмкіндігінше	-10077
▁робототехника	-10078
▁театрландырыл	-10079
▁мультимедиялық	-10080
og	-10081
зу	-10082
ён	-10083
▁z	-10084
ass	-10085
аку	-10086
асу	-10087
итр	-10088
▁cn	-10089
▁gm	-10090
▁pe	-10091
▁pl	-10092
▁ТК	-10093
▁лу	-10094
▁қб	-10095
ills	-10096
еатр	-10097
итов	-10098
кірт	-10099
олов	-10100
▁163	-10101
▁225	-10102
▁ЕХӘ	-10103
▁Мар	-10104
▁абэ	-10105
▁дзю	-10106
▁лег	-10107
▁сов	-10108
▁тех	-10109
▁эль	-10110
▁әул	-10111
евтің	-10112
йікті	-10113
мұхам	-10114
▁2024	-10115
▁5000	-10116
▁Одақ	-10117
▁баул	-10118
▁госп	-10119
▁дара	-10120
▁тері	-10121
▁флеш	-10122
▁china	-10123
▁бронь	-10124
▁коорд	-10125
▁крист	-10126
▁рыног	-10127
▁сұрау	-10128
▁түркс	-10129
▁шиелі	-10130
▁қайда	-10131
▁үндес	-10132
▁өттік	-10133
егиялық	-10134
▁Канада	-10135
▁айналу	-10136
▁небәрі	-10137
▁нұржан	-10138
▁нөлдік	-10139
▁сырған	-10140
▁темекі	-10141
▁қордай	-10142
▁ұңғыма	-10143
дықтарын	-10144
▁жарылыс	-10145
▁көшбасш	-10146
▁терапия	-10147
▁шипажай	-10148
▁ізгілік	-10149
▁Өңірлік	-10150
▁атсалысу	-10151
▁хирургия	-10152
▁баспаналы	-10153
▁кішкентай	-10154
▁теміржолшы	-10155
▁толықтырыл	-10156
▁спартакиада	-10157
▁транскаспий	-10158
▁бәсекелестіг	-10159
▁этникааралық	-10160
▁өңірлеріндегі	-10161
ai	-10162
иа	-10163
шн	-10164
қб	-10165
▁W	-10166
▁u	-10167
ice	-10168
org	-10169
ung	-10170
ure	-10171
ХҚО	-10172
жер	-10173
жир	-10174
иро	-10175
мес	-10176
нот	-10177
рип	-10178
урт	-10179
чев	-10180
ықұ	-10181
▁Мо	-10182
▁аж	-10183
▁дб	-10184
▁шм	-10185
алья	-10186
едия	-10187
ерле	-10188
пинг	-10189
тант	-10190
ігін	-10191
▁132	-10192
▁159	-10193
▁Бек	-10194
▁ват	-10195
▁жор	-10196
▁лиф	-10197
▁отр	-10198
▁тжд	-10199
белгі	-10200
лігін	-10201
оскоп	-10202
талды	-10203
▁cent	-10204
▁виде	-10205
▁жаға	-10206
▁кесу	-10207
▁сарк	-10208
▁серб	-10209
▁факт	-10210
▁өтел	-10211
арусия	-10212
гендіг	-10213
▁Видео	-10214
▁ЕХӘҚМ	-10215
▁Санкт	-10216
▁бірін	-10217
▁вирус	-10218
▁жазып	-10219
▁ливан	-10220
▁мария	-10221
▁молда	-10222
▁олжас	-10223
▁супер	-10224
▁таңғы	-10225
аторлық	-10226
▁баласы	-10227
▁десант	-10228
▁йоркте	-10229
▁күкірт	-10230
▁көкейк	-10231
▁мансап	-10232
▁оқылым	-10233
▁сілкін	-10234
▁қышқыл	-10235
▁өзгеру	-10236
дігерлік	-10237
▁Депутат	-10238
▁аялдама	-10239
▁батарея	-10240
▁еңбекші	-10241
▁негізді	-10242
▁сүйікті	-10243
▁тбилиси	-10244
▁түсініг	-10245
▁тәмамда	-10246
▁үлестік	-10247
▁electric	-10248
▁брифингі	-10249
▁волонтер	-10250
▁мызғымас	-10251
▁талапкер	-10252
▁ақмолалық	-10253
▁кәсібиліг	-10254
▁көркемдік	-10255
▁сәлемдеме	-10256
▁респондент	-10257
▁өзгеріссіз	-10258
▁аттестаттау	-10259
▁коэффициент	-10260
▁лаборатория	-10261
▁субсидиялан	-10262
▁бүкілхалықтық	-10263
жм	-10264
эл	-10265
эп	-10266
ena	-10267
вар	-10268
ень	-10269
▁08	-10270
▁ge	-10271
▁ir	-10272
▁өш	-10273
ited	-10274
адов	-10275
аков	-10276
акөл	-10277
порт	-10278
▁187	-10279
▁237	-10280
▁340	-10281
▁med	-10282
▁phd	-10283
▁Дін	-10284
▁ККМ	-10285
▁Күн	-10286
▁ЮНЕ	-10287
▁гин	-10288
▁еэо	-10289
▁ләз	-10290
▁сид	-10291
▁шоғ	-10292
еймен	-10293
тығын	-10294
ғожин	-10295
▁otan	-10296
▁АХҚО	-10297
▁Степ	-10298
▁авиа	-10299
▁када	-10300
▁тмык	-10301
▁эвол	-10302
▁ірім	-10303
▁қыст	-10304
▁ұғын	-10305
діктен	-10306
майтын	-10307
нистік	-10308
публик	-10309
ционал	-10310
▁Алекс	-10311
▁Кәрім	-10312
▁абдул	-10313
▁берек	-10314
▁бәйге	-10315
▁дабыл	-10316
▁ендір	-10317
▁жарас	-10318
▁либер	-10319
▁медеу	-10320
▁миним	-10321
▁себеб	-10322
▁табан	-10323
▁тәжин	-10324
▁шабыт	-10325
▁Қазат	-10326
▁қайшы	-10327
▁үштіг	-10328
▁өткір	-10329
жетімді	-10330
оронбай	-10331
ыстылық	-10332
▁ЮНЕСКО	-10333
▁алакөл	-10334
▁аршалы	-10335
▁бапкер	-10336
▁жеттік	-10337
▁метроп	-10338
▁сыбаға	-10339
▁тойлан	-10340
атындығы	-10341
ельсинки	-10342
рахманов	-10343
ылыстану	-10344
▁бөлініс	-10345
▁евгений	-10346
▁турбина	-10347
▁қызанақ	-10348
▁жақыпова	-10349
▁жетерлік	-10350
▁пластмас	-10351
▁пошталық	-10352
▁сценарий	-10353
▁төсбелгі	-10354
▁қарқында	-10355
▁ведомсвто	-10356
▁дистрибью	-10357
▁есептілік	-10358
▁теңсіздік	-10359
▁қолданылу	-10360
▁әзірлеуші	-10361
▁Сүлейменов	-10362
▁ойластырыл	-10363
▁соншалықты	-10364
▁қолданылма	-10365
▁презентация	-10366
▁тағайындалу	-10367
▁жақындастыру	-10368
▁негіздемелік	-10369
▁жаратылыстану	-10370
▁Конституциялық	-10371
▁президенттігіне	-10372
гс	-10373
air	-10374
аян	-10375
кіт	-10376
ная	-10377
сет	-10378
▁06	-10379
▁эв	-10380
емес	-10381
имат	-10382
йсоқ	-10383
офиз	-10384
▁174	-10385
▁255	-10386
▁fis	-10387
▁Кар	-10388
▁бон	-10389
▁бюл	-10390
▁қоб	-10391
аният	-10392
ансер	-10393
денов	-10394
жайып	-10395
ктегі	-10396
оника	-10397
шанов	-10398
ымдар	-10399
ыруар	-10400
қақты	-10401
▁Бала	-10402
▁займ	-10403
▁корт	-10404
▁соны	-10405
▁сұлу	-10406
▁шерт	-10407
▁ұшын	-10408
абарти	-10409
асының	-10410
дестір	-10411
есуэла	-10412
фуллин	-10413
▁Румын	-10414
▁Сирия	-10415
▁елжан	-10416
▁жасағ	-10417
▁кенже	-10418
▁класт	-10419
▁мәнмә	-10420
▁ойлан	-10421
▁түйіс	-10422
▁эволю	-10423
▁юнидо	-10424
▁қымыз	-10425
▁айналы	-10426
▁айыпта	-10427
▁жуықта	-10428
▁кешегі	-10429
▁сөздік	-10430
▁шеврон	-10431
▁қыруар	-10432
▁үлгілі	-10433
геология	-10434
лодарлық	-10435
ғанындай	-10436
▁банкнот	-10437
▁констан	-10438
▁шынымен	-10439
▁ірімшік	-10440
▁үйлесім	-10441
▁өнерпаз	-10442
акрабарти	-10443
▁мәлімдеу	-10444
▁патриарх	-10445
▁пәрменді	-10446
▁саркисян	-10447
▁Александр	-10448
▁Мажарстан	-10449
▁кездейсоқ	-10450
▁кластерлік	-10451
▁португалия	-10452
▁қанатқақты	-10453
▁Мырзахметов	-10454
▁ететіндігін	-10455
▁зертханалық	-10456
▁конструкция	-10457
▁несиелендір	-10458
▁түсінушілік	-10459
▁тұрғанқұлов	-10460
▁мұхамеджанов	-10461
▁фитосанитарлық	-10462
му	-10463
ще	-10464
эа	-10465
ҰУ	-10466
act	-10467
ark	-10468
гар	-10469
еун	-10470
жүр	-10471
риг	-10472
шең	-10473
ілу	-10474
арак	-10475
ебер	-10476
елес	-10477
нның	-10478
қазы	-10479
▁161	-10480
▁167	-10481
▁ТКШ	-10482
▁аңғ	-10483
▁жұп	-10484
▁инс	-10485
▁кад	-10486
▁хау	-10487
малау	-10488
строй	-10489
филов	-10490
▁депу	-10491
▁еықұ	-10492
▁кере	-10493
▁март	-10494
▁тиеу	-10495
▁төре	-10496
▁ғани	-10497
▁үрді	-10498
▁ұйыт	-10499
▁green	-10500
▁дереу	-10501
▁күнгі	-10502
▁милан	-10503
▁райым	-10504
▁рогов	-10505
▁тілег	-10506
▁шарық	-10507
▁ізден	-10508
▁құлық	-10509
▁ұшыру	-10510
ациялау	-10511
▁артыру	-10512
▁баррел	-10513
▁бектұр	-10514
▁бюллет	-10515
▁демалу	-10516
▁жүгері	-10517
▁прокат	-10518
▁сарала	-10519
▁шенеун	-10520
дырбеков	-10521
еріндегі	-10522
химиялық	-10523
▁Мерейлі	-10524
▁Тұрақты	-10525
▁бақауов	-10526
▁галерея	-10527
▁кинемат	-10528
▁репроду	-10529
▁топырақ	-10530
▁ішінара	-10531
▁Бразилия	-10532
▁Иордания	-10533
▁руханият	-10534
▁тәжірбие	-10535
▁этикалық	-10536
▁қатыстыр	-10537
▁өтінішті	-10538
бағдарлама	-10539
▁белсенділ	-10540
▁виртуалды	-10541
▁креативті	-10542
▁онкология	-10543
▁қиыншылық	-10544
▁құрметтеу	-10545
▁өздігінен	-10546
▁өскенбаев	-10547
▁innovation	-10548
▁investment	-10549
▁банкроттық	-10550
▁мемлекттік	-10551
▁мұхамбетов	-10552
▁ниеттестік	-10553
▁социалистік	-10554
▁қазатомпром	-10555
▁қолбасшылық	-10556
▁профилактика	-10557
▁аймақтарындағы	-10558
ЕҰ	-10559
дв	-10560
ху	-10561
ққ	-10562
лат	-10563
нат	-10564
орк	-10565
отт	-10566
шкі	-10567
ьга	-10568
этн	-10569
іге	-10570
▁In	-10571
▁VI	-10572
▁ru	-10573
▁МӘ	-10574
▁аа	-10575
▁зә	-10576
едиа	-10577
иков	-10578
ицей	-10579
лова	-10580
лығы	-10581
ттеу	-10582
ысыз	-10583
үсті	-10584
▁166	-10585
▁177	-10586
▁236	-10587
▁Мұх	-10588
▁бог	-10589
▁ием	-10590
▁руд	-10591
▁рға	-10592
▁Қап	-10593
банов	-10594
бәкір	-10595
гінов	-10596
гісіз	-10597
ердің	-10598
▁баяу	-10599
▁литв	-10600
▁тұқы	-10601
▁қону	-10602
▁құқы	-10603
▁әуес	-10604
венция	-10605
ентген	-10606
▁айтыс	-10607
▁ахмад	-10608
▁гаага	-10609
▁гуман	-10610
▁дыбыс	-10611
▁орнау	-10612
▁сабыр	-10613
▁қалың	-10614
▁үздіг	-10615
рополит	-10616
▁airbus	-10617
▁болмыс	-10618
▁етілме	-10619
▁кірісу	-10620
▁арселор	-10621
▁баяндал	-10622
▁валерий	-10623
▁дивизия	-10624
▁несиеле	-10625
▁перзент	-10626
▁рәсімде	-10627
▁тегеран	-10628
▁хандығы	-10629
▁қасірет	-10630
▁үрдісті	-10631
▁өміршең	-10632
леуметтік	-10633
▁бейнелеу	-10634
▁бітіруші	-10635
▁дұрыстығ	-10636
▁ойымызша	-10637
▁табыстал	-10638
▁тәртіпте	-10639
▁шенеунік	-10640
▁өмірбаян	-10641
▁өркендет	-10642
▁айтжанова	-10643
▁бәсекелес	-10644
▁жүздесуші	-10645
▁навигация	-10646
▁шығарынды	-10647
▁Қолжетімді	-10648
▁ағартушылық	-10649
▁мырзағалиев	-10650
▁хореография	-10651
▁диагностикала	-10652
▁мониторингілеу	-10653
▁ратификациялан	-10654
ib	-10655
лю	-10656
▁R	-10657
end	-10658
ипр	-10659
ияд	-10660
мал	-10661
мут	-10662
одж	-10663
тад	-10664
хов	-10665
▁ПА	-10666
▁ху	-10667
▁чж	-10668
▁ұж	-10669
etro	-10670
алақ	-10671
бике	-10672
ельд	-10673
риат	-10674
сула	-10675
▁152	-10676
▁216	-10677
▁290	-10678
▁Жал	-10679
▁Рах	-10680
▁асс	-10681
▁дис	-10682
▁дүй	-10683
▁шой	-10684
ондық	-10685
тілік	-10686
▁1990	-10687
▁call	-10688
▁ener	-10689
▁Ішкі	-10690
▁бұны	-10691
▁енші	-10692
▁касс	-10693
▁роза	-10694
▁сити	-10695
▁чжан	-10696
▁Ұжым	-10697
dustri	-10698
діктер	-10699
кендір	-10700
ылығын	-10701
▁аудио	-10702
▁душар	-10703
▁жаңақ	-10704
▁жұбай	-10705
▁зерде	-10706
▁мажар	-10707
▁ольга	-10708
▁орнығ	-10709
▁сфера	-10710
▁хасан	-10711
▁ілгер	-10712
▁құйма	-10713
▁құлақ	-10714
индустр	-10715
ғандығы	-10716
ұлыбаев	-10717
▁анкара	-10718
▁дүркін	-10719
▁жабдығ	-10720
▁жиынды	-10721
▁ноғаев	-10722
▁қыстау	-10723
▁құрушы	-10724
мұханбет	-10725
▁Румыния	-10726
▁кадастр	-10727
▁наталья	-10728
▁сенегал	-10729
▁тестіле	-10730
▁ханзада	-10731
▁іспетті	-10732
▁Ұжымдық	-10733
▁әубәкір	-10734
▁өмірзақ	-10735
еттерінше	-10736
сүйгіштік	-10737
форматика	-10738
▁арматура	-10739
▁ойластыр	-10740
▁ортақтас	-10741
▁талпыныс	-10742
▁қаржыгер	-10743
▁алпысбаев	-10744
▁кардиолог	-10745
▁майдангер	-10746
▁украиндық	-10747
▁Инвестиция	-10748
▁Сәрінжіпов	-10749
▁көкейкесті	-10750
▁мемориалды	-10751
▁коммунистік	-10752
▁мультимодаль	-10753
▁тамақтандыру	-10754
▁қызылордалық	-10755
▁Тасмағамбетов	-10756
▁конструкторлық	-10757
▁табылатындығын	-10758
хл	-10759
ail	-10760
ata	-10761
вод	-10762
коп	-10763
маш	-10764
моб	-10765
очи	-10766
рав	-10767
умп	-10768
▁вз	-10769
арев	-10770
атас	-10771
омон	-10772
оған	-10773
сауи	-10774
тниг	-10775
ыров	-10776
ығын	-10777
ығып	-10778
▁162	-10779
▁184	-10780
▁191	-10781
▁VII	-10782
▁Боз	-10783
▁Дем	-10784
▁афф	-10785
▁пау	-10786
▁хас	-10787
серік	-10788
▁open	-10789
▁Атам	-10790
▁бида	-10791
▁ейін	-10792
▁субъ	-10793
▁уәде	-10794
▁челя	-10795
▁Қазп	-10796
▁қожа	-10797
олдинг	-10798
▁алмақ	-10799
▁бекем	-10800
▁бұрыш	-10801
▁вокал	-10802
▁групп	-10803
▁дзюдо	-10804
▁еселе	-10805
▁зәкір	-10806
▁кейіп	-10807
▁келін	-10808
▁көкен	-10809
▁мерит	-10810
▁михай	-10811
▁ойлап	-10812
▁серпі	-10813
▁шықпа	-10814
▁элита	-10815
▁ұтқыр	-10816
ативтік	-10817
намалық	-10818
▁болгар	-10819
▁бразил	-10820
▁бөлшег	-10821
▁жолдас	-10822
▁түпнұс	-10823
▁шайқас	-10824
▁шыңғыс	-10825
▁эскато	-10826
▁қорқыт	-10827
етіндігі	-10828
▁адамдық	-10829
▁арманда	-10830
▁дирижер	-10831
▁көкжиег	-10832
▁ниеттен	-10833
▁патруль	-10834
▁спутниг	-10835
▁тайланд	-10836
▁шардара	-10837
▁қалдыру	-10838
▁қысымды	-10839
ехникалық	-10840
імділігін	-10841
▁Бақытжан	-10842
▁башмаков	-10843
▁дәріхана	-10844
▁жарғылық	-10845
▁кедейлік	-10846
▁мойындау	-10847
▁субьекті	-10848
▁төмендіг	-10849
энергетика	-10850
▁беларусия	-10851
▁хельсинки	-10852
▁Индустриал	-10853
▁германиялық	-10854
▁консультант	-10855
▁радиациялық	-10856
▁перинаталдық	-10857
▁үйлесімділіг	-10858
▁магистральдық	-10859
▁мембағдарлама	-10860
▁кардиохирургия	-10861
▁қамқорлығынсыз	-10862
ky	-10863
oy	-10864
МС	-10865
бк	-10866
тұ	-10867
юм	-10868
ews	-10869
urk	-10870
бах	-10871
гіс	-10872
еді	-10873
ели	-10874
жоу	-10875
чар	-10876
ыра	-10877
▁04	-10878
▁bi	-10879
▁Пә	-10880
▁бж	-10881
▁кх	-10882
амай	-10883
амер	-10884
даев	-10885
елоп	-10886
ешов	-10887
конф	-10888
ксік	-10889
огаз	-10890
олиз	-10891
ольф	-10892
стен	-10893
іген	-10894
іров	-10895
▁208	-10896
▁217	-10897
▁Хат	-10898
▁акк	-10899
▁бок	-10900
▁жиг	-10901
▁пей	-10902
▁рав	-10903
▁фел	-10904
ement	-10905
альді	-10906
асова	-10907
даушы	-10908
сіпов	-10909
▁Сары	-10910
▁Сочи	-10911
▁ағай	-10912
▁басу	-10913
▁дума	-10914
▁каль	-10915
▁микр	-10916
▁ырыс	-10917
▁ювен	-10918
гендеу	-10919
еберіс	-10920
елекет	-10921
мерлік	-10922
никова	-10923
үнісов	-10924
▁Абаев	-10925
▁Венгр	-10926
▁алжир	-10927
▁байып	-10928
▁бейіл	-10929
▁гинек	-10930
▁жалақ	-10931
▁жүніс	-10932
▁исаев	-10933
▁камаз	-10934
▁келең	-10935
▁полим	-10936
▁старт	-10937
▁тойын	-10938
▁Ғылым	-10939
▁қадыр	-10940
▁қашан	-10941
армония	-10942
▁ауысым	-10943
▁баянды	-10944
▁боксшы	-10945
▁жарату	-10946
▁жасама	-10947
▁жерлес	-10948
▁көптен	-10949
▁мұнара	-10950
▁салдық	-10951
▁секіру	-10952
▁солист	-10953
▁таңдан	-10954
▁таңерт	-10955
▁ұлытау	-10956
▁өзінше	-10957
▁балалық	-10958
▁басқаша	-10959
▁зайырлы	-10960
▁замануи	-10961
▁каримов	-10962
▁пайдала	-10963
▁портфел	-10964
▁хромтау	-10965
▁эфиопия	-10966
▁қазақша	-10967
▁Елбасына	-10968
▁Медведев	-10969
▁бәсекелі	-10970
▁сілкініс	-10971
▁тоқтатыл	-10972
▁түгендеу	-10973
▁амангелді	-10974
▁ауыстырыл	-10975
▁камералық	-10976
▁микронеси	-10977
▁резолюция	-10978
▁түркиялық	-10979
▁өтілгенде	-10980
▁автовокзал	-10981
▁келетіндіг	-10982
▁метрополит	-10983
▁рақымшылық	-10984
▁табыстылығ	-10985
▁түсіндірме	-10986
▁филармония	-10987
▁аккредиттел	-10988
▁біртектілік	-10989
▁ырықтандыру	-10990
▁аймағамбетов	-10991
▁теңізшевройл	-10992
▁электростанция	-10993
pe	-10994
асс	-10995
гей	-10996
зар	-10997
▁Әу	-10998
онов	-10999
оров	-11000
ронт	-11001
уппа	-11002
ырян	-11003
ячес	-11004
▁149	-11005
▁181	-11006
▁186	-11007
▁226	-11008
▁330	-11009
▁480	-11010
▁qaz	-11011
▁Жәм	-11012
▁Кен	-11013
▁Нью	-11014
▁акв	-11015
▁аэс	-11016
▁гиг	-11017
▁мог	-11018
▁мух	-11019
▁рак	-11020
▁сил	-11021
▁фаш	-11022
▁чан	-11023
▁ына	-11024
анушы	-11025
надий	-11026
опром	-11027
фильм	-11028
ындық	-11029
▁fisu	-11030
▁Мәми	-11031
▁алик	-11032
▁венч	-11033
▁депо	-11034
▁линг	-11035
▁оман	-11036
▁таңб	-11037
▁Әзір	-11038
▁әуен	-11039
етаным	-11040
▁techn	-11041
▁trans	-11042
▁Көлік	-11043
▁арбит	-11044
▁ақкөл	-11045
▁борис	-11046
▁жүгір	-11047
▁мирас	-11048
▁пилот	-11049
▁пирам	-11050
▁түрме	-11051
▁фронт	-11052
▁ілияс	-11053
▁қазұу	-11054
алиялық	-11055
ылмаған	-11056
ячеслав	-11057
▁аянбай	-11058
▁карант	-11059
▁көптіг	-11060
▁мінсіз	-11061
▁наград	-11062
▁раушан	-11063
▁рейтін	-11064
▁төрелі	-11065
▁үйірме	-11066
▁Австрия	-11067
▁Венгрия	-11068
▁Жәмішев	-11069
▁Келісім	-11070
▁ақсақал	-11071
▁жазалау	-11072
▁жәнібек	-11073
▁капсула	-11074
▁полицей	-11075
▁рентген	-11076
▁салидат	-11077
▁Атамекен	-11078
▁Пәкістан	-11079
▁біржолғы	-11080
▁гастроль	-11081
▁киберқау	-11082
▁мемхатшы	-11083
▁миграция	-11084
▁перуашев	-11085
▁шортанды	-11086
▁этноауыл	-11087
▁ғасырлық	-11088
ократиялық	-11089
▁айтуғанов	-11090
▁германдық	-11091
▁кіреберіс	-11092
▁көрсетуші	-11093
▁порошенко	-11094
▁теңдестір	-11095
▁түсірілім	-11096
▁фермерлік	-11097
▁әбдібеков	-11098
▁әрекеттес	-11099
▁Мамытбеков	-11100
▁бірегейлік	-11101
▁дүниетаным	-11102
▁кедейшілік	-11103
▁кинофестив	-11104
▁материалды	-11105
▁мүгедектіг	-11106
▁Әзербайжан	-11107
▁бакалавриат	-11108
▁дағдарыстық	-11109
▁бердімұхамедов	-11110
aq	-11111
ci	-11112
АТ	-11113
СМ	-11114
фи	-11115
дыс	-11116
жоб	-11117
ица	-11118
нев	-11119
фун	-11120
▁Бю	-11121
▁Ка	-11122
▁Ме	-11123
▁Та	-11124
▁бк	-11125
▁дұ	-11126
▁еп	-11127
▁Өз	-11128
uras	-11129
алаш	-11130
арды	-11131
ашев	-11132
емия	-11133
ерді	-11134
окол	-11135
троп	-11136
уляр	-11137
ібір	-11138
іңіз	-11139
өнім	-11140
▁212	-11141
▁car	-11142
▁Жар	-11143
▁ИЫҰ	-11144
▁аяз	-11145
▁гид	-11146
▁едб	-11147
▁кав	-11148
▁маж	-11149
ction	-11150
барыс	-11151
еттен	-11152
еттес	-11153
күйер	-11154
митаж	-11155
овпен	-11156
уризм	-11157
үндік	-11158
▁1600	-11159
▁МӘМС	-11160
▁бұйы	-11161
▁гипс	-11162
▁орам	-11163
▁сара	-11164
▁тиян	-11165
дарбек	-11166
ғандық	-11167
әрімов	-11168
▁георг	-11169
▁плаза	-11170
▁таман	-11171
▁қанды	-11172
алдинов	-11173
▁вакцин	-11174
▁екатер	-11175
▁кирилл	-11176
▁көбісі	-11177
▁мөлтек	-11178
▁словак	-11179
▁труппа	-11180
▁шақырт	-11181
▁әлтаев	-11182
амыздағы	-11183
ірекбаев	-11184
▁Дмитрий	-11185
▁бәсеңде	-11186
▁дәлірек	-11187
▁ежелден	-11188
▁мәнерле	-11189
▁тиістіг	-11190
▁формула	-11191
▁Тәуелсіз	-11192
▁авторлық	-11193
▁ансамбль	-11194
▁біркелкі	-11195
▁бітімгер	-11196
▁ескертпе	-11197
▁жанкүйер	-11198
▁карантин	-11199
▁кейіпкер	-11200
▁литвалық	-11201
▁панельді	-11202
▁панфилов	-11203
▁іспеттес	-11204
атындығына	-11205
▁бабындағы	-11206
▁бундестаг	-11207
▁венесуэла	-11208
▁дербестіг	-11209
▁палестина	-11210
▁сейфуллин	-11211
▁дәнекерлеу	-11212
▁санкциялық	-11213
▁чакрабарти	-11214
▁мердігерлік	-11215
▁преференция	-11216
▁байланыстыру	-11217
▁жаңартылмалы	-11218
▁метрополитен	-11219
▁Әбдіхалықова	-11220
▁рейтингісінде	-11221
▁аудандарындағы	-11222
ЖМ	-11223
ух	-11224
хо	-11225
▁#	-11226
▁*	-11227
▁•	-11228
ore	-11229
▁05	-11230
▁09	-11231
▁le	-11232
▁Іс	-11233
▁Су	-11234
▁ви	-11235
▁хв	-11236
stru	-11237
гела	-11238
ицип	-11239
окон	-11240
окоп	-11241
очка	-11242
стың	-11243
ұлан	-11244
▁176	-11245
▁179	-11246
▁207	-11247
▁218	-11248
▁229	-11249
▁245	-11250
▁xvi	-11251
▁АДБ	-11252
▁Мыс	-11253
▁Рау	-11254
▁Сағ	-11255
▁зақ	-11256
▁зтб	-11257
▁зәр	-11258
▁нел	-11259
▁ура	-11260
▁үде	-11261
artup	-11262
екеев	-11263
иддер	-11264
тарды	-11265
ұсова	-11266
▁арба	-11267
▁байт	-11268
▁жанд	-11269
▁жікт	-11270
▁кемі	-11271
▁мега	-11272
▁отар	-11273
▁саид	-11274
▁ірге	-11275
▁әуел	-11276
▁Өмір	-11277
кетбол	-11278
ожаева	-11279
рдоған	-11280
шілігі	-11281
ылмалы	-11282
▁gener	-11283
▁артыл	-11284
▁бөлен	-11285
▁взвод	-11286
▁дебат	-11287
▁дэвид	-11288
▁елтаң	-11289
▁жетік	-11290
▁майкл	-11291
▁мырыш	-11292
▁сайра	-11293
▁ғұрып	-11294
▁energy	-11295
▁көпфун	-11296
▁синерг	-11297
▁сөйлес	-11298
▁шақтал	-11299
ициналық	-11300
шылардың	-11301
▁гүлмира	-11302
▁кемсіту	-11303
▁кәрімов	-11304
▁көкеніс	-11305
▁көпконф	-11306
▁саралан	-11307
▁қаптама	-11308
▁қарайғы	-11309
▁үлестір	-11310
▁Теміртау	-11311
▁алмазбек	-11312
▁ансамблі	-11313
▁дизайнер	-11314
▁жұлдызды	-11315
▁күнтізбе	-11316
▁күшейтіл	-11317
▁көлгінов	-11318
▁табыстау	-11319
▁танымдық	-11320
▁таңертең	-11321
▁тереңдіг	-11322
▁фармация	-11323
сыздандыру	-11324
▁Экономика	-11325
▁баскетбол	-11326
▁казақстан	-11327
▁наурызбай	-11328
▁рождество	-11329
▁қатыстыру	-11330
▁белсендіру	-11331
▁жаңақорған	-11332
▁митрополит	-11333
▁пластмасса	-11334
▁Әзірбайжан	-11335
▁өркениетті	-11336
▁шоғырландыр	-11337
▁меритократия	-11338
▁навигациялық	-11339
▁ізмұхамбетов	-11340
▁консалтингтік	-11341
▁агротехникалық	-11342
36	-11343
СЕ	-11344
уж	-11345
ies	-11346
ish	-11347
гия	-11348
иат	-11349
көз	-11350
ола	-11351
тең	-11352
тым	-11353
▁ЭБ	-11354
▁сю	-11355
▁юр	-11356
азия	-11357
отан	-11358
сион	-11359
шева	-11360
ырыш	-11361
▁244	-11362
▁256	-11363
▁283	-11364
▁440	-11365
▁XXI	-11366
▁sam	-11367
▁Біш	-11368
▁али	-11369
▁бюр	-11370
▁хар	-11371
▁ҮЕҰ	-11372
▁ұна	-11373
ентті	-11374
жарыс	-11375
ипроп	-11376
истер	-11377
ичард	-11378
омура	-11379
ібаев	-11380
қырлы	-11381
▁asia	-11382
▁serv	-11383
▁елеу	-11384
▁жанұ	-11385
▁зере	-11386
▁соңы	-11387
▁сілт	-11388
▁элев	-11389
денсат	-11390
естіру	-11391
▁айман	-11392
▁бойғы	-11393
▁масса	-11394
▁мұсақ	-11395
▁олимп	-11396
▁саргс	-11397
▁сұрағ	-11398
▁қатал	-11399
▁қақпа	-11400
▁almaty	-11401
▁аманат	-11402
▁венчур	-11403
▁григор	-11404
▁икемді	-11405
▁кентау	-11406
▁куәгер	-11407
▁ластан	-11408
▁мәулен	-11409
▁протез	-11410
▁соқтыр	-11411
▁талғар	-11412
▁таңдай	-11413
▁тездет	-11414
▁темпер	-11415
▁қойнау	-11416
▁ұстану	-11417
▁әзірше	-11418
дегендей	-11419
▁ауызбір	-11420
▁берешек	-11421
▁ватикан	-11422
▁еместіг	-11423
▁жерасты	-11424
▁кремний	-11425
▁көрнекі	-11426
▁түйінді	-11427
▁түрксой	-11428
▁Әмірлік	-11429
▁өтуінше	-11430
ипропилен	-11431
сификация	-11432
▁national	-11433
▁Сыбайлас	-11434
▁ахуалдық	-11435
▁емделуші	-11436
▁ордабасы	-11437
▁тайқазан	-11438
▁тілектес	-11439
▁элеватор	-11440
▁Қасымбек	-11441
▁қылмысты	-11442
▁Бишімбаев	-11443
▁Бозымбаев	-11444
▁қалдықтар	-11445
▁әскерилер	-11446
▁ауыртпалық	-11447
▁жүйелендір	-11448
▁коммуналды	-11449
▁монография	-11450
▁прокурорлық	-11451
▁хирургиялық	-11452
▁басқарушылық	-11453
▁бухгалтерлік	-11454
▁мәлімдеуінше	-11455
▁полипропилен	-11456
▁мәліметтерінше	-11457
af	-11458
pc	-11459
зқ	-11460
лк	-11461
яв	-11462
age	-11463
ala	-11464
ook	-11465
бин	-11466
вин	-11467
иен	-11468
ьен	-11469
▁Си	-11470
▁хі	-11471
айды	-11472
анка	-11473
дары	-11474
епов	-11475
инаж	-11476
метр	-11477
ондо	-11478
ордю	-11479
уров	-11480
ырағ	-11481
юник	-11482
яков	-11483
▁205	-11484
▁310	-11485
▁430	-11486
▁lim	-11487
▁man	-11488
▁Лук	-11489
▁Мак	-11490
▁Мир	-11491
▁диф	-11492
▁еңб	-11493
▁жак	-11494
▁жөө	-11495
▁ккм	-11496
▁лаз	-11497
▁мүй	-11498
▁оар	-11499
▁хос	-11500
▁хус	-11501
ivers	-11502
датыл	-11503
залин	-11504
илище	-11505
италь	-11506
іктен	-11507
әлиев	-11508
▁kaze	-11509
▁ЭБЖМ	-11510
▁борт	-11511
▁ехро	-11512
▁зәру	-11513
▁кара	-11514
▁кипр	-11515
▁леон	-11516
▁наха	-11517
▁роуд	-11518
▁сөре	-11519
▁тұғы	-11520
▁үшеу	-11521
apital	-11522
skills	-11523
анбаев	-11524
ланған	-11525
талман	-11526
уллаев	-11527
ханова	-11528
қорғау	-11529
құлова	-11530
▁Доста	-11531
▁айшық	-11532
▁аспаз	-11533
▁атқыш	-11534
▁бақты	-11535
▁жәбір	-11536
▁зырян	-11537
▁карло	-11538
▁кешір	-11539
▁кинот	-11540
▁сағын	-11541
▁созақ	-11542
▁сыныб	-11543
▁құтыл	-11544
еттіліг	-11545
холдинг	-11546
үнемдеу	-11547
▁Достық	-11548
▁Саммит	-11549
▁алқалы	-11550
▁ләззат	-11551
▁фосфор	-11552
▁шаттық	-11553
ксікбаев	-11554
▁диаметр	-11555
▁жазбаша	-11556
▁жанейро	-11557
▁мұқанов	-11558
▁полимет	-11559
▁сыдықов	-11560
▁ысқақов	-11561
▁қаратау	-11562
▁құралды	-11563
▁industri	-11564
▁абыройлы	-11565
▁активтер	-11566
▁арбитраж	-11567
▁басқарыл	-11568
▁кейбіреу	-11569
▁келіскен	-11570
▁кеңейтіл	-11571
▁пирамида	-11572
▁смағұлов	-11573
▁құлшыныс	-11574
▁Петербург	-11575
▁геосаясат	-11576
▁диспансер	-11577
▁майталман	-11578
▁облигация	-11579
▁қарабалин	-11580
▁қорғалжын	-11581
▁қылмыскер	-11582
▁аудиторлық	-11583
▁константин	-11584
▁консулдығы	-11585
▁көркемөнер	-11586
▁максималды	-11587
▁оқытушылық	-11588
▁рұқсаттама	-11589
▁талдамалық	-11590
▁құрманғазы	-11591
▁анықтамалық	-11592
▁жарақтандыр	-11593
▁көкірекбаев	-11594
▁супермаркет	-11595
▁температура	-11596
▁қайтарымсыз	-11597
▁қолдайтындығ	-11598
▁мәлімдегендей	-11599
▁процессуалдық	-11600
шу	-11601
үк	-11602
▁L	-11603
дзо	-11604
зер	-11605
кез	-11606
ыны	-11607
▁ak	-11608
▁hy	-11609
▁pm	-11610
▁Ли	-11611
еско	-11612
учич	-11613
қары	-11614
ұқық	-11615
▁274	-11616
▁285	-11617
▁540	-11618
▁720	-11619
▁770	-11620
▁min	-11621
▁бая	-11622
▁пит	-11623
▁рап	-11624
▁тшо	-11625
▁цин	-11626
▁ғаб	-11627
дение	-11628
діріс	-11629
ектес	-11630
ларды	-11631
рипка	-11632
хабад	-11633
ылдыр	-11634
юнике	-11635
қашев	-11636
қышев	-11637
▁1700	-11638
▁4000	-11639
▁алау	-11640
▁ағза	-11641
▁влад	-11642
▁груз	-11643
▁есті	-11644
▁имам	-11645
▁кост	-11646
▁мсак	-11647
▁перу	-11648
▁полк	-11649
▁тель	-11650
▁флот	-11651
▁үсті	-11652
инская	-11653
истика	-11654
тайұлы	-11655
▁Мысыр	-11656
▁Цзинь	-11657
▁айбын	-11658
▁ақтық	-11659
▁дивер	-11660
▁иеліг	-11661
▁кешкі	-11662
▁самат	-11663
▁тауық	-11664
▁торап	-11665
▁төсек	-11666
▁халал	-11667
▁шариф	-11668
▁шыдам	-11669
▁экскл	-11670
▁этник	-11671
▁Қызыл	-11672
▁құлан	-11673
▁ұстал	-11674
▁әбдік	-11675
▁өнеге	-11676
▁Прокур	-11677
▁василь	-11678
▁диабет	-11679
▁ильхам	-11680
▁растал	-11681
▁салдар	-11682
▁Қорғас	-11683
▁үмітті	-11684
▁әсерлі	-11685
өндіруші	-11686
▁general	-11687
▁univers	-11688
▁мыңбаев	-11689
▁нүсіпов	-11690
▁пайымда	-11691
▁сауығып	-11692
▁теңізші	-11693
▁тұрғызу	-11694
▁төзімді	-11695
▁училище	-11696
▁Сағадиев	-11697
▁арттырыл	-11698
▁вячеслав	-11699
▁корейлік	-11700
▁мәжбүрле	-11701
▁пленарлы	-11702
▁тұрақтан	-11703
▁Қазғарыш	-11704
оскопиялық	-11705
▁аграрилер	-11706
▁емханалық	-11707
▁есептіліг	-11708
▁инноватор	-11709
▁конденсат	-11710
▁сооронбай	-11711
▁уәлиханов	-11712
ыстарындағы	-11713
▁айырбастау	-11714
▁бастапқыда	-11715
▁бекназаров	-11716
▁жарияланым	-11717
▁тәуелділіг	-11718
▁шиеленісті	-11719
▁қазконтент	-11720
екешелендіру	-11721
▁басымдылығы	-11722
▁генетикалық	-11723
▁информатика	-11724
▁тұтынушылық	-11725
▁индикаторлар	-11726
▁маркетингтік	-11727
▁шоғырландырыл	-11728
▁трансплантация	-11729
VE	-11730
di	-11731
ЭС	-11732
▁O	-11733
DEX	-11734
dai	-11735
ern	-11736
ind	-11737
lin	-11738
man	-11739
Газ	-11740
баб	-11741
дын	-11742
обл	-11743
тур	-11744
▁IN	-11745
▁pr	-11746
адор	-11747
арын	-11748
асай	-11749
едит	-11750
илья	-11751
омыш	-11752
орес	-11753
отұр	-11754
хлоп	-11755
хром	-11756
▁209	-11757
▁219	-11758
▁228	-11759
▁257	-11760
▁258	-11761
▁318	-11762
▁420	-11763
▁460	-11764
▁ЕҰУ	-11765
▁МСМ	-11766
▁ТЖМ	-11767
▁Тал	-11768
▁бис	-11769
▁дсм	-11770
▁жби	-11771
▁кот	-11772
▁оба	-11773
▁рам	-11774
▁шым	-11775
▁ҚДБ	-11776
▁әбі	-11777
айұлы	-11778
атқыш	-11779
інсіз	-11780
ғыста	-11781
▁food	-11782
▁Аман	-11783
▁Мерк	-11784
▁анар	-11785
▁арай	-11786
▁бақу	-11787
▁дерт	-11788
▁илья	-11789
▁масс	-11790
▁мина	-11791
▁сода	-11792
▁фиск	-11793
▁ҚазМ	-11794
еттегі	-11795
улятор	-11796
▁KADEX	-11797
▁Жалпы	-11798
▁Салық	-11799
▁браун	-11800
▁жауаб	-11801
▁кейде	-11802
▁мүйіз	-11803
▁номен	-11804
▁павел	-11805
▁терге	-11806
▁томас	-11807
▁тұрма	-11808
▁төсел	-11809
▁франк	-11810
▁центр	-11811
▁эваку	-11812
▁экран	-11813
▁эскиз	-11814
▁қоюшы	-11815
▁әулие	-11816
▁өндеу	-11817
ахметов	-11818
ловакия	-11819
▁биогаз	-11820
▁бүркіт	-11821
▁даңқты	-11822
▁делдал	-11823
▁патент	-11824
▁риддер	-11825
▁саналы	-11826
▁құрдас	-11827
▁атбасар	-11828
▁аффинаж	-11829
▁бақтияр	-11830
▁жеңілде	-11831
▁зондтау	-11832
▁саргсян	-11833
▁скрипка	-11834
▁стамбул	-11835
▁топтағы	-11836
▁флешмоб	-11837
▁іргелес	-11838
▁қарғалы	-11839
▁өзгерме	-11840
▁өрістет	-11841
▁Перуашев	-11842
▁баршылық	-11843
▁бастаушы	-11844
▁белгісіз	-11845
▁беріктіг	-11846
▁йорктегі	-11847
▁манифест	-11848
▁мохаммад	-11849
▁премьера	-11850
▁ювеналды	-11851
▁ғалымжан	-11852
▁авариялық	-11853
▁диалогтық	-11854
▁ермегияев	-11855
▁иммунитет	-11856
▁тасымалды	-11857
▁турасында	-11858
▁Нидерланды	-11859
▁пікірсайыс	-11860
▁этносаясат	-11861
▁православие	-11862
▁тартымдылық	-11863
▁этникаралық	-11864
▁голландиялық	-11865
▁кәсіпорнында	-11866
▁Жекешелендіру	-11867
▁консультативті	-11868
12	-11869
tt	-11870
АҚ	-11871
КБ	-11872
ЛУ	-11873
аа	-11874
ох	-11875
ча	-11876
igh	-11877
san	-11878
исс	-11879
итв	-11880
сис	-11881
экв	-11882
▁or	-11883
▁Ат	-11884
▁ЮН	-11885
▁сн	-11886
▁эб	-11887
VEST	-11888
ical	-11889
osat	-11890
азба	-11891
екст	-11892
имин	-11893
ұрат	-11894
өңір	-11895
▁222	-11896
▁224	-11897
▁233	-11898
▁278	-11899
▁375	-11900
▁nas	-11901
▁Бур	-11902
▁Мың	-11903
▁Ник	-11904
▁ард	-11905
▁баг	-11906
▁габ	-11907
▁кау	-11908
▁ков	-11909
▁көн	-11910
▁мех	-11911
▁мсм	-11912
▁шри	-11913
ashak	-11914
Транс	-11915
ақтау	-11916
естер	-11917
комен	-11918
осфат	-11919
ығына	-11920
ығұрт	-11921
қабат	-11922
▁Болг	-11923
▁Стат	-11924
▁акуш	-11925
▁маль	-11926
▁сүйе	-11927
▁Қылм	-11928
бетова	-11929
себаев	-11930
тапқыш	-11931
▁Иннов	-11932
▁айрыл	-11933
▁барма	-11934
▁бекер	-11935
▁биікт	-11936
▁етене	-11937
▁зақым	-11938
▁ильин	-11939
▁катал	-11940
▁кетпе	-11941
▁күтпе	-11942
▁мазут	-11943
▁мобил	-11944
▁отряд	-11945
▁тарау	-11946
▁телер	-11947
▁түбег	-11948
▁тұран	-11949
▁ясжтш	-11950
▁қарат	-11951
▁қарин	-11952
▁қыдыр	-11953
olashak	-11954
екторлы	-11955
клатура	-11956
лендіру	-11957
өндіріс	-11958
▁Электр	-11959
▁аласыз	-11960
▁байқат	-11961
▁бейнер	-11962
▁жанама	-11963
▁жерлен	-11964
▁иванов	-11965
▁лавров	-11966
▁магнит	-11967
▁мұстаф	-11968
▁мөлдір	-11969
▁типтік	-11970
▁трасса	-11971
▁тыңдал	-11972
▁тізбег	-11973
изацияла	-11974
сейітұлы	-11975
▁аманжол	-11976
▁банкинг	-11977
▁василий	-11978
▁жерүсті	-11979
▁жұқпалы	-11980
▁кеңірек	-11981
▁муницип	-11982
▁мусинов	-11983
▁мұнайлы	-11984
▁профиль	-11985
▁радикал	-11986
▁табылма	-11987
▁әуесқой	-11988
▁kazeosat	-11989
▁дерекқор	-11990
▁донорлық	-11991
▁жаңарған	-11992
▁карточка	-11993
▁келіншек	-11994
▁киберқыл	-11995
▁мегаватт	-11996
▁тазартыл	-11997
▁тәрбиеші	-11998
▁ҚазТранс	-11999
▁адырбеков	-12000
▁бағдарлам	-12001
▁коммюнике	-12002
▁модератор	-12003
▁республик	-12004
▁топтастыр	-12005
▁ынтымақты	-12006
▁құрылымда	-12007
▁аустриялық	-12008
▁бейсенбаев	-12009
▁гурбангулы	-12010
▁бразилиялық	-12011
▁Қайырбекова	-12012
▁қансейітұлы	-12013
▁номенклатура	-12014
▁индустриялдық	-12015
▁келіспеушілік	-12016
▁консерватория	-12017
▁этнографиялық	-12018
sa	-12019
ру	-12020
con	-12021
ust	-12022
инт	-12023
піл	-12024
тып	-12025
унг	-12026
қжб	-12027
▁Са	-12028
▁кэ	-12029
ence	-12030
альв	-12031
апия	-12032
апыл	-12033
енте	-12034
теңе	-12035
ттір	-12036
уман	-12037
хард	-12038
цина	-12039
ұмық	-12040
▁204	-12041
▁213	-12042
▁295	-12043
▁302	-12044
▁316	-12045
▁Айт	-12046
▁буш	-12047
▁доп	-12048
▁дәу	-12049
▁коб	-12050
▁рәс	-12051
▁сэс	-12052
▁фон	-12053
▁хвқ	-12054
▁ғзи	-12055
undai	-12056
бақов	-12057
берто	-12058
ектеп	-12059
еттел	-12060
мерон	-12061
метті	-12062
осмос	-12063
умпур	-12064
▁аитв	-12065
▁асан	-12066
▁блан	-12067
▁холл	-12068
▁швед	-12069
▁эбжм	-12070
▁қосп	-12071
▁әзіл	-12072
▁әшек	-12073
▁өрбі	-12074
агистр	-12075
ақылық	-12076
кенова	-12077
ктивті	-12078
улатов	-12079
ұратов	-12080
▁irena	-12081
▁Латын	-12082
▁Сарап	-12083
▁Федер	-12084
▁аулау	-12085
▁бапта	-12086
▁бордю	-12087
▁жанаш	-12088
▁жанұя	-12089
▁итерм	-12090
▁кариб	-12091
▁лингв	-12092
▁метод	-12093
▁мухам	-12094
▁тәмәм	-12095
▁шетпе	-12096
▁қамат	-12097
▁қатай	-12098
маханов	-12099
▁INVEST	-12100
▁айқара	-12101
▁ереван	-12102
▁ештеңе	-12103
▁жайғас	-12104
▁жобала	-12105
▁күттір	-12106
▁мерген	-12107
▁миттал	-12108
▁сендір	-12109
▁теория	-12110
▁топтас	-12111
▁қоршау	-12112
омоносов	-12113
хлопкова	-12114
імділігі	-12115
▁Меркель	-12116
▁аграрлы	-12117
▁азаттық	-12118
▁ашхабад	-12119
▁балықты	-12120
▁вакцина	-12121
▁жақсару	-12122
▁кіріспе	-12123
▁полимер	-12124
▁реактор	-12125
▁себепші	-12126
▁сұрапыл	-12127
▁табанды	-12128
▁қамтылу	-12129
▁қарасай	-12130
▁қошанов	-12131
сыздандыр	-12132
▁жарылғыш	-12133
▁жатқанда	-12134
▁жексенбі	-12135
▁мақұлдау	-12136
▁сертифик	-12137
▁сәйкесті	-12138
▁терапевт	-12139
▁фотограф	-12140
▁қастерлі	-12141
▁қызылжар	-12142
▁құлыбаев	-12143
▁ұлғайтыл	-12144
▁әдеттегі	-12145
▁әділқазы	-12146
импиадалық	-12147
▁акушерлік	-12148
▁балықбаев	-12149
▁генератор	-12150
▁голландия	-12151
▁италиялық	-12152
▁коллекция	-12153
▁маусымдық	-12154
▁монополис	-12155
▁орындалма	-12156
▁санаторий	-12157
▁қабылдану	-12158
▁қарауында	-12159
▁қарақұмық	-12160
▁қолжеткіз	-12161
▁university	-12162
▁Жұмағалиев	-12163
▁археология	-12164
▁бейнеролик	-12165
▁мұрағаттық	-12166
▁саясаттану	-12167
▁электролиз	-12168
▁Әлеуметтік	-12169
▁өнертапқыш	-12170
▁болғанындай	-12171
▁механикалық	-12172
▁норвегиялық	-12173
▁радиоэлектр	-12174
▁хабарландыр	-12175
▁қазгеология	-12176
▁докторантура	-12177
▁парламентари	-12178
▁математикалық	-12179
ho	-12180
rc	-12181
▁H	-12182
com	-12183
mit	-12184
ong	-12185
ors	-12186
алю	-12187
ано	-12188
деп	-12189
ела	-12190
ерс	-12191
йел	-12192
пов	-12193
тов	-12194
▁af	-12195
▁Жа	-12196
▁МА	-12197
▁рм	-12198
▁фи	-12199
▁Үл	-12200
арма	-12201
ейни	-12202
енер	-12203
етір	-12204
ешен	-12205
инге	-12206
онен	-12207
пром	-12208
тегі	-12209
ңгір	-12210
ұров	-12211
▁214	-12212
▁227	-12213
▁254	-12214
▁315	-12215
▁580	-12216
▁640	-12217
▁eng	-12218
▁fin	-12219
▁айс	-12220
▁деф	-12221
▁дор	-12222
▁зұл	-12223
▁ика	-12224
▁мму	-12225
▁пом	-12226
▁шау	-12227
▁ықп	-12228
▁қмг	-12229
▁қоқ	-12230
етаев	-12231
инмен	-12232
кібас	-12233
ургия	-12234
▁viii	-12235
▁Айым	-12236
▁ШОЛУ	-12237
▁анти	-12238
▁герц	-12239
▁киев	-12240
▁прод	-12241
▁рейд	-12242
▁саль	-12243
▁черн	-12244
▁эссе	-12245
▁қазұ	-12246
▁қали	-12247
▁қысқ	-12248
▁ұқкұ	-12249
алаушы	-12250
емесов	-12251
инбург	-12252
исенте	-12253
окуров	-12254
▁Ермек	-12255
▁Марат	-12256
▁анима	-12257
▁асыға	-12258
▁европ	-12259
▁ерсай	-12260
▁жанат	-12261
▁жасар	-12262
▁жылыт	-12263
▁ирина	-12264
▁кәдес	-12265
▁стиль	-12266
▁тарас	-12267
▁ультр	-12268
▁фельд	-12269
▁құмар	-12270
▁әйнек	-12271
жүнісов	-12272
отников	-12273
пекбаев	-12274
құрылыс	-12275
▁Kazakh	-12276
▁Күніне	-12277
▁байтақ	-12278
▁греция	-12279
▁даусыз	-12280
▁жалпық	-12281
▁конфер	-12282
▁салыну	-12283
▁секунд	-12284
▁серуен	-12285
▁стомат	-12286
▁қарсыл	-12287
▁ұшырыл	-12288
икативті	-12289
▁limited	-12290
▁агрегат	-12291
▁ақбұлақ	-12292
▁бижанов	-12293
▁бойныша	-12294
▁даярлан	-12295
▁девелоп	-12296
▁интерна	-12297
▁ипотека	-12298
▁көкжиек	-12299
▁медбике	-12300
▁рейтінг	-12301
▁санаулы	-12302
▁субъект	-12303
▁толағай	-12304
▁тысқары	-12305
▁ұмытпай	-12306
▁Болгария	-12307
▁дүйсенбі	-12308
▁жақтаушы	-12309
▁жұмабаев	-12310
▁орындама	-12311
▁ошақбаев	-12312
▁тамақтан	-12313
▁тәлімгер	-12314
▁төлемақы	-12315
▁шимомура	-12316
▁экспресс	-12317
▁қоймалау	-12318
андырылған	-12319
▁Айымбетов	-12320
▁Нидерланд	-12321
▁ақсақалов	-12322
▁кинотеатр	-12323
▁көпжылдық	-12324
▁офицерлік	-12325
▁радикалды	-12326
▁соловьева	-12327
▁сүйемелде	-12328
▁туристтік	-12329
▁Қылмыстық	-12330
▁проблемалы	-12331
▁рейтингтік	-12332
▁сәрсенбаев	-12333
▁табандылық	-12334
▁шешілмеген	-12335
▁автомагистр	-12336
▁аккредитация	-12337
▁телевизиялық	-12338
▁төмендегідей	-12339
▁хабарландыру	-12340
▁құзыреттілік	-12341
▁парламентарий	-12342
▁кардиологиялық	-12343
▁қанағаттандыру	-12344
▁геоэкономикалық	-12345
14	-12346
76	-12347
ef	-12348
rt	-12349
th	-12350
ym	-12351
NEX	-12352
ade	-12353
asp	-12354
uge	-12355
uro	-12356
use	-12357
бон	-12358
иса	-12359
нет	-12360
сит	-12361
ьки	-12362
▁кқ	-12363
▁тв	-12364
▁хэ	-12365
▁Үш	-12366
obil	-12367
raph	-12368
аділ	-12369
бала	-12370
вили	-12371
еман	-12372
енің	-12373
есін	-12374
ладе	-12375
ольт	-12376
явич	-12377
▁263	-12378
▁292	-12379
▁III	-12380
▁inf	-12381
▁tal	-12382
▁Бак	-12383
▁Бах	-12384
▁Каз	-12385
▁Нор	-12386
▁Фед	-12387
▁боп	-12388
▁жао	-12389
▁жын	-12390
▁иге	-12391
▁идб	-12392
▁сев	-12393
▁сиг	-12394
▁тая	-12395
▁тиг	-12396
▁фат	-12397
▁ісб	-12398
ugeot	-12399
абдал	-12400
андоз	-12401
аризм	-12402
генов	-12403
иалық	-12404
лауды	-12405
стика	-12406
ықсыз	-12407
ғалық	-12408
▁асем	-12409
▁аста	-12410
▁байр	-12411
▁бжзқ	-12412
▁икао	-12413
▁квар	-12414
▁рына	-12415
▁стар	-12416
▁қазу	-12417
гендей	-12418
мутова	-12419
отұрақ	-12420
▁solar	-12421
▁Бүкіл	-12422
▁Париж	-12423
▁аккум	-12424
▁алиев	-12425
▁архив	-12426
▁босан	-12427
▁вучич	-12428
▁дүбір	-12429
▁елдім	-12430
▁жігіт	-12431
▁зелен	-12432
▁кешке	-12433
▁күйік	-12434
▁нараз	-12435
▁оңалт	-12436
▁панел	-12437
▁солар	-12438
▁сібір	-12439
▁сүтін	-12440
▁тұрағ	-12441
▁шарап	-12442
▁ылғал	-12443
▁Құқық	-12444
▁әрлеу	-12445
оресурс	-12446
экспорт	-12447
құрылым	-12448
▁KAZNEX	-12449
▁айырық	-12450
▁бердым	-12451
▁гүлзар	-12452
▁ертегі	-12453
▁жексен	-12454
▁исеско	-12455
▁кескін	-12456
▁консен	-12457
▁күзету	-12458
▁мадрид	-12459
▁офталь	-12460
▁подпол	-12461
▁сарқыл	-12462
▁тендер	-12463
▁теңдіг	-12464
▁тәркіл	-12465
▁цифрлы	-12466
▁қиында	-12467
▁әшекей	-12468
бастылық	-12469
енинград	-12470
мұхамбет	-12471
▁capital	-12472
▁hyundai	-12473
▁алаңдат	-12474
▁антитер	-12475
▁антониу	-12476
▁георгий	-12477
▁жасалма	-12478
▁жетібай	-12479
▁жигалов	-12480
▁кәдесый	-12481
▁көшіріл	-12482
▁санатты	-12483
▁тізімде	-12484
▁қаншама	-12485
▁қарағай	-12486
▁құраушы	-12487
▁үстінен	-12488
ерациялық	-12489
этникалық	-12490
▁алтынкөл	-12491
▁байжанов	-12492
▁ескендір	-12493
▁итермеле	-12494
▁кепілгер	-12495
▁кешіктір	-12496
▁ордабаев	-12497
▁таңданыс	-12498
▁ғаламшар	-12499
▁үстемақы	-12500
▁Әшімбаев	-12501
▁өткізілу	-12502
етіндігіне	-12503
▁бағындыру	-12504
▁бағынысты	-12505
▁бюллетень	-12506
▁елдімекен	-12507
▁жұмабеков	-12508
▁зергерлік	-12509
▁ломоносов	-12510
▁салыстыру	-12511
▁сәулеттік	-12512
▁қазыханов	-12513
▁болашақтық	-12514
▁коммерциал	-12515
▁сәдуақасов	-12516
▁қорландыру	-12517
▁worldskills	-12518
▁абдрахманов	-12519
▁асырылуының	-12520
▁ветеринария	-12521
▁волонтерлік	-12522
▁инфекциялық	-12523
▁тұрақсыздығ	-12524
▁фольклорлық	-12525
▁электроника	-12526
▁белсенділету	-12527
▁кемсітушілік	-12528
▁әрекеттестіг	-12529
▁нейрохирургия	-12530
▁ветеринариялық	-12531
ck	-12532
oe	-12533
ЗИ	-12534
рм	-12535
als	-12536
ism	-12537
oft	-12538
ork	-12539
адж	-12540
исі	-12541
лор	-12542
оос	-12543
сид	-12544
фин	-12545
ңғы	-12546
▁he	-12547
▁Ак	-12548
▁За	-12549
▁нг	-12550
▁қс	-12551
▁Әр	-12552
адио	-12553
енци	-12554
лары	-12555
лері	-12556
нова	-12557
стро	-12558
умен	-12559
чжоу	-12560
өліг	-12561
▁232	-12562
▁265	-12563
▁268	-12564
▁365	-12565
▁tim	-12566
▁xii	-12567
▁Дон	-12568
▁Тау	-12569
▁аәк	-12570
▁коп	-12571
▁лор	-12572
▁пап	-12573
▁поэ	-12574
▁сәб	-12575
▁тие	-12576
▁тұщ	-12577
▁фен	-12578
▁Қож	-12579
▁ҰҚК	-12580
▁Әуе	-12581
афакт	-12582
дешов	-12583
естен	-12584
ияров	-12585
лығын	-12586
тарын	-12587
қайың	-12588
▁1800	-12589
▁Грек	-12590
▁гамб	-12591
▁джей	-12592
▁екпе	-12593
▁жанғ	-12594
▁көпв	-12595
▁лифт	-12596
▁оңды	-12597
▁панд	-12598
▁сейс	-12599
▁ыдыс	-12600
▁Әйел	-12601
▁өрле	-12602
logist	-12603
алация	-12604
ентьев	-12605
изатор	-12606
фосфат	-12607
▁euras	-12608
▁Тәжин	-12609
▁айтпа	-12610
▁белең	-12611
▁геном	-12612
▁еврей	-12613
▁жылжу	-12614
▁киров	-12615
▁сейіт	-12616
▁щучье	-12617
▁ұштас	-12618
ағандығ	-12619
огендік	-12620
пейісов	-12621
ракцион	-12622
▁Берлин	-12623
▁Тұрғын	-12624
▁аналық	-12625
▁англия	-12626
▁иордан	-12627
▁коньки	-12628
▁омарта	-12629
▁рустам	-12630
▁сәндік	-12631
▁туғызу	-12632
▁түйінд	-12633
▁финдік	-12634
▁қалдығ	-12635
▁қалмақ	-12636
▁қандас	-12637
▁қарата	-12638
▁ұмытыл	-12639
▁әбішев	-12640
беушілік	-12641
ейтіндіг	-12642
оскосмос	-12643
▁Отандық	-12644
▁ауыздан	-12645
▁девальв	-12646
▁жұбанов	-12647
▁контраб	-12648
▁координ	-12649
▁нақтылы	-12650
▁офтальм	-12651
▁рамазан	-12652
▁сілтеме	-12653
▁сөйлесу	-12654
▁тазалық	-12655
▁талапты	-12656
▁туысқан	-12657
▁ықпалды	-12658
▁эрмитаж	-12659
▁Моңғолия	-12660
▁Словакия	-12661
▁алшақтық	-12662
▁арзандат	-12663
▁бейнекон	-12664
▁бейтарап	-12665
▁елемесов	-12666
▁еңбектен	-12667
▁жерсерік	-12668
▁зерттеме	-12669
▁инвестжо	-12670
▁көпқырлы	-12671
▁мырзалин	-12672
▁петербор	-12673
▁сарабдал	-12674
▁сипаттал	-12675
▁талшықты	-12676
▁қазақтан	-12677
▁қазмедиа	-12678
▁қазмырыш	-12679
▁қармақшы	-12680
▁қарыздар	-12681
▁өткендіг	-12682
алашникова	-12683
▁алатындай	-12684
▁білдіруші	-12685
▁веложарыс	-12686
▁ерімбетов	-12687
▁орнықтыру	-12688
▁тоғызыншы	-12689
▁төлегенов	-12690
▁ауғаныстан	-12691
▁ахметжанов	-12692
▁бұрынғыдай	-12693
▁жүргізілме	-12694
▁ибрагимова	-12695
▁кезекшілік	-12696
▁innovations	-12697
▁Мұхамедиұлы	-12698
▁девелопмент	-12699
▁көпфункцион	-12700
▁қылмыстылық	-12701
▁дистрибьютор	-12702
▁зейнетақылық	-12703
▁паралимпиада	-12704
▁энерготиімді	-12705
▁облыстарындағы	-12706
19	-12707
ei	-12708
ps	-12709
qu	-12710
ПА	-12711
дд	-12712
юк	-12713
ays	-12714
daq	-12715
ota	-12716
son	-12717
yst	-12718
геш	-12719
етч	-12720
лей	-12721
лиг	-12722
онт	-12723
ора	-12724
род	-12725
сус	-12726
шид	-12727
өрі	-12728
▁we	-12729
ecom	-12730
дату	-12731
драс	-12732
инея	-12733
лиев	-12734
овец	-12735
ридж	-12736
тайн	-12737
ырыл	-12738
ыңыз	-12739
ікте	-12740
қала	-12741
ұнай	-12742
▁234	-12743
▁241	-12744
▁252	-12745
▁272	-12746
▁313	-12747
▁345	-12748
▁Бар	-12749
▁Инд	-12750
▁Рио	-12751
▁Тер	-12752
▁Хан	-12753
▁боб	-12754
▁еэа	-12755
▁кэц	-12756
▁лак	-12757
▁мур	-12758
▁мәж	-12759
▁нур	-12760
▁поп	-12761
▁тәс	-12762
▁үак	-12763
▁Әбу	-12764
бедев	-12765
дарды	-12766
кович	-12767
кімді	-12768
стығы	-12769
фирма	-12770
ымдас	-12771
ұлова	-12772
▁Даби	-12773
▁азап	-12774
▁алек	-12775
▁арақ	-12776
▁бота	-12777
▁бұла	-12778
▁виль	-12779
▁жанр	-12780
▁квтс	-12781
▁легі	-12782
▁ново	-12783
▁пиан	-12784
▁сейт	-12785
▁село	-12786
▁синт	-12787
▁тегі	-12788
▁тоғы	-12789
▁тұма	-12790
▁тұяқ	-12791
▁төсе	-12792
▁форт	-12793
▁хуан	-12794
▁қаба	-12795
▁ұзар	-12796
амасыз	-12797
дарман	-12798
енбаев	-12799
етірес	-12800
▁байла	-12801
▁жасты	-12802
▁жүріс	-12803
▁кенді	-12804
▁малды	-12805
▁маңай	-12806
▁репер	-12807
▁самар	-12808
▁тапшы	-12809
▁түбір	-12810
▁түсіп	-12811
▁тұрлы	-12812
▁чейни	-12813
▁шырқа	-12814
▁қажым	-12815
▁ұялат	-12816
▁өрнек	-12817
енкомен	-12818
ниханов	-12819
тасымал	-12820
эквондо	-12821
▁акимат	-12822
▁бағдат	-12823
▁бестіг	-12824
▁гвинея	-12825
▁гүлжан	-12826
▁депутт	-12827
▁жүйеле	-12828
▁иемден	-12829
▁мартин	-12830
▁микрок	-12831
▁сатылы	-12832
▁студия	-12833
▁таптыр	-12834
▁телеви	-12835
▁түстен	-12836
▁төреші	-12837
▁филипп	-12838
▁қойылу	-12839
▁қортын	-12840
▁үнемді	-12841
▁өзгеше	-12842
дандырыл	-12843
▁peugeot	-12844
▁Сарапшы	-12845
▁апталық	-12846
▁асылбек	-12847
▁демпинг	-12848
▁жарақты	-12849
▁лизингі	-12850
▁мекенді	-12851
▁мелекет	-12852
▁трамвай	-12853
▁іздеуші	-12854
▁қаланды	-12855
▁қарауыл	-12856
▁қарышты	-12857
▁қолында	-12858
▁қудалау	-12859
▁археолог	-12860
▁кезеңдік	-12861
▁кіріктір	-12862
▁көтерілу	-12863
▁нотариус	-12864
▁синергия	-12865
▁судьялық	-12866
▁тұрарлық	-12867
▁Қаппаров	-12868
▁қазығұрт	-12869
▁қарсылас	-12870
▁қорғасын	-12871
▁бағдарлау	-12872
▁инженерия	-12873
▁ленинград	-12874
▁мазмұндық	-12875
▁майлыбаев	-12876
▁сөндіруші	-12877
▁текетірес	-12878
▁толығырақ	-12879
▁темірбетон	-12880
▁энергиялық	-12881
▁біртұтастық	-12882
▁жарықтандыр	-12883
▁павлодарлық	-12884
▁қостанайлық	-12885
▁құқыққорғау	-12886
▁Президенттік	-12887
▁алдабергенов	-12888
▁көпконфессия	-12889
▁перспективті	-12890
▁сертификация	-12891
▁қарастырылма	-12892
▁орындарындағы	-12893
ca	-12894
sp	-12895
тм	-12896
ши	-12897
eng	-12898
ory	-12899
sco	-12900
ult	-12901
авр	-12902
бен	-12903
даб	-12904
дсұ	-12905
кан	-12906
оба	-12907
оли	-12908
рег	-12909
уда	-12910
уде	-12911
эск	-12912
әне	-12913
өбе	-12914
▁em	-12915
▁hu	-12916
▁se	-12917
▁Мү	-12918
▁мк	-12919
авод	-12920
азов	-12921
алқа	-12922
атыр	-12923
барк	-12924
бағы	-12925
джан	-12926
омин	-12927
отов	-12928
шкин	-12929
▁238	-12930
▁242	-12931
▁275	-12932
▁288	-12933
▁303	-12934
▁329	-12935
▁470	-12936
▁630	-12937
▁new	-12938
▁Вар	-12939
▁Йор	-12940
▁Төл	-12941
▁абс	-12942
▁дав	-12943
▁жоя	-12944
▁зап	-12945
▁зим	-12946
▁мкк	-12947
▁нев	-12948
▁пог	-12949
▁тоң	-12950
▁фри	-12951
▁хаз	-12952
▁хол	-12953
▁шәр	-12954
▁қия	-12955
▁өне	-12956
ystem	-12957
батау	-12958
емелі	-12959
еттің	-12960
жасау	-12961
жүрек	-12962
инист	-12963
кілер	-12964
шаған	-12965
шімов	-12966
▁2045	-12967
▁xxii	-12968
▁Арал	-12969
▁ддсұ	-12970
▁киік	-12971
▁лорд	-12972
▁матч	-12973
▁нияз	-12974
▁серж	-12975
▁қажы	-12976
▁қайр	-12977
▁қиыр	-12978
▁құла	-12979
▁ұлыс	-12980
▁Өкіл	-12981
▁өкпе	-12982
аларды	-12983
баркөл	-12984
екенов	-12985
ессион	-12986
омбард	-12987
сыздық	-12988
циклоп	-12989
▁Саяси	-12990
▁ауытқ	-12991
▁біріз	-12992
▁геоде	-12993
▁гимна	-12994
▁гипер	-12995
▁деэск	-12996
▁жерін	-12997
▁мемлк	-12998
▁меркі	-12999
▁модул	-13000
▁мәлік	-13001
▁ораза	-13002
▁орбан	-13003
▁рәпіл	-13004
▁сосын	-13005
▁тосын	-13006
▁түйір	-13007
▁франс	-13008
▁христ	-13009
▁ізгіл	-13010
▁қыста	-13011
▁ұнтақ	-13012
дығының	-13013
молдина	-13014
іміздің	-13015
▁techno	-13016
▁Лондон	-13017
▁Мектеп	-13018
▁ажырат	-13019
▁аударт	-13020
▁жылдар	-13021
▁жылыст	-13022
▁иелену	-13023
▁кептір	-13024
▁красно	-13025
▁кубогы	-13026
▁кінәлі	-13027
▁көмірт	-13028
▁олланд	-13029
▁сигнал	-13030
▁тектес	-13031
▁тойтар	-13032
▁шалқар	-13033
▁яссауи	-13034
▁қалиев	-13035
▁әділді	-13036
▁өсіріл	-13037
активтік	-13038
бердиева	-13039
ейментау	-13040
итикалық	-13041
параттық	-13042
ғасырлық	-13043
▁startup	-13044
▁Бурабай	-13045
▁алаңқай	-13046
▁бангкок	-13047
▁бұрыңғы	-13048
▁дүбірлі	-13049
▁елтаңба	-13050
▁ертерек	-13051
▁парашют	-13052
▁түйткіл	-13053
▁ілкімді	-13054
▁әлеумет	-13055
▁Business	-13056
▁байқалма	-13057
▁британия	-13058
▁есептеме	-13059
▁жабдықты	-13060
▁игілікті	-13061
▁нотариат	-13062
▁портфель	-13063
▁саудалау	-13064
▁хабарлас	-13065
▁шарықтау	-13066
▁қабанбай	-13067
▁қашықтығ	-13068
офизикалық	-13069
▁Саламатты	-13070
▁автокөліг	-13071
▁барасында	-13072
▁бішімбаев	-13073
▁интеллект	-13074
▁консенсус	-13075
▁мерзімдік	-13076
▁пішембаев	-13077
▁сырқаттан	-13078
▁қортындыл	-13079
▁өксікбаев	-13080
▁аттракцион	-13081
▁ауқымдылығ	-13082
▁қазіргідей	-13083
▁қарусыздан	-13084
▁құралымдар	-13085
▁деэскалация	-13086
▁динамикалық	-13087
▁нәтижеліліг	-13088
▁сабақтастық	-13089
▁телевидение	-13090
▁эксклюзивті	-13091
▁әдеттегідей	-13092
▁подполковник	-13093
▁функционалды	-13094
▁оңтайландырыл	-13095
33	-13096
94	-13097
av	-13098
нс	-13099
пс	-13100
ost	-13101
yon	-13102
гай	-13103
дон	-13104
ими	-13105
кал	-13106
раг	-13107
теу	-13108
уға	-13109
фти	-13110
шаң	-13111
ізу	-13112
үрл	-13113
▁XV	-13114
▁ву	-13115
▁дн	-13116
▁зо	-13117
▁хо	-13118
ance	-13119
berg	-13120
urkv	-13121
иада	-13122
игма	-13123
ктад	-13124
овты	-13125
омаш	-13126
сима	-13127
удия	-13128
улығ	-13129
усан	-13130
ығыш	-13131
ілен	-13132
▁235	-13133
▁301	-13134
▁324	-13135
▁520	-13136
▁res	-13137
▁ато	-13138
▁гэс	-13139
▁жқз	-13140
▁кәс	-13141
▁паг	-13142
▁сүю	-13143
▁тұк	-13144
▁төг	-13145
▁штр	-13146
▁шәм	-13147
▁эыұ	-13148
акова	-13149
альды	-13150
аудан	-13151
бинск	-13152
ицина	-13153
осток	-13154
ромар	-13155
стамб	-13156
таева	-13157
таған	-13158
чатов	-13159
ірмен	-13160
ғырту	-13161
қытай	-13162
▁data	-13163
▁Азық	-13164
▁Норв	-13165
▁Ораз	-13166
▁аида	-13167
▁апро	-13168
▁ақан	-13169
▁иппо	-13170
▁исма	-13171
▁каир	-13172
▁лива	-13173
▁макр	-13174
▁мата	-13175
▁опек	-13176
▁пияз	-13177
▁слав	-13178
▁стал	-13179
▁стеф	-13180
▁стив	-13181
▁трав	-13182
▁фаза	-13183
▁фост	-13184
▁шалу	-13185
▁ысыр	-13186
▁Қала	-13187
▁қалт	-13188
▁үлбі	-13189
ograph	-13190
альтер	-13191
екбаев	-13192
лардың	-13193
овский	-13194
осібір	-13195
шылығы	-13196
энерго	-13197
▁БҰҰДБ	-13198
▁Көшер	-13199
▁айлақ	-13200
▁артис	-13201
▁ақсай	-13202
▁баулу	-13203
▁бочар	-13204
▁голов	-13205
▁елест	-13206
▁жайық	-13207
▁жайға	-13208
▁жарағ	-13209
▁майра	-13210
▁мінбе	-13211
▁нақыш	-13212
▁сидор	-13213
▁собор	-13214
▁совет	-13215
▁сомма	-13216
▁тозығ	-13217
▁трена	-13218
▁түзеу	-13219
▁франц	-13220
▁қазын	-13221
▁қонағ	-13222
▁қорда	-13223
▁Үлкен	-13224
▁үштік	-13225
атындық	-13226
ұнайГаз	-13227
▁nasdaq	-13228
▁Ақышев	-13229
▁Бейжің	-13230
▁ақиқат	-13231
▁белбеу	-13232
▁бітіру	-13233
▁дастар	-13234
▁зардаб	-13235
▁көздеу	-13236
▁премия	-13237
▁техник	-13238
▁тигран	-13239
▁түйткі	-13240
▁тұрсын	-13241
▁хаиров	-13242
▁халифа	-13243
▁юнктад	-13244
▁ҮИИДМБ	-13245
▁үндест	-13246
▁Комитет	-13247
▁айшықты	-13248
▁ақылбай	-13249
▁биіктік	-13250
▁бөлінбе	-13251
▁диірмен	-13252
▁еткенде	-13253
▁католик	-13254
▁межелен	-13255
▁механик	-13256
▁принціп	-13257
▁рәсімді	-13258
▁сапарла	-13259
▁сапасыз	-13260
▁тайынша	-13261
▁тасығыш	-13262
▁қайтала	-13263
▁қараған	-13264
▁қимылда	-13265
▁қонақүй	-13266
▁әбіқаев	-13267
▁өтерлік	-13268
▁армиялық	-13269
▁бангладе	-13270
▁бағыттан	-13271
▁геннадий	-13272
▁минскіде	-13273
▁мұғалжар	-13274
▁орынбаев	-13275
▁оқшаулау	-13276
▁салмақта	-13277
▁смартфон	-13278
▁тексеріл	-13279
▁толтырыл	-13280
▁тынымсыз	-13281
▁түлкібас	-13282
▁түпнұсқа	-13283
▁тұқымдас	-13284
▁электрик	-13285
▁энциклоп	-13286
▁Қазпочта	-13287
▁құлдырау	-13288
▁әдіснама	-13289
▁Жезқазған	-13290
▁Индонезия	-13291
▁Көшербаев	-13292
▁венгерлік	-13293
▁десанттық	-13294
▁міндеттел	-13295
▁парадигма	-13296
▁репертуар	-13297
▁созылмалы	-13298
▁филология	-13299
▁іріктелін	-13300
▁құрылымды	-13301
ромаркетинг	-13302
▁артиллерия	-13303
▁біріншілік	-13304
▁иманғалиев	-13305
▁анимациялық	-13306
▁біріктіруші	-13307
▁көпвекторлы	-13308
▁машинажасау	-13309
▁мұсақожаева	-13310
▁топтастырыл	-13311
▁ҚазМұнайГаз	-13312
▁Федеративтік	-13313
▁австралиялық	-13314
▁тәртіпсіздік	-13315
▁үйлесімділік	-13316
▁нанотехнология	-13317
▁органдарындағы	-13318
▁коммуникативтік	-13319
27	-13320
65	-13321
95	-13322
СШ	-13323
ео	-13324
мс	-13325
000	-13326
arm	-13327
ral	-13328
ros	-13329
АТО	-13330
Ойл	-13331
СШК	-13332
аст	-13333
жап	-13334
ива	-13335
осс	-13336
пас	-13337
чин	-13338
▁ab	-13339
▁ba	-13340
▁cl	-13341
▁cr	-13342
▁ip	-13343
▁re	-13344
▁sa	-13345
▁Ег	-13346
▁рю	-13347
▁тн	-13348
▁ун	-13349
ater	-13350
oyle	-13351
stom	-13352
sung	-13353
адам	-13354
амал	-13355
атри	-13356
аунт	-13357
бита	-13358
ерия	-13359
зала	-13360
ипов	-13361
ират	-13362
оган	-13363
стон	-13364
тика	-13365
уней	-13366
ңкер	-13367
ңғал	-13368
▁211	-13369
▁253	-13370
▁273	-13371
▁317	-13372
▁334	-13373
▁346	-13374
▁356	-13375
▁780	-13376
▁ast	-13377
▁erg	-13378
▁fit	-13379
▁toy	-13380
▁Афр	-13381
▁БЭК	-13382
▁Ерт	-13383
▁Лат	-13384
▁Сар	-13385
▁Хор	-13386
▁ақб	-13387
▁гау	-13388
▁гем	-13389
▁жшқ	-13390
▁зак	-13391
▁ред	-13392
▁рец	-13393
▁цой	-13394
▁шеж	-13395
▁Құс	-13396
▁Әли	-13397
▁әлс	-13398
▁өні	-13399
айнал	-13400
алары	-13401
бания	-13402
евент	-13403
еджеп	-13404
ектер	-13405
кевич	-13406
мекші	-13407
тараз	-13408
темір	-13409
тілді	-13410
уминг	-13411
ынмен	-13412
ьянма	-13413
імдік	-13414
▁2040	-13415
▁7000	-13416
▁tour	-13417
▁Түрк	-13418
▁анна	-13419
▁арма	-13420
▁биом	-13421
▁сімк	-13422
▁траф	-13423
▁цзян	-13424
▁қалқ	-13425
▁қозы	-13426
енерал	-13427
мейтін	-13428
миттал	-13429
рессия	-13430
торлық	-13431
ъетнам	-13432
ымызша	-13433
ынының	-13434
▁Doing	-13435
▁qazaq	-13436
▁xviii	-13437
▁Катар	-13438
▁Лукаш	-13439
▁Никол	-13440
▁балта	-13441
▁бозой	-13442
▁ивуар	-13443
▁князь	-13444
▁крест	-13445
▁кәріс	-13446
▁лента	-13447
▁парағ	-13448
▁пасха	-13449
▁полит	-13450
▁ролик	-13451
▁рубль	-13452
▁санау	-13453
▁сәбит	-13454
▁телем	-13455
▁ынтам	-13456
▁қырлы	-13457
▁үржар	-13458
▁ұрлық	-13459
едиттеу	-13460
тендіру	-13461
ымыздай	-13462
ьяченко	-13463
▁атымен	-13464
▁ағайын	-13465
▁емделу	-13466
▁костюм	-13467
▁көршіл	-13468
▁лукойл	-13469
▁мердіг	-13470
▁нахаян	-13471
▁орбита	-13472
▁ричард	-13473
▁роберт	-13474
▁салалы	-13475
▁сатушы	-13476
▁сезіну	-13477
▁тастар	-13478
▁үзіліс	-13479
▁әдетте	-13480
бековтың	-13481
лигенция	-13482
стелеком	-13483
▁Ердоған	-13484
▁Француз	-13485
▁алтынды	-13486
▁ақылбек	-13487
▁бордюжа	-13488
▁висенте	-13489
▁даналық	-13490
▁кезекші	-13491
▁мейірім	-13492
▁отырған	-13493
▁пластик	-13494
▁роуминг	-13495
▁сақталу	-13496
▁тараған	-13497
▁тікұшағ	-13498
▁ғажайып	-13499
▁қадамда	-13500
▁әбдіров	-13501
▁Тоғжанов	-13502
▁айырықша	-13503
▁ахметова	-13504
▁борышкер	-13505
▁есенбаев	-13506
▁жайлылық	-13507
▁жөнелтіл	-13508
▁келтірме	-13509
▁лайықтал	-13510
▁орнықтыр	-13511
▁таңбалау	-13512
▁таңдаулы	-13513
▁шаштараз	-13514
▁шағымдан	-13515
▁экономик	-13516
▁этностық	-13517
▁қалбатау	-13518
▁үнсіздік	-13519
▁үстемдік	-13520
мағанбетов	-13521
▁Ақмолалық	-13522
▁автотұрақ	-13523
▁бағдаршам	-13524
▁венчурлық	-13525
▁винокуров	-13526
▁газдандыр	-13527
▁дизельдік	-13528
▁инстанция	-13529
▁мақтаарал	-13530
▁оңайлатыл	-13531
▁энергетик	-13532
▁әзілханов	-13533
▁архитектор	-13534
▁камалдинов	-13535
▁мейманхана	-13536
▁сұхбаттасу	-13537
▁түсетіндіг	-13538
▁өміршеңдіг	-13539
▁өркендеген	-13540
▁бектұрғанов	-13541
▁белсендірек	-13542
▁керамикалық	-13543
▁перзентхана	-13544
▁толеранттық	-13545
▁урбанизация	-13546
▁ҚазТрансОйл	-13547
▁қадағалаушы	-13548
▁қамқоршылық	-13549
▁өкілеттілік	-13550
▁Парламенттік	-13551
▁амбулаторлық	-13552
▁көрсетілгенде	-13553
▁мамандырылған	-13554
▁электрэнергия	-13555
▁қазақстаннның	-13556
▁қағазбастылық	-13557
▁ұйымдастырылу	-13558
▁бәсекелестігін	-13559
▁көпконфессиялы	-13560
74	-13561
bh	-13562
ty	-13563
бы	-13564
тд	-13565
▁@	-13566
isa	-13567
ola	-13568
vel	-13569
айт	-13570
бұр	-13571
деж	-13572
дор	-13573
иор	-13574
лай	-13575
лиф	-13576
опр	-13577
орс	-13578
уош	-13579
іні	-13580
▁St	-13581
▁ib	-13582
▁us	-13583
▁xi	-13584
▁Га	-13585
▁Ир	-13586
ubai	-13587
арль	-13588
дері	-13589
икон	-13590
линг	-13591
овая	-13592
оглу	-13593
олют	-13594
орын	-13595
пиев	-13596
риан	-13597
фарм	-13598
хрон	-13599
қанд	-13600
▁262	-13601
▁282	-13602
▁286	-13603
▁312	-13604
▁335	-13605
▁336	-13606
▁344	-13607
▁530	-13608
▁XII	-13609
▁bar	-13610
▁cri	-13611
▁ind	-13612
▁iso	-13613
▁jac	-13614
▁pos	-13615
▁Арм	-13616
▁Баш	-13617
▁Фор	-13618
▁бег	-13619
▁бәл	-13620
▁жжм	-13621
▁куз	-13622
▁лам	-13623
▁мох	-13624
▁мығ	-13625
▁мүб	-13626
▁пул	-13627
▁роз	-13628
▁сок	-13629
▁сою	-13630
▁тбу	-13631
▁тіс	-13632
▁ғой	-13633
▁әбд	-13634
▁әтк	-13635
▁өтк	-13636
izyon	-13637
ағдар	-13638
бридж	-13639
мырза	-13640
мұнай	-13641
терін	-13642
ықтық	-13643
ғұлов	-13644
қысыз	-13645
▁1400	-13646
▁fest	-13647
▁fund	-13648
▁xvii	-13649
▁Адам	-13650
▁Бель	-13651
▁Вена	-13652
▁Съез	-13653
▁алап	-13654
▁апел	-13655
▁арық	-13656
▁ақау	-13657
▁дуда	-13658
▁жәйт	-13659
▁нұра	-13660
▁пром	-13661
▁проп	-13662
▁сері	-13663
▁смол	-13664
▁тжкб	-13665
▁тірк	-13666
▁уақы	-13667
▁шетт	-13668
▁этал	-13669
▁ілін	-13670
▁қолж	-13671
▁құшт	-13672
▁әсел	-13673
тылығы	-13674
імізді	-13675
қаралы	-13676
▁petro	-13677
▁АӨСШК	-13678
▁Батыр	-13679
▁барак	-13680
▁бөкей	-13681
▁домин	-13682
▁жайыл	-13683
▁жамыл	-13684
▁жатып	-13685
▁запас	-13686
▁кубок	-13687
▁кіріг	-13688
▁махмұ	-13689
▁метан	-13690
▁психо	-13691
▁салуы	-13692
▁самал	-13693
▁таңба	-13694
▁тізіл	-13695
▁фелип	-13696
▁шұбат	-13697
▁ырғыз	-13698
▁қисын	-13699
▁қоңыр	-13700
▁өршіл	-13701
микалық	-13702
ногория	-13703
порация	-13704
стамбұл	-13705
▁toyota	-13706
▁Грекия	-13707
▁Латвия	-13708
▁Мұхтар	-13709
▁авария	-13710
▁алынба	-13711
▁ақысыз	-13712
▁гидром	-13713
▁желбір	-13714
▁жұмсақ	-13715
▁мақтау	-13716
▁немқұр	-13717
▁рудный	-13718
▁самара	-13719
▁теңдей	-13720
▁төңкер	-13721
▁шежіре	-13722
▁ұлықта	-13723
▁әшімов	-13724
автопром	-13725
қытайлық	-13726
▁service	-13727
▁Конгрес	-13728
▁абсолют	-13729
▁аграршы	-13730
▁ажырату	-13731
▁асылжан	-13732
▁драйвер	-13733
▁елбасын	-13734
▁жабынды	-13735
▁жасырма	-13736
▁жаңалығ	-13737
▁жетіген	-13738
▁жүнісов	-13739
▁мезетте	-13740
▁планшет	-13741
▁превент	-13742
▁тәмәмда	-13743
▁төралқа	-13744
▁феномен	-13745
▁қарсыла	-13746
▁әмірліг	-13747
logistics	-13748
urkvizyon	-13749
индустрия	-13750
▁Норвегия	-13751
▁Смайылов	-13752
▁автопарк	-13753
▁американ	-13754
▁аяқталма	-13755
▁дәлелден	-13756
▁ерғалиев	-13757
▁ипподром	-13758
▁курчатов	-13759
▁мотоцикл	-13760
▁мұхтаров	-13761
▁оразалин	-13762
▁саяхатшы	-13763
▁сырғанау	-13764
▁тармақша	-13765
▁құнанбай	-13766
▁өтемісов	-13767
лантикалық	-13768
▁Атамқұлов	-13769
▁агрофирма	-13770
▁госпиталь	-13771
▁куәландыр	-13772
▁номиналды	-13773
▁охлопкова	-13774
▁телевизия	-13775
▁тыңдарман	-13776
▁тұрғандығ	-13777
▁Қарабалин	-13778
▁қолөнерші	-13779
▁болатындай	-13780
▁бочарников	-13781
▁сәрсембаев	-13782
▁төзімділіг	-13783
▁қабылдаушы	-13784
▁қабілеттіг	-13785
▁девальвация	-13786
▁заңдастырыл	-13787
энергетикалық	-13788
▁бірегейлікті	-13789
▁прогрессивті	-13790
▁Демократиялық	-13791
▁арселормиттал	-13792
▁интеллигенция	-13793
▁сертификаттал	-13794
▁электрстанция	-13795
▁кинематография	-13796
▁нарықтарындағы	-13797
▁көпфункционалды	-13798
▁мәселелеріндегі	-13799
▁әртараптандырыл	-13800
op	-13801
ts	-13802
ач	-13803
жж	-13804
оу	-13805
үг	-13806
ұн	-13807
ach	-13808
ack	-13809
ауы	-13810
биб	-13811
гас	-13812
джи	-13813
енс	-13814
иді	-13815
иха	-13816
күл	-13817
лды	-13818
ома	-13819
пты	-13820
тах	-13821
тех	-13822
ули	-13823
уми	-13824
шім	-13825
▁br	-13826
▁lo	-13827
▁Кр	-13828
▁аф	-13829
▁дю	-13830
▁эд	-13831
book	-13832
ject	-13833
mart	-13834
nect	-13835
абат	-13836
бере	-13837
егін	-13838
ктің	-13839
озер	-13840
оник	-13841
сына	-13842
тері	-13843
уреш	-13844
усал	-13845
фурт	-13846
шаев	-13847
ынғы	-13848
янов	-13849
ңғол	-13850
▁223	-13851
▁243	-13852
▁248	-13853
▁287	-13854
▁308	-13855
▁355	-13856
▁441	-13857
▁487	-13858
▁htt	-13859
▁int	-13860
▁Бож	-13861
▁Екі	-13862
▁бот	-13863
▁дал	-13864
▁кок	-13865
▁лас	-13866
▁одм	-13867
▁сүз	-13868
▁тдм	-13869
▁хаш	-13870
айғыр	-13871
амера	-13872
дарын	-13873
дікті	-13874
жинақ	-13875
жігіт	-13876
кілік	-13877
таның	-13878
ттедж	-13879
ьевич	-13880
▁cnpc	-13881
▁Вице	-13882
▁Дипл	-13883
▁Мұса	-13884
▁аштө	-13885
▁дина	-13886
▁есту	-13887
▁жара	-13888
▁тонг	-13889
▁трек	-13890
▁тянь	-13891
▁түзу	-13892
▁элит	-13893
▁юлия	-13894
igital	-13895
invest	-13896
ағұлов	-13897
италий	-13898
итенци	-13899
кендіг	-13900
уллина	-13901
циалық	-13902
▁shell	-13903
▁Ерлан	-13904
▁Мемор	-13905
▁айнұр	-13906
▁баяғы	-13907
▁билеу	-13908
▁диқан	-13909
▁елдер	-13910
▁жуғыш	-13911
▁куала	-13912
▁кәдім	-13913
▁ласта	-13914
▁мерке	-13915
▁момыш	-13916
▁мотор	-13917
▁субұр	-13918
▁судан	-13919
▁теңді	-13920
▁тоқаш	-13921
▁шахта	-13922
▁шешен	-13923
▁қаріп	-13924
абекұлы	-13925
андалық	-13926
ковский	-13927
остовец	-13928
тайнмай	-13929
ғалиұлы	-13930
қарағай	-13931
ұнайгаз	-13932
▁engine	-13933
▁Бірлік	-13934
▁ауытқу	-13935
▁байтұр	-13936
▁босния	-13937
▁бұқара	-13938
▁грузин	-13939
▁жауһар	-13940
▁инклюз	-13941
▁лумпур	-13942
▁саптық	-13943
▁сомали	-13944
▁таралу	-13945
▁тудыру	-13946
арламент	-13947
аяхметов	-13948
сембаева	-13949
▁айырылу	-13950
▁ауданды	-13951
▁донақов	-13952
▁жылнама	-13953
▁коттедж	-13954
▁лебедев	-13955
▁мұқашев	-13956
▁саудала	-13957
▁сәтбаев	-13958
▁сәтпаев	-13959
▁штабтық	-13960
▁үлгілік	-13961
struction	-13962
бибуллаев	-13963
▁Бірыңғай	-13964
▁Халықтық	-13965
▁автошеру	-13966
▁айтжанов	-13967
▁араласпа	-13968
▁асырылма	-13969
▁ерекшеле	-13970
▁еңбекқор	-13971
▁жақындас	-13972
▁марченко	-13973
▁мирзиеев	-13974
▁неліктен	-13975
▁рәсімдел	-13976
▁саудалан	-13977
▁тонналық	-13978
▁тоғызқұм	-13979
▁шұбаркөл	-13980
▁Құрметті	-13981
▁қарызгер	-13982
▁өрістету	-13983
ттарындағы	-13984
▁Соловьева	-13985
▁бахмутова	-13986
▁велоспорт	-13987
▁дастархан	-13988
▁жылдамдат	-13989
▁инвестжоб	-13990
▁мансаптық	-13991
▁масштабты	-13992
▁ойластыру	-13993
▁парасатты	-13994
▁таптырмас	-13995
▁эвакуация	-13996
▁қазыналық	-13997
▁құжатнама	-13998
итенциарлық	-13999
тымақтастық	-14000
▁Мәжілісмен	-14001
▁бүгінгідей	-14002
▁жарақаттан	-14003
▁кәмелеттік	-14004
▁трансплант	-14005
▁түсіпбеков	-14006
▁қасымбеков	-14007
еврологиялық	-14008
▁агроқұрылым	-14009
▁аккумулятор	-14010
▁ақпаратынша	-14011
▁бағалауынша	-14012
▁көмірсутегі	-14013
▁көршілестік	-14014
▁реттеушілік	-14015
▁төзбеушілік	-14016
▁хорватияның	-14017
▁қайталанбас	-14018
▁Инновациялық	-14019
▁регламенттел	-14020
▁қамсыздандыр	-14021
▁өңіріміздегі	-14022
▁интерактивтік	-14023
▁отансүйгіштік	-14024
▁диверсификация	-14025
▁журналистермен	-14026
75	-14027
fa	-14028
ly	-14029
ok	-14030
ow	-14031
pa	-14032
вр	-14033
тш	-14034
arn	-14035
eel	-14036
ild	-14037
ilk	-14038
xos	-14039
АТЭ	-14040
ени	-14041
жақ	-14042
зір	-14043
иля	-14044
итс	-14045
ной	-14046
ожа	-14047
оны	-14048
ыль	-14049
эәк	-14050
▁am	-14051
▁ev	-14052
▁Бу	-14053
▁От	-14054
▁бэ	-14055
▁бі	-14056
▁жф	-14057
ГАТЭ	-14058
анит	-14059
град	-14060
елов	-14061
ивал	-14062
ктың	-14063
ллер	-14064
огия	-14065
отаж	-14066
улов	-14067
шина	-14068
шісі	-14069
юсер	-14070
▁269	-14071
▁271	-14072
▁293	-14073
▁306	-14074
▁393	-14075
▁414	-14076
▁425	-14077
▁610	-14078
▁740	-14079
▁960	-14080
▁led	-14081
▁Бес	-14082
▁Жен	-14083
▁Муз	-14084
▁ХКБ	-14085
▁Хал	-14086
▁Шар	-14087
▁Эст	-14088
▁аку	-14089
▁гиб	-14090
▁жуу	-14091
▁кик	-14092
▁коч	-14093
▁кош	-14094
▁лим	-14095
▁рот	-14096
▁тро	-14097
▁шұң	-14098
▁әқк	-14099
▁ӨДМ	-14100
group	-14101
organ	-14102
ravel	-14103
арест	-14104
асына	-14105
батты	-14106
жалық	-14107
келді	-14108
кявич	-14109
ланыс	-14110
талай	-14111
тарға	-14112
ыпшақ	-14113
істір	-14114
қазақ	-14115
▁cont	-14116
▁Агро	-14117
▁жеңу	-14118
▁кхдр	-14119
▁марг	-14120
▁рест	-14121
▁рика	-14122
▁рияд	-14123
▁суын	-14124
▁толу	-14125
▁шабы	-14126
ділігі	-14127
коммер	-14128
кіншек	-14129
ленуші	-14130
улетов	-14131
ымызға	-14132
ырақты	-14133
һандық	-14134
▁media	-14135
▁Форум	-14136
▁агент	-14137
▁аннан	-14138
▁бесеу	-14139
▁еркек	-14140
▁жағын	-14141
▁кенші	-14142
▁кесір	-14143
▁мығым	-14144
▁самбо	-14145
▁санағ	-14146
▁сатыб	-14147
▁сонау	-14148
▁сюжет	-14149
▁сәбіз	-14150
▁хамид	-14151
▁қыран	-14152
▁әбдел	-14153
▁өзгеш	-14154
▁өздер	-14155
бербанк	-14156
ендалық	-14157
иректор	-14158
иросима	-14159
остудия	-14160
фералық	-14161
қасымов	-14162
▁system	-14163
▁Барлық	-14164
▁Бішкек	-14165
▁Виктор	-14166
▁МАГАТЭ	-14167
▁балуан	-14168
▁гүлнар	-14169
▁жастық	-14170
▁жаңғақ	-14171
▁марқұм	-14172
▁моңғол	-14173
▁мьянма	-14174
▁наубай	-14175
▁нұралы	-14176
▁сауран	-14177
▁теплов	-14178
▁тырысу	-14179
▁шөбере	-14180
▁қайтып	-14181
▁қолтық	-14182
▁өрісте	-14183
▁Абдулла	-14184
▁Эстония	-14185
▁алпауыт	-14186
▁арнасай	-14187
▁виталий	-14188
▁даналығ	-14189
▁диспетч	-14190
▁ержанов	-14191
▁жағажай	-14192
▁жұмаділ	-14193
▁инсульт	-14194
▁катодты	-14195
▁курстық	-14196
▁кәдімгі	-14197
▁латынша	-14198
▁мәселел	-14199
▁ревизия	-14200
▁резеңке	-14201
▁соңынан	-14202
▁теректі	-14203
▁туындат	-14204
▁эквадор	-14205
▁ізденіс	-14206
▁әбдірах	-14207
▁Башмаков	-14208
▁Цзиньпин	-14209
▁айтуныша	-14210
▁біржақты	-14211
▁исабеков	-14212
▁мансұров	-14213
▁рысқұлов	-14214
▁террорис	-14215
▁тренажер	-14216
▁тіркелме	-14217
▁тіркелім	-14218
▁түгелдей	-14219
▁шпекбаев	-14220
▁ыстамбұл	-14221
▁ықыласты	-14222
▁қарамағы	-14223
▁қысқамер	-14224
▁Ермекбаев	-14225
▁Степногор	-14226
▁апробация	-14227
▁есептелін	-14228
▁жандарбек	-14229
▁жаңбыршин	-14230
▁жеткіншек	-14231
▁жоғарылығ	-14232
▁кәсібилік	-14233
▁мотоатқыш	-14234
▁новосібір	-14235
▁нұсқаулық	-14236
▁плотников	-14237
▁тазалағыш	-14238
▁тәсілдеме	-14239
▁адамзаттық	-14240
▁жетімділік	-14241
▁кәсіпорнын	-14242
▁мемлкеттік	-14243
▁минниханов	-14244
▁педагогика	-14245
▁полиметалл	-14246
▁түсіністіг	-14247
▁атлетикалық	-14248
▁біртұтастығ	-14249
▁келісушілік	-14250
▁нұрмұхамбет	-14251
▁сәдуақасова	-14252
▁қазынашылық	-14253
▁құдайберген	-14254
▁өзектендіру	-14255
▁тоғызқұмалақ	-14256
▁инвестициялан	-14257
▁прагматикалық	-14258
▁бағытталғандығ	-14259
▁меморгандардың	-14260
▁парламентаризм	-14261
▁Президенттігіне	-14262
32	-14263
78	-14264
EG	-14265
ФР	-14266
ЭҚ	-14267
тқ	-14268
цз	-14269
▁Щ	-14270
ang	-14271
gle	-14272
hev	-14273
its	-14274
one	-14275
ram	-14276
ебр	-14277
епт	-14278
ері	-14279
еті	-14280
иба	-14281
као	-14282
нәр	-14283
сий	-14284
фар	-14285
хир	-14286
чук	-14287
шаб	-14288
ығу	-14289
ьяр	-14290
әқм	-14291
▁IT	-14292
▁kh	-14293
▁sc	-14294
▁Ро	-14295
▁пм	-14296
▁эй	-14297
▁Құ	-14298
▁әж	-14299
rsco	-14300
агро	-14301
азиз	-14302
арин	-14303
джет	-14304
дікі	-14305
ейіт	-14306
ерке	-14307
есіз	-14308
жыға	-14309
опея	-14310
ьяху	-14311
ғыма	-14312
▁266	-14313
▁289	-14314
▁322	-14315
▁325	-14316
▁337	-14317
▁341	-14318
▁343	-14319
▁372	-14320
▁387	-14321
▁490	-14322
▁680	-14323
▁bus	-14324
▁edu	-14325
▁mar	-14326
▁mic	-14327
▁sms	-14328
▁xiv	-14329
▁xxv	-14330
▁Бау	-14331
▁Бен	-14332
▁Дау	-14333
▁МЖС	-14334
▁Мен	-14335
▁Пал	-14336
▁апп	-14337
▁жаю	-14338
▁инт	-14339
▁мең	-14340
▁моб	-14341
▁соя	-14342
▁тұн	-14343
▁хқо	-14344
ecomm	-14345
oogle	-14346
ктура	-14347
мейді	-14348
ойлер	-14349
онтин	-14350
сылық	-14351
терея	-14352
угвай	-14353
штейн	-14354
яқтық	-14355
өкеев	-14356
▁1989	-14357
▁casp	-14358
▁poll	-14359
▁Еуро	-14360
▁азығ	-14361
▁асса	-14362
▁ашар	-14363
▁биші	-14364
▁град	-14365
▁гөрі	-14366
▁егіл	-14367
▁ланд	-14368
▁мель	-14369
▁мысы	-14370
▁прор	-14371
▁сакр	-14372
▁фоос	-14373
▁ғабд	-14374
▁қайс	-14375
▁қира	-14376
▁қияр	-14377
алиева	-14378
аманов	-14379
далған	-14380
ексика	-14381
лердің	-14382
мақтық	-14383
ставка	-14384
тердің	-14385
ымдама	-14386
ігінің	-14387
ғазиев	-14388
құрлық	-14389
▁Smart	-14390
▁dubai	-14391
▁Армия	-14392
▁Мирзи	-14393
▁Мұнай	-14394
▁Соңғы	-14395
▁айран	-14396
▁арлан	-14397
▁атану	-14398
▁атлас	-14399
▁ақтал	-14400
▁ботан	-14401
▁естен	-14402
▁жуалы	-14403
▁карат	-14404
▁килов	-14405
▁маржа	-14406
▁мүсір	-14407
▁нгуен	-14408
▁нигер	-14409
▁ойшыл	-14410
▁онсыз	-14411
▁плита	-14412
▁режеп	-14413
▁сүйін	-14414
▁талон	-14415
▁тағат	-14416
▁Ғарыш	-14417
▁қажыр	-14418
▁қайық	-14419
▁қараб	-14420
айналым	-14421
мейстер	-14422
сейітов	-14423
терапия	-14424
тылығын	-14425
ғысынша	-14426
▁Invest	-14427
▁alstom	-14428
▁Арнайы	-14429
▁Африка	-14430
▁Женева	-14431
▁Йоркте	-14432
▁Мерзім	-14433
▁Швеция	-14434
▁альтер	-14435
▁атташе	-14436
▁ауызша	-14437
▁аңғарт	-14438
▁буынды	-14439
▁бұршақ	-14440
▁бәлкім	-14441
▁геолог	-14442
▁демарк	-14443
▁ертаев	-14444
▁жинақы	-14445
▁жүгіну	-14446
▁мәнмәт	-14447
▁пандус	-14448
▁полков	-14449
▁правда	-14450
▁реджеп	-14451
▁сіңіру	-14452
▁таниды	-14453
▁транза	-14454
▁хусейн	-14455
▁эталон	-14456
▁үзінді	-14457
▁өткеру	-14458
дуақасов	-14459
етаньяху	-14460
▁crirsco	-14461
▁Душанбе	-14462
▁азайтыл	-14463
▁айшықта	-14464
▁бақылан	-14465
▁берешег	-14466
▁бройлер	-14467
▁келісіл	-14468
▁күйіков	-14469
▁мүсінші	-14470
▁номинал	-14471
▁ойыншық	-14472
▁травмат	-14473
▁тұғырлы	-14474
▁төлемді	-14475
▁цзиньта	-14476
▁шапағат	-14477
▁шынында	-14478
▁эквивал	-14479
▁қазыбек	-14480
▁қанжыға	-14481
▁қатыспа	-14482
▁өтеусіз	-14483
▁Кәсіпкер	-14484
▁алаяқтық	-14485
▁алтынсар	-14486
▁алғандығ	-14487
▁биржалық	-14488
▁бәйменов	-14489
▁жарамсыз	-14490
▁инвестиц	-14491
▁ирактағы	-14492
▁кембридж	-14493
▁көптарап	-14494
▁мәнмәтін	-14495
▁отставка	-14496
▁себептен	-14497
▁субұрқақ	-14498
▁тереңдік	-14499
▁тиянақты	-14500
▁тұрғынүй	-14501
▁чехиялық	-14502
▁қайырбек	-14503
▁қолжазба	-14504
▁ұштастыр	-14505
▁арендалық	-14506
▁аудармашы	-14507
▁аустралия	-14508
▁бангладеш	-14509
▁бәсекелік	-14510
▁кредиттеу	-14511
▁пікірімше	-14512
▁солтүстіг	-14513
▁суландыру	-14514
▁тиімдірек	-14515
▁тәуліктік	-14516
▁әубәкіров	-14517
▁Kazakhstan	-14518
▁банкаралық	-14519
▁инвестжоба	-14520
▁киностудия	-14521
▁микронесие	-14522
▁мұнайхимия	-14523
▁ниеттестіг	-14524
▁олимпиялық	-14525
▁психикалық	-14526
▁рейтингісі	-14527
▁тыныштығын	-14528
▁Қожамжаров	-14529
▁қалааралық	-14530
▁қырыққабат	-14531
▁бейнекамера	-14532
▁жолдасбеков	-14533
▁жәбірленуші	-14534
▁кардиология	-14535
▁кассациялық	-14536
▁конгрессмен	-14537
▁магистралды	-14538
▁мүмкіншіліг	-14539
▁райымқұлова	-14540
▁санатындағы	-14541
▁трансконтин	-14542
▁өкілеттіліг	-14543
▁бұрынғысынша	-14544
▁тапқандардың	-14545
▁транстелеком	-14546
▁энциклопедия	-14547
▁облысымыздағы	-14548
қазақстандықтар	-14549
▁ілгерілеушілік	-14550
▁терминологиялық	-14551
EN	-14552
bc	-14553
ud	-14554
Аз	-14555
РМ	-14556
оғ	-14557
ял	-14558
қи	-14559
EGO	-14560
ase	-14561
enc	-14562
erc	-14563
ive	-14564
Жол	-14565
дис	-14566
дос	-14567
инд	-14568
инь	-14569
кат	-14570
ори	-14571
раз	-14572
риб	-14573
сая	-14574
сто	-14575
хон	-14576
ций	-14577
шөп	-14578
ько	-14579
энд	-14580
▁XI	-14581
▁by	-14582
▁ix	-14583
▁Тү	-14584
▁ою	-14585
▁эц	-14586
2017	-14587
адат	-14588
ағип	-14589
егов	-14590
екин	-14591
елла	-14592
один	-14593
ольд	-14594
онды	-14595
розу	-14596
форд	-14597
цент	-14598
ырық	-14599
ілов	-14600
імші	-14601
қыра	-14602
ңдеу	-14603
▁294	-14604
▁326	-14605
▁410	-14606
▁452	-14607
▁491	-14608
▁510	-14609
▁542	-14610
▁558	-14611
▁560	-14612
▁860	-14613
▁mck	-14614
▁mot	-14615
▁sum	-14616
▁ГФР	-14617
▁Мыр	-14618
▁Сыр	-14619
▁гаг	-14620
▁ган	-14621
▁дуа	-14622
▁еңс	-14623
▁жұр	-14624
▁кум	-14625
▁лоу	-14626
▁мац	-14627
▁мұң	-14628
▁смс	-14629
▁сэқ	-14630
▁теж	-14631
▁тмк	-14632
▁шөл	-14633
▁экз	-14634
▁ұқы	-14635
ended	-14636
ution	-14637
агент	-14638
айдер	-14639
акпен	-14640
бағат	-14641
дидар	-14642
елері	-14643
есары	-14644
естің	-14645
жайық	-14646
итрея	-14647
патит	-14648
пекті	-14649
терді	-14650
шайым	-14651
ытпай	-14652
інбей	-14653
▁1100	-14654
▁KEGO	-14655
▁gold	-14656
▁Есен	-14657
▁Орта	-14658
▁аииб	-14659
▁байс	-14660
▁глоб	-14661
▁джан	-14662
▁діңг	-14663
▁инер	-14664
▁инку	-14665
▁камб	-14666
▁каст	-14667
▁крол	-14668
▁лавр	-14669
▁мақс	-14670
▁оқым	-14671
▁салқ	-14672
▁серг	-14673
▁союз	-14674
▁тасы	-14675
▁ушығ	-14676
▁шина	-14677
▁қазг	-14678
▁үдет	-14679
аларын	-14680
втоЖол	-14681
дігіне	-14682
сариев	-14683
тықожа	-14684
ушылар	-14685
шерлік	-14686
ығының	-14687
імізше	-14688
қастан	-14689
▁Божко	-14690
▁ЕурАз	-14691
▁Тарих	-14692
▁артеф	-14693
▁архим	-14694
▁арылу	-14695
▁аухат	-14696
▁балды	-14697
▁болив	-14698
▁варга	-14699
▁даулы	-14700
▁еншіл	-14701
▁ехәқм	-14702
▁жабын	-14703
▁желек	-14704
▁жүсіп	-14705
▁йемен	-14706
▁кесіп	-14707
▁ланка	-14708
▁матви	-14709
▁машығ	-14710
▁мағын	-14711
▁минор	-14712
▁мәнді	-14713
▁нашақ	-14714
▁номер	-14715
▁позит	-14716
▁сабағ	-14717
▁сынап	-14718
▁хамад	-14719
▁хамза	-14720
▁Қарағ	-14721
▁қобда	-14722
▁әркез	-14723
acebook	-14724
agement	-14725
едицина	-14726
утдинов	-14727
▁Хорват	-14728
▁арынов	-14729
▁аспект	-14730
▁ассорт	-14731
▁ақтаев	-14732
▁бейсен	-14733
▁блогер	-14734
▁дамыма	-14735
▁допинг	-14736
▁доңғал	-14737
▁жүктеу	-14738
▁зимбаб	-14739
▁имплем	-14740
▁келген	-14741
▁көркей	-14742
▁санжар	-14743
▁саулық	-14744
▁сериал	-14745
▁синдзо	-14746
▁сүбелі	-14747
▁таңқал	-14748
▁тоқтау	-14749
▁шындығ	-14750
▁шұңқыр	-14751
▁ясжтшұ	-14752
▁Құрлық	-14753
▁қауырт	-14754
▁құятын	-14755
арындағы	-14756
стикалық	-14757
тілділік	-14758
▁samsung	-14759
▁байыпты	-14760
▁белград	-14761
▁былғары	-14762
▁гепатит	-14763
▁дамытыл	-14764
▁дінтану	-14765
▁елубаев	-14766
▁жанашыр	-14767
▁жарықди	-14768
▁жобалан	-14769
▁кэмерон	-14770
▁минимум	-14771
▁монопол	-14772
▁мызғыма	-14773
▁онколог	-14774
▁орманды	-14775
▁пианист	-14776
▁тазалығ	-14777
▁шаңырағ	-14778
▁қабатта	-14779
▁қазхром	-14780
▁ұйғарым	-14781
▁әміреев	-14782
▁өсіруші	-14783
▁bolashak	-14784
▁Жақсылық	-14785
▁Жаһандық	-14786
▁Прокурор	-14787
▁академиг	-14788
▁баянауыл	-14789
▁бейсенбі	-14790
▁боржақты	-14791
▁бәйдібек	-14792
▁головкин	-14793
▁кондитер	-14794
▁консерві	-14795
▁мохаммед	-14796
▁ондығына	-14797
▁продюсер	-14798
▁сарайшық	-14799
▁тойтарыс	-14800
▁тоғыстыр	-14801
▁тұлғалық	-14802
▁тұрақтал	-14803
▁шынықтыр	-14804
▁эволюция	-14805
▁қарсылық	-14806
▁үшжылдық	-14807
▁алтынбаев	-14808
▁заңжобасы	-14809
▁импорттау	-14810
▁кейінірек	-14811
▁логикалық	-14812
▁модульдік	-14813
▁роскосмос	-14814
▁сандықтау	-14815
▁степногор	-14816
▁теледидар	-14817
▁телерадио	-14818
▁университ	-14819
▁челябинск	-14820
▁қайырымды	-14821
▁қалтқысыз	-14822
▁қарқаралы	-14823
ханбердиева	-14824
▁industries	-14825
▁гимнастика	-14826
▁ерейментау	-14827
▁заңдылығын	-14828
▁контрафакт	-14829
▁куәландыру	-14830
▁күрделіліг	-14831
▁көптарапты	-14832
▁көрсетілме	-14833
▁танымалдығ	-14834
▁трансляция	-14835
▁фотоэлектр	-14836
▁қолайлылығ	-14837
▁ансамблінің	-14838
▁ассортимент	-14839
▁атқарушылық	-14840
▁гипермаркет	-14841
▁жасалғандығ	-14842
▁калашникова	-14843
▁цифрландыру	-14844
▁эволюциялық	-14845
▁қалмұханбет	-14846
▁қаматамасыз	-14847
▁construction	-14848
▁ықпалдастыру	-14849
▁энергоресурс	-14850
▁қатысатындық	-14851
▁құрманғалиев	-14852
▁аттестациялау	-14853
▁интернационал	-14854
▁нұрмағамбетов	-14855
▁транспарентті	-14856
▁ынтамақтастық	-14857
▁политехникалық	-14858
▁қатысқандардың	-14859
▁мультимодальдық	-14860
16	-14861
93	-14862
go	-14863
te	-14864
uk	-14865
пи	-14866
рі	-14867
ыч	-14868
эы	-14869
ada	-14870
aid	-14871
rid	-14872
ами	-14873
кею	-14874
кка	-14875
кіс	-14876
мыз	-14877
ски	-14878
цов	-14879
шел	-14880
шот	-14881
▁Ex	-14882
▁Ко	-14883
▁Эм	-14884
▁кт	-14885
▁пи	-14886
▁тэ	-14887
▁ҚА	-14888
logy	-14889
алым	-14890
амақ	-14891
аңыз	-14892
блиц	-14893
вард	-14894
ейді	-14895
жосп	-14896
және	-14897
иано	-14898
ингх	-14899
ковл	-14900
оген	-14901
убог	-14902
шель	-14903
қали	-14904
▁259	-14905
▁284	-14906
▁298	-14907
▁314	-14908
▁327	-14909
▁328	-14910
▁342	-14911
▁396	-14912
▁415	-14913
▁446	-14914
▁505	-14915
▁620	-14916
▁730	-14917
▁760	-14918
▁950	-14919
▁all	-14920
▁aut	-14921
▁cam	-14922
▁ios	-14923
▁Бәс	-14924
▁Зия	-14925
▁Иль	-14926
▁Мұс	-14927
▁Тан	-14928
▁Таш	-14929
▁Ток	-14930
▁Фар	-14931
▁ЮНИ	-14932
▁бра	-14933
▁вик	-14934
▁дип	-14935
▁діл	-14936
▁жко	-14937
▁жсқ	-14938
▁жфэ	-14939
▁иер	-14940
▁иид	-14941
▁исо	-14942
▁куч	-14943
▁лей	-14944
▁мық	-14945
▁мәй	-14946
▁нұқ	-14947
▁ода	-14948
▁рей	-14949
▁суы	-14950
▁тжк	-14951
▁тун	-14952
▁эни	-14953
▁құт	-14954
erals	-14955
арұлы	-14956
атаев	-14957
даров	-14958
дарға	-14959
иалды	-14960
касов	-14961
пақшы	-14962
редит	-14963
сында	-14964
сінов	-14965
▁1942	-14966
▁1944	-14967
▁agro	-14968
▁chev	-14969
▁cola	-14970
▁pisa	-14971
▁Одағ	-14972
▁айба	-14973
▁бест	-14974
▁бұқа	-14975
▁дель	-14976
▁диви	-14977
▁днеп	-14978
▁конъ	-14979
▁куан	-14980
[...]
