<pad>	0
<unk>	0
<s>	0
</s>	0
@@	-0
▁д	-1
▁т	-2
ар	-3
▁қ	-4
▁ы	-5
▁"	-6
▁м	-7
▁б	-8
▁с	-9
▁ж	-10
▁і	-11
ан	-12
▁а	-13
▁л	-14
▁н	-15
▁к	-16
▁у	-17
ер	-18
ен	-19
▁.	-20
▁,	-21
ал	-22
▁да	-23
▁ды	-24
ет	-25
ст	-26
▁ғ	-27
ыл	-28
▁о	-29
▁-	-30
▁қа	-31
ық	-32
ын	-33
▁ді	-34
▁де	-35
ың	-36
▁е	-37
▁ш	-38
ақ	-39
▁ын	-40
▁ө	-41
ас	-42
▁г	-43
ін	-44
ат	-45
ыр	-46
ол	-47
▁п	-48
ле	-49
ай	-50
▁ті	-51
▁сы	-52
ия	-53
ір	-54
▁ның	-55
▁ін	-56
із	-57
▁та	-58
▁ке	-59
стан	-60
▁мен	-61
▁лық	-62
не	-63
▁ты	-64
ұр	-65
он	-66
ор	-67
ағ	-68
ин	-69
▁ыс	-70
іл	-71
▁жә	-72
▁ә	-73
▁қаз	-74
▁және	-75
▁ға	-76
ақстан	-77
▁те	-78
▁ме	-79
ре	-80
ыс	-81
ыз	-82
▁кө	-83
▁ар	-84
▁2	-85
да	-86
▁бас	-87
ик	-88
▁ү	-89
▁ғы	-90
ығ	-91
ым	-92
▁қазақстан	-93
ің	-94
▁тар	-95
ика	-96
ам	-97
▁жыл	-98
▁лар	-99
▁ал	-100
ұл	-101
▁ор	-102
▁ған	-103
ік	-104
ом	-105
▁дың	-106
аз	-107
▁х	-108
▁нің	-109
▁өт	-110
▁бол	-111
аң	-112
ыт	-113
▁ай	-114
▁жо	-115
▁э	-116
ала	-117
лек	-118
▁ат	-119
ур	-120
ой	-121
▁тік	-122
▁гі	-123
▁ім	-124
ша	-125
ек	-126
▁1	-127
▁20	-128
тар	-129
әс	-130
сп	-131
мет	-132
▁іс	-133
ге	-134
де	-135
▁қар	-136
▁ел	-137
млек	-138
млекет	-139
▁ге	-140
ция	-141
▁ла	-142
▁дар	-143
▁бір	-144
▁дің	-145
ынша	-146
▁құр	-147
дар	-148
▁бар	-149
іг	-150
ұм	-151
▁ып	-152
ап	-153
▁р	-154
▁ақ	-155
▁мемлекет	-156
ес	-157
▁жұм	-158
бл	-159
▁жү	-160
▁лер	-161
алық	-162
▁өз	-163
▁ма	-164
ент	-165
ел	-166
▁бағ	-167
▁бой	-168
▁дер	-169
тыр	-170
▁ек	-171
▁ұ	-172
▁ет	-173
▁тер	-174
▁қат	-175
▁ре	-176
іп	-177
▁бойынша	-178
ев	-179
▁ин	-180
▁ас	-181
▁эк	-182
▁201	-183
▁лы	-184
▁тық	-185
▁ген	-186
ов	-187
▁на	-188
тан	-189
ға	-190
▁з	-191
▁сон	-192
алы	-193
▁дік	-194
гіз	-195
ім	-196
ау	-197
▁не	-198
▁лан	-199
▁көр	-200
▁үш	-201
▁дан	-202
ысы	-203
ей	-204
▁дық	-205
▁ау	-206
стр	-207
▁қол	-208
ид	-209
▁қыз	-210
▁кез	-211
▁кел	-212
▁бер	-213
қа	-214
ды	-215
▁тү	-216
▁өн	-217
▁Қ	-218
▁лік	-219
ара	-220
тер	-221
сы	-222
▁қо	-223
аев	-224
▁ол	-225
ған	-226
▁кү	-227
▁үшін	-228
▁тур	-229
▁ыл	-230
▁кер	-231
ит	-232
ді	-233
▁жаң	-234
▁іл	-235
▁қызмет	-236
оном	-237
▁тын	-238
▁отыр	-239
аб	-240
ономика	-241
▁біз	-242
дір	-243
кен	-244
▁мү	-245
▁құ	-246
▁ата	-247
▁әле	-248
дай	-249
▁экономика	-250
баев	-251
стыр	-252
▁шысы	-253
▁лі	-254
зид	-255
▁ком	-256
▁дай	-257
▁пре	-258
зидент	-259
▁тұр	-260
истр	-261
▁қы	-262
▁мин	-263
▁же	-264
▁қор	-265
▁ба	-266
▁сала	-267
▁мәс	-268
▁шыл	-269
інде	-270
▁он	-271
▁туралы	-272
▁бұл	-273
гия	-274
асы	-275
▁министр	-276
▁3	-277
▁ық	-278
ңге	-279
убл	-280
спубл	-281
спублика	-282
азар	-283
▁тө	-284
тал	-285
▁ф	-286
еле	-287
лер	-288
▁обл	-289
▁облыс	-290
▁ше	-291
анд	-292
▁и	-293
▁ұл	-294
▁мәселе	-295
аралық	-296
▁шылар	-297
▁мә	-298
▁президент	-299
▁жаңа	-300
▁іп	-301
▁мл	-302
алар	-303
▁жол	-304
ті	-305
▁жа	-306
▁біл	-307
▁тас	-308
▁көрс	-309
сат	-310
▁5	-311
▁әр	-312
▁асыр	-313
▁сі	-314
▁нан	-315
▁тал	-316
әсіп	-317
та	-318
▁кең	-319
▁дам	-320
▁тың	-321
өл	-322
▁са	-323
өн	-324
▁дей	-325
▁айт	-326
▁міз	-327
жет	-328
азарбаев	-329
қар	-330
▁жылы	-331
▁республика	-332
▁ес	-333
из	-334
тым	-335
ве	-336
▁тә	-337
те	-338
ында	-339
▁со	-340
▁етін	-341
▁ынтым	-342
▁қала	-343
▁бай	-344
▁ынтымақ	-345
▁екі	-346
стана	-347
▁мыз	-348
ро	-349
▁осы	-350
▁қам	-351
▁аз	-352
▁көрсет	-353
▁шы	-354
▁сондай	-355
▁ая	-356
▁жас	-357
▁бағдар	-358
алықаралық	-359
ама	-360
кі	-361
дер	-362
▁ым	-363
▁Қаз	-364
▁А	-365
▁халықаралық	-366
▁қан	-367
▁)	-368
▁дамыт	-369
▁й	-370
кіз	-371
▁4	-372
▁тан	-373
▁пен	-374
▁құрыл	-375
▁ші	-376
▁ыст	-377
▁сын	-378
▁жөн	-379
ация	-380
▁(	-381
▁ара	-382
▁мақ	-383
▁ер	-384
▁то	-385
▁қамт	-386
на	-387
▁іш	-388
ылығ	-389
▁ұй	-390
арт	-391
ке	-392
▁Қазақстан	-393
▁%	-394
▁тің	-395
▁шара	-396
▁жет	-397
спар	-398
▁пай	-399
▁жал	-400
▁ти	-401
▁жоспар	-402
▁кәсіп	-403
▁оның	-404
▁ыстар	-405
▁жүз	-406
▁сал	-407
еге	-408
▁таб	-409
▁нұр	-410
▁ұлт	-411
▁хаб	-412
▁қара	-413
▁өң	-414
ше	-415
вест	-416
им	-417
▁ден	-418
▁хал	-419
▁инвест	-420
▁мың	-421
ден	-422
ымен	-423
▁келі	-424
▁су	-425
▁бағыт	-426
▁түр	-427
кін	-428
ұлтан	-429
кіл	-430
00	-431
▁қаб	-432
▁әлеу	-433
▁негіз	-434
▁хабар	-435
ил	-436
ания	-437
▁ен	-438
▁қр	-439
▁қос	-440
▁бөл	-441
▁мүм	-442
сі	-443
▁мүмкін	-444
еке	-445
нал	-446
▁жүр	-447
хн	-448
▁маң	-449
▁сыз	-450
▁шығ	-451
▁мін	-452
▁өндір	-453
▁бү	-454
▁астана	-455
иция	-456
▁жүзеге	-457
гін	-458
▁кон	-459
ына	-460
▁гер	-461
▁бұ	-462
▁Н	-463
▁жағ	-464
▁назарбаев	-465
ары	-466
▁аш	-467
▁сіз	-468
▁жат	-469
▁әк	-470
▁:	-471
▁6	-472
▁техн	-473
ші	-474
▁заң	-475
сын	-476
▁оқ	-477
ты	-478
▁сая	-479
▁теңге	-480
▁сонымен	-481
бе	-482
▁қатар	-483
діг	-484
оло	-485
▁күн	-486
▁7	-487
▁сай	-488
▁рет	-489
▁жөнінде	-490
сұлтан	-491
орт	-492
▁в	-493
▁уды	-494
▁қау	-495
▁М	-496
өз	-497
кер	-498
▁ік	-499
▁маңыз	-500
бек	-501
ып	-502
мен	-503
▁ең	-504
▁бел	-505
▁жоғ	-506
рд	-507
ология	-508
▁әлем	-509
ген	-510
▁млрд	-511
ина	-512
▁тап	-513
ив	-514
ум	-515
▁комп	-516
аш	-517
іт	-518
тр	-519
▁арт	-520
▁өткен	-521
▁сап	-522
▁кезе	-523
▁ада	-524
ысында	-525
йе	-526
▁барысында	-527
тың	-528
▁сау	-529
▁қажет	-530
▁инвестиция	-531
▁бүгін	-532
▁қой	-533
▁төр	-534
▁мақсат	-535
▁мұ	-536
стер	-537
тор	-538
арат	-539
ылым	-540
▁бірі	-541
▁кеңес	-542
▁рес	-543
▁қарж	-544
аға	-545
▁компания	-546
▁қабыл	-547
▁өкіл	-548
▁ысы	-549
▁стар	-550
дан	-551
андыр	-552
сс	-553
▁дет	-554
лем	-555
▁8	-556
▁ле	-557
▁құра	-558
▁сақ	-559
▁жүргіз	-560
ырт	-561
▁ди	-562
▁нші	-563
▁әс	-564
▁өткіз	-565
▁әлеумет	-566
▁дә	-567
▁үй	-568
▁сә	-569
▁жүйе	-570
▁ны	-571
▁шар	-572
пы	-573
іліг	-574
▁імі	-575
айт	-576
▁ұйы	-577
▁жалпы	-578
▁шіл	-579
басы	-580
▁жоғары	-581
▁қай	-582
▁нен	-583
▁ұсын	-584
▁өңір	-585
бас	-586
▁өс	-587
▁2017	-588
дыр	-589
нер	-590
▁түс	-591
▁шақ	-592
▁9	-593
аған	-594
ліг	-595
▁есе	-596
▁сан	-597
▁дейін	-598
ут	-599
▁нұрсұлтан	-600
ран	-601
▁бе	-602
▁қамтама	-603
▁эксп	-604
▁імдер	-605
▁кере	-606
▁істер	-607
қы	-608
▁ша	-609
▁енгіз	-610
▁ауыл	-611
рі	-612
▁қазір	-613
ілік	-614
▁жаса	-615
▁мам	-616
▁би	-617
▁деңге	-618
▁Б	-619
▁көп	-620
нес	-621
▁бан	-622
дағ	-623
▁үкі	-624
иц	-625
▁қоға	-626
▁ысын	-627
▁орн	-628
▁се	-629
▁ң	-630
▁млн	-631
мес	-632
сыр	-633
дел	-634
▁му	-635
▁қауіп	-636
▁арнал	-637
▁балар	-638
▁тапсыр	-639
▁еур	-640
▁атал	-641
▁сер	-642
мір	-643
▁сен	-644
▁айм	-645
▁малар	-646
▁жер	-647
си	-648
▁энер	-649
изнес	-650
инг	-651
лам	-652
▁бала	-653
▁сін	-654
ма	-655
қан	-656
▁мдар	-657
най	-658
лар	-659
▁төраға	-660
дени	-661
▁баст	-662
ақыт	-663
▁өзара	-664
▁бизнес	-665
▁тарап	-666
парат	-667
▁қаржы	-668
▁кет	-669
▁басқар	-670
▁баға	-671
амат	-672
ғын	-673
дығ	-674
их	-675
▁үкімет	-676
қыл	-677
па	-678
▁әрі	-679
▁тең	-680
▁шару	-681
▁қатына	-682
лық	-683
▁тұ	-684
▁деңгей	-685
▁мер	-686
ган	-687
▁П	-688
жат	-689
ра	-690
▁тұрғын	-691
▁қтар	-692
▁жар	-693
▁екен	-694
▁арттыр	-695
▁уы	-696
▁пар	-697
▁азамат	-698
▁соң	-699
ейт	-700
▁ав	-701
ие	-702
▁тау	-703
ти	-704
▁керлер	-705
▁мын	-706
▁С	-707
▁мәдени	-708
▁шеш	-709
▁про	-710
▁кен	-711
▁шілер	-712
▁ак	-713
▁технология	-714
▁10	-715
▁лау	-716
итет	-717
ерт	-718
▁орын	-719
▁сп	-720
▁күш	-721
▁орган	-722
то	-723
▁ан	-724
▁масы	-725
▁көлем	-726
қылы	-727
▁арқылы	-728
ыш	-729
▁үл	-730
іс	-731
▁тәж	-732
▁қал	-733
▁нығ	-734
пен	-735
гі	-736
бер	-737
ист	-738
▁фор	-739
▁айту	-740
▁уақыт	-741
▁ақпарат	-742
▁жеке	-743
▁мек	-744
ог	-745
▁деп	-746
▁әскер	-747
▁аймақ	-748
рек	-749
▁тиім	-750
ашылығ	-751
сіз	-752
▁айтуынша	-753
▁саясат	-754
же	-755
▁уді	-756
▁Е	-757
▁ғылым	-758
ымда	-759
дағы	-760
▁дау	-761
ус	-762
▁2015	-763
▁әз	-764
▁тұра	-765
▁мы	-766
▁мед	-767
▁құқы	-768
▁пайыз	-769
▁бю	-770
▁көл	-771
▁қорыт	-772
▁басқа	-773
▁мүше	-774
▁лай	-775
стит	-776
▁сырт	-777
ри	-778
▁кәсіпор	-779
ян	-780
▁өнер	-781
сен	-782
▁сөз	-783
▁қаза	-784
▁нә	-785
▁атқар	-786
▁жеткіз	-787
исс	-788
дық	-789
▁бей	-790
▁қыл	-791
талығ	-792
▁жақ	-793
▁министрліг	-794
▁жан	-795
лығ	-796
▁алд	-797
фр	-798
▁орталығ	-799
▁оң	-800
▁шығар	-801
▁нақ	-802
▁инд	-803
▁тарт	-804
▁таң	-805
▁әзір	-806
▁сар	-807
▁емес	-808
▁ресей	-809
▁бақ	-810
▁елбасы	-811
▁әскери	-812
қат	-813
▁кі	-814
▁таны	-815
▁кәсіпорын	-816
ысан	-817
ул	-818
▁Р	-819
▁ҚР	-820
▁нысан	-821
ғай	-822
▁тәжір	-823
▁тай	-824
▁мекте	-825
джет	-826
ате	-827
▁шет	-828
▁шаруашылығ	-829
▁Ж	-830
▁Т	-831
дің	-832
▁ындар	-833
▁тәжіри	-834
▁бюджет	-835
гер	-836
▁тәжірибе	-837
▁көз	-838
▁нәти	-839
▁одан	-840
амб	-841
▁келе	-842
▁Ме	-843
▁ынд	-844
▁саяси	-845
▁я	-846
▁көш	-847
▁салы	-848
▁хат	-849
тық	-850
ламент	-851
иссия	-852
▁2016	-853
▁тәр	-854
▁отан	-855
үр	-856
▁техника	-857
ымдастыр	-858
▁Назарбаев	-859
дал	-860
▁жең	-861
▁ұйымдастыр	-862
атегия	-863
▁көм	-864
▁қорға	-865
▁қалы	-866
▁бастап	-867
▁нығайт	-868
тратегия	-869
▁ие	-870
▁ретінде	-871
▁дел	-872
▁2014	-873
басар	-874
▁кей	-875
▁банк	-876
ион	-877
▁бағыттал	-878
▁еңбек	-879
▁тәу	-880
▁форум	-881
кес	-882
▁Мемлекет	-883
▁қалып	-884
▁орынбасар	-885
▁еді	-886
▁қарастыр	-887
▁сәй	-888
▁спорт	-889
сау	-890
▁стратегия	-891
▁202	-892
▁мет	-893
ир	-894
▁атын	-895
ова	-896
▁табы	-897
▁қарсы	-898
▁элек	-899
стығ	-900
жақ	-901
▁лану	-902
▁Пре	-903
жан	-904
▁ірі	-905
▁мада	-906
▁сат	-907
▁қары	-908
ьер	-909
ғыз	-910
устр	-911
▁лады	-912
▁15	-913
▁мектеп	-914
▁тықты	-915
▁үле	-916
ос	-917
▁делін	-918
▁ағ	-919
▁лен	-920
▁экспо	-921
▁кір	-922
▁айна	-923
▁кеш	-924
▁нар	-925
ман	-926
▁еуро	-927
тің	-928
▁ту	-929
▁сәйкес	-930
иал	-931
▁аг	-932
▁улер	-933
▁лама	-934
▁тіл	-935
▁бірле	-936
▁лас	-937
▁тарих	-938
ытай	-939
орда	-940
▁өнерк	-941
▁құжат	-942
ттық	-943
иль	-944
▁белсен	-945
▁электр	-946
мьер	-947
▁ланған	-948
▁мас	-949
кіш	-950
фор	-951
▁дол	-952
▁діктер	-953
▁К	-954
▁удің	-955
ицина	-956
іб	-957
тіг	-958
▁тол	-959
▁қыр	-960
ав	-961
▁денсау	-962
▁кезең	-963
▁тен	-964
▁шетел	-965
▁тиімді	-966
▁бола	-967
▁сапа	-968
▁азия	-969
▁медицина	-970
▁индустр	-971
▁ой	-972
▁тауар	-973
▁стан	-974
▁қу	-975
▁шісі	-976
изм	-977
▁тон	-978
▁сарап	-979
▁парламент	-980
бай	-981
▁жылға	-982
▁сек	-983
▁кор	-984
қатар	-985
▁тек	-986
▁бірқатар	-987
▁бұұ	-988
▁25	-989
елсіз	-990
тандыр	-991
ок	-992
▁30	-993
▁от	-994
▁үлкен	-995
▁100	-996
ғы	-997
▁энерг	-998
▁биыл	-999
шілік	-1000
▁Астана	-1001
▁жаңғ	-1002
▁19	-1003
стік	-1004
▁төмен	-1005
▁бірлес	-1006
▁тонна	-1007
етика	-1008
енция	-1009
аман	-1010
▁маман	-1011
▁12	-1012
▁асырыл	-1013
▁екіжақ	-1014
▁ғаш	-1015
нов	-1016
ақұр	-1017
▁Президент	-1018
шы	-1019
▁Ф	-1020
▁лықтар	-1021
урс	-1022
▁құн	-1023
▁есеп	-1024
▁жалға	-1025
▁Нұр	-1026
▁улар	-1027
▁11	-1028
▁кешен	-1029
утат	-1030
▁әріп	-1031
▁200	-1032
мыш	-1033
▁қытай	-1034
ауыт	-1035
▁еуропа	-1036
▁комиссия	-1037
▁аталмыш	-1038
лік	-1039
фер	-1040
азия	-1041
фрақұр	-1042
▁депутат	-1043
тү	-1044
▁денсаулық	-1045
▁зауыт	-1046
▁инфрақұр	-1047
▁комитет	-1048
хан	-1049
ак	-1050
▁дирек	-1051
▁инфрақұрылым	-1052
▁өмір	-1053
▁мұнай	-1054
▁инстит	-1055
іліс	-1056
▁олар	-1057
жіліс	-1058
новация	-1059
▁жау	-1060
▁лес	-1061
▁өте	-1062
▁директор	-1063
бір	-1064
йік	-1065
▁тәуелсіз	-1066
▁хан	-1067
ыла	-1068
түстік	-1069
▁кеңейт	-1070
▁инновация	-1071
▁көрсеткіш	-1072
▁дір	-1073
▁энергия	-1074
▁бек	-1075
форма	-1076
▁премьер	-1077
▁кар	-1078
ад	-1079
▁зерт	-1080
▁май	-1081
▁қон	-1082
▁тей	-1083
ме	-1084
▁ындысы	-1085
▁ні	-1086
▁2020	-1087
▁анық	-1088
▁қим	-1089
▁шағ	-1090
▁жауап	-1091
▁қимыл	-1092
▁бақыла	-1093
▁ысқа	-1094
лі	-1095
▁ейік	-1096
▁энергетика	-1097
▁Ре	-1098
▁құттық	-1099
▁құттықта	-1100
▁кіз	-1101
▁долл	-1102
▁ст	-1103
▁ман	-1104
▁Республика	-1105
▁экспорт	-1106
▁тіктер	-1107
▁ах	-1108
илл	-1109
зім	-1110
әсіб	-1111
шылығ	-1112
ни	-1113
▁ыш	-1114
▁әлеует	-1115
ивер	-1116
▁сері	-1117
▁тран	-1118
атор	-1119
▁ақш	-1120
од	-1121
▁бірлескен	-1122
▁;	-1123
▁ғана	-1124
нивер	-1125
▁нәтиже	-1126
артия	-1127
ми	-1128
▁ғылыми	-1129
▁сот	-1130
найы	-1131
діліг	-1132
омат	-1133
алап	-1134
▁масын	-1135
гілік	-1136
▁дықтар	-1137
▁газ	-1138
▁мәдениет	-1139
тір	-1140
▁арнайы	-1141
гілікті	-1142
тив	-1143
▁еуразия	-1144
ун	-1145
▁мұн	-1146
▁жергілікті	-1147
▁реформа	-1148
▁тықтың	-1149
▁ің	-1150
▁дес	-1151
ференция	-1152
▁жасал	-1153
▁баян	-1154
аза	-1155
▁ңіз	-1156
▁партия	-1157
пер	-1158
▁ода	-1159
▁көтер	-1160
мағ	-1161
▁бұр	-1162
об	-1163
мат	-1164
▁сол	-1165
▁орай	-1166
▁байқа	-1167
▁О	-1168
▁жаб	-1169
ада	-1170
мыс	-1171
▁универ	-1172
▁қыс	-1173
▁заман	-1174
▁индустрия	-1175
▁жатыр	-1176
пл	-1177
ымал	-1178
▁алаң	-1179
▁милл	-1180
һан	-1181
▁ц	-1182
▁конференция	-1183
▁басп	-1184
▁сапар	-1185
▁пік	-1186
▁пікір	-1187
▁2013	-1188
иф	-1189
рат	-1190
▁жаһан	-1191
▁жу	-1192
алығ	-1193
50	-1194
▁дү	-1195
▁до	-1196
▁ашыл	-1197
дро	-1198
дылығ	-1199
дем	-1200
ілет	-1201
▁ысу	-1202
от	-1203
▁жетіл	-1204
▁құрал	-1205
▁зор	-1206
▁мем	-1207
▁топ	-1208
▁И	-1209
біт	-1210
пал	-1211
қс	-1212
ымдағы	-1213
▁соның	-1214
▁шақыр	-1215
мер	-1216
▁пол	-1217
▁14	-1218
▁кейін	-1219
▁ағымдағы	-1220
қын	-1221
▁бәс	-1222
▁бат	-1223
сін	-1224
▁тасы	-1225
▁қаң	-1226
▁назар	-1227
▁мәжіліс	-1228
▁ядро	-1229
ий	-1230
▁ықпал	-1231
ландыр	-1232
аль	-1233
ғал	-1234
▁жетілдір	-1235
▁мерзім	-1236
▁өзге	-1237
▁институт	-1238
ұра	-1239
▁бейбіт	-1240
▁дайын	-1241
▁дипл	-1242
in	-1243
▁сү	-1244
▁Д	-1245
▁әкім	-1246
▁мелер	-1247
▁Нұрсұлтан	-1248
▁әл	-1249
тын	-1250
▁кл	-1251
▁орнат	-1252
икация	-1253
▁мүд	-1254
▁тін	-1255
лея	-1256
▁Ш	-1257
шс	-1258
шіліг	-1259
▁жаңғырт	-1260
▁2018	-1261
во	-1262
▁барлығ	-1263
▁жай	-1264
▁шарт	-1265
лег	-1266
ылар	-1267
▁асс	-1268
ситет	-1269
▁ве	-1270
тастығ	-1271
▁өнеркәсіп	-1272
▁жылдығ	-1273
тастыр	-1274
▁ыспен	-1275
тіліг	-1276
ссөз	-1277
▁әб	-1278
▁келіссөз	-1279
▁Ұ	-1280
▁жшс	-1281
тығ	-1282
▁13	-1283
▁оны	-1284
▁тір	-1285
за	-1286
▁шең	-1287
▁үз	-1288
▁тес	-1289
▁жақс	-1290
▁мүдде	-1291
▁k	-1292
ыландыр	-1293
▁хабарл	-1294
▁шеңбер	-1295
амблея	-1296
▁бірге	-1297
▁бәсеке	-1298
▁ісі	-1299
ымша	-1300
▁инвестор	-1301
▁бен	-1302
▁фе	-1303
▁орна	-1304
▁ың	-1305
▁жи	-1306
уд	-1307
ақы	-1308
дом	-1309
▁университет	-1310
▁қаржыландыр	-1311
▁ліктер	-1312
қтал	-1313
іміз	-1314
▁деттер	-1315
▁авто	-1316
▁ыса	-1317
▁талап	-1318
есс	-1319
▁шек	-1320
інше	-1321
сер	-1322
▁төле	-1323
ықтыр	-1324
▁айнал	-1325
тө	-1326
▁герлер	-1327
▁қада	-1328
стіг	-1329
▁ведом	-1330
▁ап	-1331
▁18	-1332
▁делег	-1333
▁тақ	-1334
▁сектор	-1335
▁білдір	-1336
▁тады	-1337
▁мон	-1338
▁мар	-1339
спек	-1340
▁тақыр	-1341
ағандай	-1342
▁мемор	-1343
▁қалыптастыр	-1344
▁шын	-1345
қым	-1346
▁мүмкіндіг	-1347
▁әй	-1348
▁темір	-1349
ыб	-1350
▁16	-1351
▁оқыт	-1352
басшы	-1353
ұлы	-1354
ко	-1355
месе	-1356
ство	-1357
▁қарай	-1358
▁немесе	-1359
тен	-1360
▁қаражат	-1361
▁хабарлағандай	-1362
st	-1363
ста	-1364
▁ынтымақтастығ	-1365
▁қойыл	-1366
тіб	-1367
▁ктер	-1368
▁ауқым	-1369
▁дипломат	-1370
▁жина	-1371
▁Ә	-1372
▁қуат	-1373
▁0	-1374
▁суб	-1375
▁оған	-1376
▁әу	-1377
▁ч	-1378
▁нес	-1379
▁жуық	-1380
▁тәртіб	-1381
төбе	-1382
▁уын	-1383
▁база	-1384
▁17	-1385
▁сам	-1386
▁мей	-1387
▁көпте	-1388
ние	-1389
әсім	-1390
▁ассамблея	-1391
ед	-1392
ең	-1393
ем	-1394
▁аудар	-1395
ице	-1396
ТО	-1397
▁жүк	-1398
▁ведомство	-1399
▁рөл	-1400
▁50	-1401
▁вице	-1402
▁пер	-1403
▁бері	-1404
▁арқа	-1405
▁месі	-1406
▁ресми	-1407
мин	-1408
▁жақсы	-1409
ск	-1410
ылық	-1411
ола	-1412
▁ФО	-1413
иев	-1414
▁ФОТО	-1415
▁жария	-1416
▁уда	-1417
ңғ	-1418
▁аумағ	-1419
▁меке	-1420
▁мереке	-1421
▁імге	-1422
▁пә	-1423
▁отбасы	-1424
▁қосымша	-1425
ура	-1426
▁тасымал	-1427
асөз	-1428
▁жедел	-1429
▁ықтың	-1430
▁ис	-1431
▁дәрі	-1432
▁күре	-1433
ындағы	-1434
▁баспасөз	-1435
▁өр	-1436
▁ір	-1437
▁көптеген	-1438
ата	-1439
тел	-1440
▁қорған	-1441
▁мақсаты	-1442
▁Ақ	-1443
▁сый	-1444
истика	-1445
иет	-1446
қсан	-1447
▁көрсе	-1448
қанда	-1449
▁таныстыр	-1450
▁пав	-1451
▁Ел	-1452
▁оңтүстік	-1453
андум	-1454
▁алып	-1455
▁дүние	-1456
▁кезег	-1457
▁қабілет	-1458
▁проц	-1459
▁делегация	-1460
▁меморандум	-1461
▁айтқанда	-1462
▁салыстыр	-1463
▁несие	-1464
▁рәсім	-1465
▁ымдар	-1466
▁тағай	-1467
▁орны	-1468
ғи	-1469
▁пал	-1470
уал	-1471
гр	-1472
▁Ал	-1473
▁бал	-1474
▁онда	-1475
ез	-1476
▁бекіт	-1477
▁эт	-1478
стүр	-1479
▁дем	-1480
▁дәстүр	-1481
зия	-1482
▁бірік	-1483
▁әйел	-1484
▁басын	-1485
жай	-1486
итал	-1487
ъек	-1488
уция	-1489
бат	-1490
▁авт	-1491
▁дағ	-1492
▁көшбасшы	-1493
▁маңыздылығ	-1494
an	-1495
ңіл	-1496
цион	-1497
▁лей	-1498
▁қарастырыл	-1499
нет	-1500
▁бри	-1501
▁кіт	-1502
▁ру	-1503
▁көңіл	-1504
▁аса	-1505
▁қылмыс	-1506
▁жі	-1507
итар	-1508
▁жеңіл	-1509
▁жел	-1510
▁лап	-1511
▁нама	-1512
▁электрон	-1513
жү	-1514
ституция	-1515
діс	-1516
усым	-1517
▁маусым	-1518
▁мат	-1519
амен	-1520
▁себе	-1521
▁қоса	-1522
▁кеден	-1523
уір	-1524
ис	-1525
мола	-1526
▁жақсарт	-1527
іне	-1528
▁ресурс	-1529
▁осын	-1530
ло	-1531
▁сө	-1532
стір	-1533
▁палата	-1534
▁теу	-1535
дарт	-1536
▁студ	-1537
ард	-1538
▁деу	-1539
▁қоз	-1540
▁комм	-1541
са	-1542
▁корп	-1543
ңг	-1544
▁пе	-1545
▁күт	-1546
▁бөліг	-1547
мит	-1548
ҚО	-1549
▁мәлі	-1550
▁лікті	-1551
ип	-1552
оз	-1553
▁нарығ	-1554
▁тр	-1555
▁Э	-1556
▁стандарт	-1557
▁мәлімет	-1558
▁ланып	-1559
▁студент	-1560
ессия	-1561
▁елорда	-1562
андандыр	-1563
▁жалғастыр	-1564
▁сайын	-1565
бақ	-1566
▁қызығ	-1567
йт	-1568
▁сондық	-1569
алды	-1570
▁тұл	-1571
▁бастал	-1572
▁қосыл	-1573
етін	-1574
▁тарихи	-1575
▁есеб	-1576
▁ыр	-1577
ериал	-1578
▁агент	-1579
жол	-1580
▁ңыз	-1581
іме	-1582
ауи	-1583
▁әңг	-1584
кия	-1585
▁жап	-1586
▁құрмет	-1587
кү	-1588
▁әңгіме	-1589
▁көк	-1590
▁әуе	-1591
▁жаз	-1592
▁тексер	-1593
▁шаруа	-1594
яр	-1595
▁бә	-1596
▁әкімдіг	-1597
ихат	-1598
▁сия	-1599
▁этн	-1600
▁нәтиж	-1601
▁еліміз	-1602
▁опер	-1603
▁материал	-1604
▁лыққа	-1605
▁иде	-1606
▁қарал	-1607
▁мал	-1608
▁аяқтал	-1609
▁бейбітшілік	-1610
ъекті	-1611
қты	-1612
қо	-1613
▁айқын	-1614
▁құны	-1615
▁сияқты	-1616
▁дайлар	-1617
есінде	-1618
елен	-1619
йле	-1620
▁заманауи	-1621
▁баны	-1622
▁жасыл	-1623
ка	-1624
▁70	-1625
жүз	-1626
▁шам	-1627
танат	-1628
▁нәтижесінде	-1629
мі	-1630
дік	-1631
▁жәр	-1632
▁сөйле	-1633
▁a	-1634
▁ықтар	-1635
▁әрек	-1636
▁процес	-1637
▁әрекет	-1638
лы	-1639
кт	-1640
▁бө	-1641
▁тм	-1642
▁конституция	-1643
▁аралығ	-1644
▁көрсетіл	-1645
▁салтанат	-1646
эо	-1647
▁тоб	-1648
жыр	-1649
▁туризм	-1650
олд	-1651
▁нор	-1652
▁40	-1653
▁дағдар	-1654
жа	-1655
жым	-1656
▁келтір	-1657
▁c	-1658
урыз	-1659
▁ала	-1660
▁2019	-1661
▁ғал	-1662
▁әрбір	-1663
спектив	-1664
ант	-1665
▁басы	-1666
▁бүкіл	-1667
▁қырғыз	-1668
▁перспектив	-1669
▁федер	-1670
▁ынған	-1671
▁осындай	-1672
бі	-1673
▁ұлы	-1674
▁проб	-1675
▁сондықтан	-1676
жүзі	-1677
▁кәсіб	-1678
▁лесіп	-1679
▁үм	-1680
▁бұрын	-1681
▁әсер	-1682
ылорда	-1683
▁дін	-1684
ңғыш	-1685
ыңғай	-1686
▁қыркү	-1687
▁із	-1688
▁үст	-1689
▁перспектива	-1690
▁негізінде	-1691
▁ег	-1692
▁сім	-1693
▁даны	-1694
ағат	-1695
er	-1696
▁турист	-1697
▁тұлға	-1698
▁жүргізіл	-1699
▁21	-1700
▁мо	-1701
▁қайрат	-1702
▁тиімділіг	-1703
обиль	-1704
▁лет	-1705
▁үміт	-1706
▁бірыңғай	-1707
▁үн	-1708
▁g	-1709
▁22	-1710
▁өнеркәсіб	-1711
піл	-1712
ылған	-1713
лема	-1714
ғни	-1715
▁яғни	-1716
▁наурыз	-1717
▁тіз	-1718
▁тұт	-1719
▁ғар	-1720
▁аймағ	-1721
▁24	-1722
айн	-1723
қаев	-1724
арғы	-1725
▁ака	-1726
▁тағайында	-1727
▁ко	-1728
▁проблема	-1729
үл	-1730
▁еа	-1731
▁күр	-1732
▁рын	-1733
▁В	-1734
шік	-1735
▁дайда	-1736
▁ем	-1737
йек	-1738
беков	-1739
атын	-1740
▁ашы	-1741
▁стер	-1742
▁ахуал	-1743
▁мыс	-1744
▁сәт	-1745
▁тмд	-1746
▁академ	-1747
кел	-1748
тылығ	-1749
эк	-1750
▁жауапкер	-1751
▁идея	-1752
▁стыр	-1753
▁дипломатия	-1754
▁ед	-1755
▁түлік	-1756
▁муз	-1757
лодар	-1758
▁қоры	-1759
грация	-1760
▁ақтөбе	-1761
▁кәсіпкер	-1762
▁23	-1763
▁лог	-1764
▁еаэо	-1765
▁им	-1766
▁таби	-1767
▁2050	-1768
▁лана	-1769
сал	-1770
▁гум	-1771
тоқсан	-1772
▁маны	-1773
▁тыда	-1774
▁кап	-1775
идат	-1776
▁желтоқсан	-1777
▁жаңарт	-1778
▁қын	-1779
атив	-1780
финг	-1781
▁ниет	-1782
▁басшылығ	-1783
▁даяр	-1784
ах	-1785
▁тама	-1786
▁дана	-1787
▁данын	-1788
лан	-1789
▁маш	-1790
▁миллион	-1791
ның	-1792
▁милли	-1793
▁оқи	-1794
▁кітап	-1795
▁бо	-1796
▁терең	-1797
▁код	-1798
етов	-1799
▁мамыр	-1800
▁толықтыр	-1801
▁жылына	-1802
лт	-1803
▁дүниежүзі	-1804
▁ұш	-1805
▁данған	-1806
▁академия	-1807
ының	-1808
▁екендіг	-1809
мания	-1810
▁миллиард	-1811
ілер	-1812
▁транс	-1813
▁жоғарғы	-1814
on	-1815
▁қтың	-1816
al	-1817
▁саммит	-1818
▁инте	-1819
шер	-1820
▁кепіл	-1821
оль	-1822
раф	-1823
▁күшейт	-1824
андығ	-1825
алог	-1826
▁теңіз	-1827
се	-1828
олдинг	-1829
▁метал	-1830
▁тұңғыш	-1831
кур	-1832
▁s	-1833
▁өзбек	-1834
▁брифинг	-1835
уру	-1836
▁қх	-1837
анитар	-1838
▁фран	-1839
▁28	-1840
▁аб	-1841
▁дамы	-1842
▁e	-1843
▁сұра	-1844
▁кәсіби	-1845
ификация	-1846
▁интеграция	-1847
ония	-1848
▁қараған	-1849
▁соғ	-1850
▁ауру	-1851
▁тарат	-1852
▁дап	-1853
▁тақырыб	-1854
▁қою	-1855
▁көздел	-1856
▁алған	-1857
▁айтар	-1858
▁26	-1859
▁құқ	-1860
▁жары	-1861
▁үдер	-1862
оп	-1863
▁орындал	-1864
▁ына	-1865
▁диалог	-1866
▁мға	-1867
▁даған	-1868
анитарлық	-1869
аг	-1870
арус	-1871
▁конс	-1872
▁рат	-1873
▁ленген	-1874
ль	-1875
▁ұз	-1876
хани	-1877
▁бөле	-1878
▁ислам	-1879
▁месін	-1880
▁холдинг	-1881
атр	-1882
▁агро	-1883
сіздіг	-1884
пін	-1885
▁тұжыр	-1886
рор	-1887
жетім	-1888
амбыл	-1889
▁ратификация	-1890
▁қи	-1891
▁акция	-1892
▁алтын	-1893
▁нам	-1894
▁тіке	-1895
▁кәсіпкерлер	-1896
уль	-1897
▁қолдан	-1898
▁уч	-1899
▁логистика	-1900
▁60	-1901
▁ұжым	-1902
таев	-1903
егей	-1904
▁прокур	-1905
▁төрт	-1906
▁түз	-1907
▁әд	-1908
уб	-1909
минар	-1910
▁семинар	-1911
▁экология	-1912
▁ю	-1913
▁ісін	-1914
▁27	-1915
▁шекара	-1916
гері	-1917
▁199	-1918
дегі	-1919
▁дәл	-1920
▁лықты	-1921
▁Ү	-1922
▁табыл	-1923
▁гуманитарлық	-1924
▁сессия	-1925
▁түркия	-1926
імов	-1927
▁метр	-1928
▁қаңтар	-1929
▁Х	-1930
ото	-1931
▁иран	-1932
асп	-1933
лайн	-1934
▁зей	-1935
▁сүр	-1936
▁болаш	-1937
ея	-1938
▁мәр	-1939
▁ымы	-1940
▁00	-1941
▁мақұл	-1942
▁қолжетім	-1943
▁қыркүйек	-1944
▁дікті	-1945
▁болашағ	-1946
▁ындылар	-1947
▁29	-1948
▁ыққа	-1949
▁онлайн	-1950
▁i	-1951
▁ұк	-1952
▁капитал	-1953
▁ласқан	-1954
иг	-1955
▁ғим	-1956
▁федерация	-1957
▁учас	-1958
▁жанында	-1959
▁рухани	-1960
▁қысқар	-1961
▁ынға	-1962
▁ғимарат	-1963
ель	-1964
▁бұз	-1965
▁серпін	-1966
▁бес	-1967
▁оқиға	-1968
▁корпор	-1969
кент	-1970
▁келесі	-1971
▁Г	-1972
арусь	-1973
ұх	-1974
▁теп	-1975
▁санал	-1976
айда	-1977
▁кад	-1978
▁там	-1979
▁департ	-1980
метов	-1981
▁конц	-1982
хат	-1983
▁беріл	-1984
▁қауіпсіздіг	-1985
кра	-1986
шев	-1987
▁зейнет	-1988
▁ілгері	-1989
▁мәрте	-1990
бие	-1991
жыл	-1992
▁ұр	-1993
▁наз	-1994
▁сұр	-1995
az	-1996
▁шық	-1997
▁үйле	-1998
▁тікті	-1999
▁германия	-2000
етті	-2001
at	-2002
ъез	-2003
▁Елбасы	-2004
▁террор	-2005
▁мән	-2006
▁ққа	-2007
▁дал	-2008
▁өзбекстан	-2009
▁удан	-2010
▁баның	-2011
би	-2012
▁кеше	-2013
▁қамтыл	-2014
▁қозғал	-2015
имия	-2016
бақша	-2017
▁түсін	-2018
▁шамамен	-2019
▁жібер	-2020
▁мұндай	-2021
▁балабақша	-2022
▁табиғи	-2023
▁тіле	-2024
▁ғалым	-2025
▁мөл	-2026
▁игер	-2027
ағын	-2028
▁інген	-2029
▁барынша	-2030
▁қырғызстан	-2031
▁сәуір	-2032
имп	-2033
▁кадр	-2034
en	-2035
or	-2036
ПО	-2037
▁акті	-2038
▁хана	-2039
▁мде	-2040
▁жаңғыр	-2041
▁өзі	-2042
итор	-2043
▁лат	-2044
▁шт	-2045
▁съез	-2046
ру	-2047
▁ос	-2048
▁сана	-2049
▁бұған	-2050
▁ауған	-2051
▁сұлтан	-2052
▁тәрбие	-2053
▁тірке	-2054
▁сүт	-2055
▁үйлестір	-2056
▁қолай	-2057
уникация	-2058
▁Мә	-2059
▁ліктің	-2060
дж	-2061
▁кол	-2062
▁өзг	-2063
▁интер	-2064
кл	-2065
▁Ө	-2066
▁ыз	-2067
▁өзгерт	-2068
▁2012	-2069
быр	-2070
▁сына	-2071
▁ұстан	-2072
▁лықтың	-2073
▁учаске	-2074
▁гүл	-2075
▁тоқаев	-2076
апат	-2077
▁жою	-2078
▁үне	-2079
▁қажеттіг	-2080
▁p	-2081
▁транз	-2082
▁жіг	-2083
▁машина	-2084
▁ана	-2085
▁автом	-2086
▁ғысы	-2087
алықова	-2088
▁жәрдем	-2089
өнер	-2090
▁мұх	-2091
▁егер	-2092
▁кеңі	-2093
▁500	-2094
▁мұнда	-2095
▁қазан	-2096
станай	-2097
▁ұсыныл	-2098
▁марапат	-2099
иада	-2100
▁бейне	-2101
▁тигіз	-2102
▁ақмола	-2103
▁субъекті	-2104
ла	-2105
▁мұра	-2106
ИД	-2107
▁алайда	-2108
ғыста	-2109
краина	-2110
порт	-2111
ысын	-2112
▁мөлшер	-2113
▁транзит	-2114
▁біріктір	-2115
▁ауы	-2116
▁реж	-2117
▁імін	-2118
▁дас	-2119
▁пат	-2120
ограф	-2121
▁уден	-2122
▁еқы	-2123
▁маған	-2124
▁еқыұ	-2125
▁бойы	-2126
▁құқығ	-2127
▁ыста	-2128
▁ере	-2129
ғайт	-2130
▁бары	-2131
▁таған	-2132
▁химия	-2133
иация	-2134
ағынтаев	-2135
▁жігер	-2136
▁кә	-2137
неше	-2138
▁Ұлт	-2139
▁өркен	-2140
▁ұлғайт	-2141
▁бірнеше	-2142
КС	-2143
есе	-2144
▁31	-2145
▁ескер	-2146
▁алға	-2147
▁маның	-2148
▁b	-2149
▁бағы	-2150
▁одағ	-2151
▁үр	-2152
▁металл	-2153
▁80	-2154
▁300	-2155
▁ереже	-2156
▁ци	-2157
▁арна	-2158
▁қалп	-2159
▁мысал	-2160
▁барысы	-2161
▁аэ	-2162
▁ЭКС	-2163
▁кейбір	-2164
▁бақыт	-2165
▁тіркел	-2166
ar	-2167
тіп	-2168
▁ЭКСПО	-2169
▁беларусь	-2170
▁индустриал	-2171
▁сыбай	-2172
қал	-2173
ургия	-2174
▁об	-2175
▁дере	-2176
▁пәтер	-2177
▁агенттіг	-2178
паз	-2179
▁инж	-2180
▁тәртіп	-2181
▁ки	-2182
▁kaz	-2183
▁жур	-2184
▁павлодар	-2185
▁автомобиль	-2186
діқ	-2187
▁театр	-2188
▁қағ	-2189
рық	-2190
▁цифр	-2191
сид	-2192
ех	-2193
▁журнал	-2194
рам	-2195
▁дану	-2196
ана	-2197
▁ынды	-2198
аластыр	-2199
▁мамандандыр	-2200
кция	-2201
▁жемі	-2202
▁импорт	-2203
▁кем	-2204
импиада	-2205
▁солтүстік	-2206
▁тыс	-2207
лихат	-2208
ария	-2209
ег	-2210
▁бр	-2211
ич	-2212
▁уде	-2213
▁дәре	-2214
▁t	-2215
азым	-2216
іш	-2217
сте	-2218
▁жин	-2219
▁сып	-2220
▁фак	-2221
ильон	-2222
діқалықова	-2223
▁35	-2224
▁миссия	-2225
▁орналастыр	-2226
▁інші	-2227
▁қуан	-2228
көл	-2229
▁түй	-2230
▁түзет	-2231
▁дәреже	-2232
▁павильон	-2233
▁N	-2234
анда	-2235
▁лауазым	-2236
▁/	-2237
▁еш	-2238
ратия	-2239
ья	-2240
▁әдіс	-2241
▁кетер	-2242
▁га	-2243
дек	-2244
▁діктің	-2245
атура	-2246
май	-2247
сидия	-2248
▁зейнетақы	-2249
▁порт	-2250
▁тақырып	-2251
▁in	-2252
▁субсидия	-2253
▁мәслихат	-2254
▁өкілетті	-2255
▁атқарыл	-2256
▁дайы	-2257
▁таныт	-2258
▁украина	-2259
мұ	-2260
▁зия	-2261
▁меншік	-2262
▁коммуникация	-2263
шан	-2264
ұқ	-2265
сыз	-2266
▁қызылорда	-2267
▁амер	-2268
▁рейт	-2269
▁өтіл	-2270
ro	-2271
▁канд	-2272
▁тығыз	-2273
▁себебі	-2274
▁тұрақ	-2275
таралық	-2276
ымкент	-2277
ократия	-2278
кеу	-2279
ңгі	-2280
амент	-2281
▁тыққа	-2282
▁тіктің	-2283
▁қысқарт	-2284
▁кандидат	-2285
▁леу	-2286
▁бірегей	-2287
▁қолжетімді	-2288
▁32	-2289
▁айрық	-2290
▁индустрияландыр	-2291
тас	-2292
ымдастығ	-2293
▁түсіндір	-2294
лен	-2295
▁сенат	-2296
▁үрдіс	-2297
елендір	-2298
▁ауғанстан	-2299
▁бос	-2300
кәсіп	-2301
▁теле	-2302
▁терроризм	-2303
▁азайт	-2304
▁тесі	-2305
▁қауымдастығ	-2306
пақ	-2307
▁біт	-2308
▁деті	-2309
▁тәуелсіздіг	-2310
тік	-2311
дит	-2312
▁Қар	-2313
ник	-2314
▁бет	-2315
▁бедел	-2316
▁ескерт	-2317
▁департамент	-2318
▁No	-2319
▁метін	-2320
▁негіздел	-2321
▁патри	-2322
▁біріккен	-2323
▁сеп	-2324
▁гісі	-2325
▁себеп	-2326
▁шик	-2327
▁пор	-2328
▁ықты	-2329
▁тат	-2330
▁фил	-2331
▁жамбыл	-2332
▁рейтинг	-2333
ди	-2334
▁көб	-2335
аспий	-2336
▁бау	-2337
▁шебер	-2338
▁2010	-2339
▁гран	-2340
▁шикіз	-2341
ография	-2342
▁атам	-2343
▁шикізат	-2344
өнеркәсіп	-2345
▁З	-2346
міс	-2347
ырау	-2348
ью	-2349
імен	-2350
ікстан	-2351
▁станция	-2352
▁қажеттіліг	-2353
▁мып	-2354
▁корея	-2355
▁сұран	-2356
▁корпорация	-2357
▁ынып	-2358
тания	-2359
енко	-2360
▁гек	-2361
▁пра	-2362
▁мүге	-2363
▁төтен	-2364
▁шақта	-2365
бол	-2366
рес	-2367
інің	-2368
▁жаттығ	-2369
ұлов	-2370
▁нау	-2371
▁құбыр	-2372
▁мамин	-2373
ая	-2374
байжан	-2375
▁қана	-2376
▁курс	-2377
▁команда	-2378
ирия	-2379
ена	-2380
енер	-2381
▁нас	-2382
▁баса	-2383
▁гектар	-2384
es	-2385
айтын	-2386
олия	-2387
▁маг	-2388
▁шаққа	-2389
▁Үкі	-2390
▁мүгедек	-2391
▁шыұ	-2392
▁мдер	-2393
▁музей	-2394
аларындағы	-2395
▁ку	-2396
▁колле	-2397
▁жайт	-2398
▁сақтал	-2399
▁франция	-2400
▁за	-2401
▁риз	-2402
▁түле	-2403
▁кес	-2404
імпаз	-2405
▁жеңімпаз	-2406
▁теміржол	-2407
▁жауапкершілік	-2408
▁км	-2409
▁демократия	-2410
пан	-2411
▁рас	-2412
▁концерт	-2413
▁индустриалды	-2414
опер	-2415
▁төрағ	-2416
▁қалған	-2417
ционалды	-2418
▁тариф	-2419
▁kz	-2420
▁менің	-2421
▁ұза	-2422
▁!	-2423
ост	-2424
▁дандар	-2425
▁фактор	-2426
▁патриот	-2427
жар	-2428
▁маға	-2429
▁төрағалығ	-2430
мей	-2431
▁вал	-2432
▁ақтар	-2433
икер	-2434
дың	-2435
▁уағ	-2436
мб	-2437
▁уі	-2438
▁ысқан	-2439
▁леп	-2440
▁мең	-2441
▁әсір	-2442
▁портал	-2443
▁институ	-2444
▁олимпиада	-2445
it	-2446
идер	-2447
▁лісі	-2448
▁босат	-2449
▁аппарат	-2450
▁консуль	-2451
стив	-2452
▁90	-2453
дандыр	-2454
▁спикер	-2455
дергі	-2456
▁меге	-2457
▁ынтал	-2458
▁жаңартыл	-2459
▁тая	-2460
індегі	-2461
ритания	-2462
ков	-2463
▁дайындал	-2464
▁ынталандыр	-2465
есі	-2466
▁45	-2467
▁агр	-2468
▁кедергі	-2469
▁әсіресе	-2470
▁бу	-2471
▁тысы	-2472
▁m	-2473
тыл	-2474
▁діни	-2475
▁ұйымдастырыл	-2476
▁оз	-2477
шар	-2478
▁құс	-2479
ұқсат	-2480
орд	-2481
▁бұй	-2482
▁жандандыр	-2483
ны	-2484
урет	-2485
▁дұр	-2486
▁үнем	-2487
▁енгізіл	-2488
▁алқа	-2489
▁қатер	-2490
ыбритания	-2491
▁хабардар	-2492
қара	-2493
жанов	-2494
▁сирия	-2495
▁сип	-2496
▁рұқсат	-2497
▁Мәжіліс	-2498
▁өткізіл	-2499
▁сипат	-2500
ламен	-2501
▁септіг	-2502
▁қостанай	-2503
ва	-2504
▁араб	-2505
▁қадағ	-2506
▁режим	-2507
▁уағда	-2508
▁асқар	-2509
▁тартыл	-2510
▁қолданыл	-2511
▁еле	-2512
бан	-2513
емп	-2514
▁дім	-2515
әсіл	-2516
▁Ақмола	-2517
▁2011	-2518
▁әкел	-2519
▁өсір	-2520
▁күтіл	-2521
гро	-2522
дия	-2523
▁күй	-2524
емпион	-2525
▁бірліг	-2526
▁маңғыста	-2527
тика	-2528
манов	-2529
▁байқал	-2530
▁жапония	-2531
елер	-2532
кістан	-2533
ұлттық	-2534
▁инженер	-2535
▁қағи	-2536
▁шо	-2537
▁қағида	-2538
▁институционалды	-2539
▁кан	-2540
▁чемпион	-2541
▁ұм	-2542
▁саб	-2543
▁тәжікстан	-2544
ктор	-2545
▁формат	-2546
▁доллар	-2547
пай	-2548
▁дс	-2549
ұрық	-2550
▁айтыл	-2551
▁сақтандыр	-2552
лн	-2553
шег	-2554
тестіг	-2555
▁болжа	-2556
▁ұрпақ	-2557
дап	-2558
▁жеделхат	-2559
ұс	-2560
▁мүлік	-2561
▁шығарыл	-2562
▁өл	-2563
▁шымкент	-2564
▁қадағала	-2565
бег	-2566
▁мәңгі	-2567
▁фестив	-2568
▁парламен	-2569
▁зал	-2570
▁сынды	-2571
▁қуаттылығ	-2572
ба	-2573
▁атырау	-2574
▁Үкімет	-2575
▁Ақтөбе	-2576
▁коммер	-2577
▁33	-2578
▁дайды	-2579
▁мерейт	-2580
▁игі	-2581
омарт	-2582
ашылық	-2583
▁проф	-2584
▁модел	-2585
▁насихат	-2586
▁зат	-2587
▁трлн	-2588
▁тәсіл	-2589
▁тоқтал	-2590
▁мерейтой	-2591
▁таза	-2592
лел	-2593
▁ары	-2594
▁көше	-2595
▁журналист	-2596
▁прокуратура	-2597
▁конт	-2598
▁36	-2599
▁аграр	-2600
▁колледж	-2601
▁стат	-2602
▁комму	-2603
айым	-2604
▁баспана	-2605
ыст	-2606
ғыр	-2607
▁пр	-2608
▁Сен	-2609
▁салаларындағы	-2610
▁күніне	-2611
ағы	-2612
▁коопер	-2613
▁ншіден	-2614
рем	-2615
▁v	-2616
▁тұрмыс	-2617
stan	-2618
▁поль	-2619
▁тобы	-2620
▁тікке	-2621
▁каспий	-2622
▁ыны	-2623
▁грант	-2624
▁си	-2625
▁лілер	-2626
▁қазына	-2627
▁мыр	-2628
уш	-2629
лде	-2630
▁34	-2631
курс	-2632
атындығ	-2633
налды	-2634
▁америка	-2635
▁мол	-2636
▁лаған	-2637
▁қарыз	-2638
аның	-2639
▁суд	-2640
ктика	-2641
▁механ	-2642
▁мектеб	-2643
▁монитор	-2644
▁қарс	-2645
еліг	-2646
▁үйр	-2647
ланд	-2648
▁дәлел	-2649
▁ұқ	-2650
▁Еур	-2651
▁Мин	-2652
▁автокөл	-2653
▁коммерция	-2654
▁коммуналды	-2655
ілді	-2656
▁гіз	-2657
▁қха	-2658
▁тегін	-2659
▁дж	-2660
▁польша	-2661
ЭО	-2662
▁па	-2663
▁танымал	-2664
▁еэк	-2665
▁сағат	-2666
▁f	-2667
▁ынын	-2668
асыр	-2669
▁150	-2670
▁қақ	-2671
▁туған	-2672
▁сағынтаев	-2673
▁ШҚО	-2674
▁жасаған	-2675
▁мониторинг	-2676
дб	-2677
▁судья	-2678
ion	-2679
▁тағ	-2680
ұхбат	-2681
▁жинал	-2682
▁қарсаң	-2683
▁конкурс	-2684
lo	-2685
енд	-2686
▁ЕА	-2687
ыңғы	-2688
бетов	-2689
▁Қыз	-2690
▁сұхбат	-2691
аратын	-2692
▁Премьер	-2693
▁әбдіқалықова	-2694
▁іне	-2695
▁сурет	-2696
▁қарап	-2697
▁қысқа	-2698
өк	-2699
▁операция	-2700
анов	-2701
▁келіс	-2702
▁шығаратын	-2703
редит	-2704
▁жайлы	-2705
▁d	-2706
▁бауыр	-2707
▁леген	-2708
▁АҚ	-2709
▁Бү	-2710
терек	-2711
▁әкімшіліг	-2712
▁семей	-2713
30	-2714
▁ста	-2715
▁тықтар	-2716
▁келешег	-2717
▁ЕАЭО	-2718
еу	-2719
▁сез	-2720
▁бұқара	-2721
▁автокөлік	-2722
▁мәселен	-2723
ve	-2724
лад	-2725
ңке	-2726
▁қайыр	-2727
▁ғылар	-2728
▁қондыр	-2729
ио	-2730
есей	-2731
▁мак	-2732
▁фар	-2733
▁гері	-2734
▁жүре	-2735
▁таға	-2736
▁ұста	-2737
юта	-2738
▁автомат	-2739
▁виз	-2740
▁металлургия	-2741
тай	-2742
▁38	-2743
▁тамаша	-2744
▁жіб	-2745
▁ысып	-2746
▁қхр	-2747
імділіг	-2748
мения	-2749
▁37	-2750
▁ео	-2751
▁Ресей	-2752
▁?	-2753
▁дө	-2754
▁еңбег	-2755
▁әуежай	-2756
имат	-2757
▁Министр	-2758
▁алдымен	-2759
▁Қызылорда	-2760
▁ассамблеясы	-2761
▁ғасыр	-2762
▁қарсаңында	-2763
▁бірақ	-2764
▁ұлыбритания	-2765
▁Л	-2766
ic	-2767
лау	-2768
ындал	-2769
▁конв	-2770
▁тамыз	-2771
ұрт	-2772
тация	-2773
▁ауқат	-2774
▁түскен	-2775
▁алдыңғы	-2776
▁есептел	-2777
▁полиция	-2778
▁іктер	-2779
▁фин	-2780
▁итал	-2781
▁валюта	-2782
▁құл	-2783
▁апат	-2784
▁дету	-2785
▁шаған	-2786
▁үкіметаралық	-2787
▁бәй	-2788
▁құз	-2789
▁жауапкершіліг	-2790
▁асп	-2791
▁инф	-2792
▁италия	-2793
▁Бүгін	-2794
▁ән	-2795
ерал	-2796
▁Фото	-2797
▁актив	-2798
▁басым	-2799
грес	-2800
▁деген	-2801
шелендір	-2802
▁ханалар	-2803
▁интернет	-2804
ендір	-2805
арация	-2806
екен	-2807
▁аға	-2808
▁айыр	-2809
▁арал	-2810
▁x	-2811
▁ато	-2812
▁фер	-2813
▁ұзақ	-2814
▁ғыда	-2815
▁демал	-2816
▁туында	-2817
орған	-2818
▁кері	-2819
▁қалай	-2820
▁леді	-2821
▁мәскеу	-2822
▁агроөнеркәсіп	-2823
шеліг	-2824
▁секілді	-2825
▁Әб	-2826
▁аралап	-2827
тат	-2828
▁Заң	-2829
▁Пар	-2830
олог	-2831
▁мой	-2832
▁әділ	-2833
▁жұмыл	-2834
▁әбдір	-2835
кемен	-2836
ірт	-2837
ысов	-2838
▁қыш	-2839
▁бейім	-2840
▁объекті	-2841
▁парламентаралық	-2842
▁w	-2843
мек	-2844
▁75	-2845
ойыз	-2846
▁қасы	-2847
▁дөңге	-2848
▁авиация	-2849
цев	-2850
▁уә	-2851
▁пет	-2852
▁ексі	-2853
▁бірлесе	-2854
▁механизм	-2855
▁құрастыр	-2856
▁исп	-2857
▁қаны	-2858
екс	-2859
фон	-2860
▁ок	-2861
▁декл	-2862
▁статистика	-2863
ing	-2864
имир	-2865
▁пойыз	-2866
▁жомарт	-2867
▁был	-2868
▁мау	-2869
▁бұйы	-2870
▁пл	-2871
▁әлі	-2872
стрем	-2873
▁өңірдегі	-2874
▁декларация	-2875
▁адам	-2876
▁штаб	-2877
▁атсал	-2878
ладимир	-2879
▁600	-2880
▁қты	-2881
▁виза	-2882
менстан	-2883
▁атсалыс	-2884
▁магистр	-2885
▁сыр	-2886
ec	-2887
▁дсұ	-2888
▁құт	-2889
дұ	-2890
шын	-2891
▁44	-2892
▁дөңгеле	-2893
▁экстрем	-2894
▁2009	-2895
▁орал	-2896
▁корпус	-2897
ук	-2898
▁мық	-2899
▁клуб	-2900
құлов	-2901
▁Тә	-2902
▁музы	-2903
▁самұрық	-2904
улин	-2905
▁жоо	-2906
шет	-2907
▁тоқсан	-2908
дей	-2909
▁оф	-2910
▁400	-2911
▁қозға	-2912
▁климат	-2913
▁келісім	-2914
дырысов	-2915
▁қалыптас	-2916
ург	-2917
▁шаң	-2918
тарап	-2919
▁кеме	-2920
▁ду	-2921
▁баб	-2922
▁рад	-2923
▁42	-2924
▁жұмса	-2925
▁толығ	-2926
▁филиал	-2927
ош	-2928
ота	-2929
кені	-2930
▁сүй	-2931
тандырыл	-2932
▁шан	-2933
▁тестер	-2934
ғандығ	-2935
амбетов	-2936
▁Ин	-2937
▁наман	-2938
ля	-2939
▁l	-2940
вей	-2941
▁сарай	-2942
▁қайтар	-2943
кон	-2944
▁ахметов	-2945
▁жекешелендір	-2946
жы	-2947
гіл	-2948
зал	-2949
▁ғыдан	-2950
шарт	-2951
лей	-2952
▁прокурор	-2953
ak	-2954
матив	-2955
нам	-2956
▁48	-2957
▁әде	-2958
▁ғысын	-2959
▁армения	-2960
апур	-2961
▁норматив	-2962
ымыз	-2963
ұсқа	-2964
ингапур	-2965
▁ескерткіш	-2966
▁ынша	-2967
▁көшір	-2968
▁клас	-2969
▁қамти	-2970
▁конвенция	-2971
▁БҰ	-2972
лекс	-2973
▁ҚХ	-2974
▁маз	-2975
▁қас	-2976
дігін	-2977
▁келісімшарт	-2978
▁ОҚО	-2979
▁қалыптасқан	-2980
бия	-2981
▁бәр	-2982
▁шелер	-2983
▁термин	-2984
зин	-2985
▁жәрме	-2986
▁жаппай	-2987
▁БҰҰ	-2988
▁қазагро	-2989
вис	-2990
▁Түр	-2991
▁каб	-2992
айзия	-2993
▁ұлғай	-2994
ur	-2995
▁Ар	-2996
▁Ор	-2997
▁аль	-2998
▁неміс	-2999
▁жәрмеңке	-3000
вол	-3001
▁практика	-3002
▁41	-3003
шетау	-3004
▁көмір	-3005
▁орнатыл	-3006
▁мекен	-3007
ахманов	-3008
тау	-3009
▁55	-3010
▁таяу	-3011
зат	-3012
вейц	-3013
ІМ	-3014
▁аман	-3015
ильм	-3016
▁сынып	-3017
▁жұмсал	-3018
▁Бас	-3019
▁тоқ	-3020
менов	-3021
қарас	-3022
▁отбас	-3023
▁анықтал	-3024
▁кетерлік	-3025
хметов	-3026
▁шұ	-3027
екешев	-3028
▁дақыл	-3029
▁оңтай	-3030
ине	-3031
түр	-3032
▁фото	-3033
▁рез	-3034
әдени	-3035
▁47	-3036
vest	-3037
мент	-3038
▁кин	-3039
▁ұмтыл	-3040
ессор	-3041
▁ақпан	-3042
▁батыр	-3043
▁фарма	-3044
вейцария	-3045
▁көзқарас	-3046
us	-3047
уз	-3048
▁фаб	-3049
▁опера	-3050
▁46	-3051
▁зер	-3052
етнам	-3053
сиада	-3054
газ	-3055
сті	-3056
аров	-3057
▁кеңсе	-3058
▁оңтайландыр	-3059
▁өйт	-3060
▁іске	-3061
изация	-3062
матулин	-3063
▁өйткені	-3064
▁пайдал	-3065
▁арх	-3066
стрия	-3067
▁дасы	-3068
іктіліг	-3069
ii	-3070
▁той	-3071
▁ағыл	-3072
▁сұлтанов	-3073
▁кам	-3074
жылдық	-3075
▁арена	-3076
▁h	-3077
ғат	-3078
▁39	-3079
▁вен	-3080
▁пун	-3081
▁мұхам	-3082
▁жақсар	-3083
▁ханасы	-3084
▁Тө	-3085
▁шқо	-3086
▁сары	-3087
ыстағы	-3088
▁мырза	-3089
▁Парламент	-3090
жей	-3091
▁дос	-3092
▁пара	-3093
▁моноп	-3094
▁профессор	-3095
▁индекс	-3096
▁жұмылдыр	-3097
▁қолданыстағы	-3098
едж	-3099
▁жіө	-3100
▁фабр	-3101
▁43	-3102
▁детін	-3103
▁серік	-3104
▁біліктіліг	-3105
▁эы	-3106
▁жұрт	-3107
▁тұқы	-3108
▁медаль	-3109
▁қанағат	-3110
▁әртарап	-3111
ікменстан	-3112
▁лікке	-3113
▁үстел	-3114
ЕО	-3115
▁n	-3116
▁шының	-3117
▁консультация	-3118
▁ұқс	-3119
▁әділет	-3120
ИДЕО	-3121
▁Жол	-3122
▁конф	-3123
▁сайт	-3124
▁әмір	-3125
▁ВИДЕО	-3126
▁қағаз	-3127
▁музыка	-3128
▁пайдалан	-3129
▁экстремиз	-3130
▁мі	-3131
лігі	-3132
▁куә	-3133
▁бірт	-3134
▁нұсқа	-3135
▁сервис	-3136
▁хандығ	-3137
▁ағылшын	-3138
up	-3139
хай	-3140
▁жатқ	-3141
қаз	-3142
улет	-3143
▁пункт	-3144
▁құтқар	-3145
▁автожол	-3146
одақ	-3147
▁бюро	-3148
▁біріг	-3149
▁күз	-3150
▁тым	-3151
▁геру	-3152
▁этно	-3153
▁дәліз	-3154
ol	-3155
▁фармацев	-3156
стар	-3157
▁полиг	-3158
▁владимир	-3159
▁сапарбаев	-3160
зра	-3161
▁Жар	-3162
▁әді	-3163
▁шада	-3164
▁ұқса	-3165
▁автоб	-3166
▁бәйтерек	-3167
▁мұр	-3168
▁Сенат	-3169
▁таратпа	-3170
шұ	-3171
сиет	-3172
▁арм	-3173
▁ақы	-3174
▁данып	-3175
▁бастығ	-3176
▁сіп	-3177
▁өзен	-3178
▁Қытай	-3179
▁құзыр	-3180
омәдени	-3181
▁менедж	-3182
▁фабрика	-3183
ындығ	-3184
▁жүлде	-3185
▁әртүр	-3186
▁пікірінше	-3187
▁тағайындал	-3188
стеме	-3189
▁сенатор	-3190
▁сингапур	-3191
мұн	-3192
▁дене	-3193
▁қтыр	-3194
▁әдістеме	-3195
as	-3196
онд	-3197
▁56	-3198
▁ауыр	-3199
ционер	-3200
▁мазмұн	-3201
▁пайдаланыл	-3202
▁зар	-3203
▁лысы	-3204
▁фармацевтика	-3205
инат	-3206
▁пей	-3207
ский	-3208
▁қасиет	-3209
▁өскемен	-3210
▁51	-3211
▁өк	-3212
▁тыр	-3213
ляция	-3214
▁қабілеттіліг	-3215
ром	-3216
ьетнам	-3217
il	-3218
▁қым	-3219
дықтал	-3220
озиция	-3221
▁дайындығ	-3222
гог	-3223
утин	-3224
▁сте	-3225
▁жара	-3226
▁ініп	-3227
зраиль	-3228
▁акционер	-3229
айы	-3230
▁52	-3231
▁Пав	-3232
▁санат	-3233
▁канада	-3234
▁мақала	-3235
эн	-3236
▁штат	-3237
▁алекс	-3238
ation	-3239
▁эыдұ	-3240
▁ахмет	-3241
▁кені	-3242
▁фильм	-3243
▁жабдықтал	-3244
▁тұрақтылығ	-3245
▁жеті	-3246
▁саба	-3247
▁invest	-3248
▁этномәдени	-3249
▁сқа	-3250
ыстыр	-3251
▁мейрам	-3252
▁Қараған	-3253
иб	-3254
ңыр	-3255
▁мәсімов	-3256
▁полигон	-3257
гра	-3258
сты	-3259
▁бл	-3260
▁індір	-3261
иа	-3262
▁қк	-3263
андр	-3264
гершілік	-3265
▁автобус	-3266
▁Павлодар	-3267
таж	-3268
ігі	-3269
▁шал	-3270
▁саты	-3271
▁қойна	-3272
жылдығ	-3273
▁сің	-3274
▁ісп	-3275
▁тоқтат	-3276
▁оператор	-3277
▁әбдірахманов	-3278
ИДМ	-3279
▁лит	-3280
▁ном	-3281
дагог	-3282
▁сыйлығ	-3283
▁қамтит	-3284
▁қағидат	-3285
ци	-3286
▁цех	-3287
▁Отан	-3288
▁бақытжан	-3289
▁денсаулығ	-3290
▁аспек	-3291
▁геология	-3292
▁монополия	-3293
йсен	-3294
▁шасы	-3295
▁көмег	-3296
ерв	-3297
інен	-3298
▁гру	-3299
▁зият	-3300
▁атамекен	-3301
▁53	-3302
▁дым	-3303
▁дәр	-3304
алиев	-3305
▁2025	-3306
ушылығ	-3307
▁ақыл	-3308
▁ұқшұ	-3309
дастыр	-3310
▁қонақ	-3311
▁ректор	-3312
▁ауыстыр	-3313
▁педагог	-3314
ИДМБ	-3315
▁пил	-3316
▁фун	-3317
▁ыну	-3318
▁көші	-3319
▁ымын	-3320
▁жалпыұлттық	-3321
▁есімов	-3322
▁жолындағы	-3323
▁швейцария	-3324
▁49	-3325
▁54	-3326
▁Қо	-3327
ғары	-3328
өндір	-3329
▁әртараптандыр	-3330
▁ұст	-3331
ақтал	-3332
▁ашық	-3333
аю	-3334
▁рах	-3335
▁сіл	-3336
ектіг	-3337
▁ктен	-3338
▁уран	-3339
▁сауал	-3340
▁мақтан	-3341
akh	-3342
бет	-3343
▁телефон	-3344
форм	-3345
▁түб	-3346
▁наманы	-3347
ета	-3348
асын	-3349
▁СІМ	-3350
▁мұғал	-3351
▁король	-3352
▁шақырыл	-3353
▁керектіг	-3354
▁ыдырысов	-3355
▁65	-3356
икалық	-3357
▁бітім	-3358
▁көпір	-3359
▁береке	-3360
▁У	-3361
міз	-3362
▁малайзия	-3363
тиф	-3364
қай	-3365
шару	-3366
▁2008	-3367
▁мобиль	-3368
▁кеңістіг	-3369
ex	-3370
▁түсір	-3371
om	-3372
су	-3373
▁кв	-3374
▁орт	-3375
▁шынайы	-3376
▁конгрес	-3377
лян	-3378
▁тиесі	-3379
▁72	-3380
икат	-3381
▁вел	-3382
▁испания	-3383
▁000	-3384
▁бәрі	-3385
▁жаға	-3386
▁сертиф	-3387
ri	-3388
инет	-3389
▁ауыз	-3390
▁көпжақ	-3391
▁аспекті	-3392
кет	-3393
▁дама	-3394
▁көліг	-3395
▁холдингі	-3396
▁ex	-3397
▁700	-3398
▁Жамбыл	-3399
әуір	-3400
қоңыр	-3401
▁сәулет	-3402
▁550	-3403
▁еге	-3404
▁хор	-3405
▁меде	-3406
▁сқан	-3407
ляндия	-3408
▁пилот	-3409
тим	-3410
уелсіз	-3411
▁сим	-3412
фрика	-3413
ғанда	-3414
▁мені	-3415
▁үйрен	-3416
ханов	-3417
атория	-3418
▁награ	-3419
▁Тәуелсіз	-3420
▁ауылшару	-3421
▁мемлекетаралық	-3422
ева	-3423
▁соз	-3424
▁ірге	-3425
імбаев	-3426
ербайжан	-3427
▁санитар	-3428
▁мобильді	-3429
▁өрт	-3430
індік	-3431
▁лықпен	-3432
▁хандығының	-3433
уар	-3434
▁аэа	-3435
▁мына	-3436
▁сындар	-3437
▁терминал	-3438
▁универсиада	-3439
el	-3440
stana	-3441
▁ИИДМБ	-3442
▁жеткіл	-3443
▁сауықтыр	-3444
шара	-3445
тығыс	-3446
қашан	-3447
▁серіктестіг	-3448
▁дат	-3449
▁док	-3450
▁ұшыр	-3451
▁кабинет	-3452
▁сөзінше	-3453
▁түрікменстан	-3454
▁250	-3455
▁кетерлігі	-3456
▁57	-3457
▁едәуір	-3458
▁жекемен	-3459
нен	-3460
▁жүг	-3461
▁мұқ	-3462
▁2030	-3463
▁ерек	-3464
▁түрк	-3465
▁артық	-3466
▁пан	-3467
▁тасын	-3468
▁теген	-3469
▁қақтығыс	-3470
▁лаң	-3471
▁тез	-3472
▁асыл	-3473
▁әрдай	-3474
▁егемен	-3475
▁жекеменшік	-3476
▁Кор	-3477
▁пәт	-3478
▁рух	-3479
▁дімін	-3480
▁жасқа	-3481
▁адамзат	-3482
▁күнімен	-3483
▁мұражай	-3484
▁қап	-3485
▁нидер	-3486
▁дықтың	-3487
▁әрдайым	-3488
▁қызығушылығ	-3489
дин	-3490
▁62	-3491
▁автор	-3492
▁резерв	-3493
▁74	-3494
▁лігі	-3495
▁сүлей	-3496
▁уәкіл	-3497
▁kazakh	-3498
▁фестивал	-3499
руг	-3500
▁85	-3501
қор	-3502
умын	-3503
▁аөк	-3504
тілік	-3505
▁израиль	-3506
▁конфессия	-3507
▁өнімділіг	-3508
▁ахқо	-3509
▁етіл	-3510
▁индик	-3511
▁лаңке	-3512
цуз	-3513
ыны	-3514
▁ши	-3515
▁тый	-3516
▁тігі	-3517
▁ғасы	-3518
▁інетін	-3519
лым	-3520
▁64	-3521
өніс	-3522
▁былтыр	-3523
▁көкөніс	-3524
▁түркістан	-3525
▁ұкп	-3526
әк	-3527
тон	-3528
▁абай	-3529
▁бесін	-3530
▁таныстырыл	-3531
тін	-3532
▁бор	-3533
▁вьетнам	-3534
▁сл	-3535
андық	-3536
▁карт	-3537
▁әліп	-3538
▁армия	-3539
▁дықты	-3540
▁ғалам	-3541
мед	-3542
рей	-3543
ынан	-3544
▁грам	-3545
▁сауд	-3546
▁қызыл	-3547
po	-3548
▁I	-3549
гор	-3550
нек	-3551
roup	-3552
▁800	-3553
▁ҚХА	-3554
шылық	-3555
дестір	-3556
▁инфляция	-3557
un	-3558
▁То	-3559
▁киі	-3560
▁жарлығ	-3561
▁шанхай	-3562
лин	-3563
▁гей	-3564
▁мұс	-3565
▁Азия	-3566
▁африка	-3567
▁58	-3568
тивті	-3569
▁лиц	-3570
▁іну	-3571
▁тудыр	-3572
▁кооператив	-3573
ЫҰ	-3574
сих	-3575
ымбек	-3576
▁әрине	-3577
▁ск	-3578
техн	-3579
▁консул	-3580
әр	-3581
▁ми	-3582
▁псих	-3583
▁ерекшеліг	-3584
▁әзірбайжан	-3585
рий	-3586
▁95	-3587
ност	-3588
▁тараз	-3589
▁туғыз	-3590
▁59	-3591
▁қт	-3592
▁чех	-3593
даған	-3594
ұрлым	-3595
мерзім	-3596
▁ұзындығ	-3597
is	-3598
▁номин	-3599
▁сербия	-3600
ұз	-3601
▁тие	-3602
▁кино	-3603
▁комисс	-3604
▁өзіндік	-3605
▁әбіш	-3606
▁александр	-3607
▁трансформ	-3608
▁абат	-3609
▁тұта	-3610
▁намасы	-3611
▁индикатор	-3612
▁кім	-3613
ейнер	-3614
▁1000	-3615
▁плат	-3616
▁исекешев	-3617
▁ұзақмерзім	-3618
▁ка	-3619
▁мойын	-3620
▁жеткізіл	-3621
▁сым	-3622
дендір	-3623
▁досаев	-3624
▁түбегей	-3625
▁цифрландыр	-3626
ov	-3627
ent	-3628
алт	-3629
▁99	-3630
▁АҚШ	-3631
▁рей	-3632
▁болат	-3633
▁дайға	-3634
қыз	-3635
▁ұстаз	-3636
▁контейнер	-3637
▁78	-3638
▁ом	-3639
▁арз	-3640
▁болдыр	-3641
▁әліпби	-3642
▁награда	-3643
ңір	-3644
▁97	-3645
▁120	-3646
▁өлі	-3647
ғалиев	-3648
▁сіңір	-3649
▁байлан	-3650
▁грамота	-3651
▁елшіліг	-3652
▁жатқандығ	-3653
ad	-3654
ess	-3655
нан	-3656
▁диз	-3657
▁жарт	-3658
▁көбе	-3659
▁салт	-3660
лемент	-3661
▁округ	-3662
ылы	-3663
▁92	-3664
▁жө	-3665
▁ағаш	-3666
▁диаг	-3667
▁қазақ	-3668
▁жайында	-3669
▁жәрдемақы	-3670
▁детіл	-3671
▁әзербайжан	-3672
▁Кон	-3673
▁боз	-3674
▁қаш	-3675
▁жазыл	-3676
▁француз	-3677
▁арман	-3678
▁бекет	-3679
▁дүйсен	-3680
▁энерго	-3681
▁хатшылығ	-3682
▁98	-3683
азил	-3684
▁жарна	-3685
▁іштер	-3686
▁қатаң	-3687
іміздегі	-3688
▁комиссар	-3689
▁көкшетау	-3690
▁мда	-3691
▁уар	-3692
ірткі	-3693
▁қта	-3694
окзал	-3695
ir	-3696
га	-3697
орк	-3698
▁мажар	-3699
▁Сағынтаев	-3700
▁ризашылық	-3701
lob	-3702
лав	-3703
▁рф	-3704
бург	-3705
дылық	-3706
спорт	-3707
▁байыт	-3708
▁жарты	-3709
▁путин	-3710
▁грузия	-3711
▁кандидатура	-3712
▁іі	-3713
едер	-3714
▁ваг	-3715
▁Еуро	-3716
lobal	-3717
бинат	-3718
▁деде	-3719
▁ризашылығ	-3720
▁сертификат	-3721
▁63	-3722
▁67	-3723
▁рә	-3724
▁ұн	-3725
▁тұрақтандыр	-3726
▁r	-3727
▁61	-3728
▁ро	-3729
▁сти	-3730
▁66	-3731
диев	-3732
▁вас	-3733
▁нығай	-3734
▁қолбасшы	-3735
▁ТМ	-3736
▁пән	-3737
амика	-3738
▁асыра	-3739
▁есірткі	-3740
▁бур	-3741
▁пысы	-3742
▁стипен	-3743
▁бірлестіг	-3744
▁платформа	-3745
▁кредит	-3746
ыға	-3747
ақов	-3748
▁пек	-3749
ғарыш	-3750
▁литва	-3751
▁қанат	-3752
▁финляндия	-3753
▁байланыстыр	-3754
анс	-3755
▁ев	-3756
▁тікте	-3757
езе	-3758
▁Ис	-3759
▁тет	-3760
ЭК	-3761
▁каз	-3762
▁айда	-3763
ымбаев	-3764
▁меген	-3765
▁румын	-3766
тіс	-3767
▁құй	-3768
▁2007	-3769
▁шоғыр	-3770
em	-3771
сай	-3772
грия	-3773
▁тіре	-3774
▁төлен	-3775
▁әбішұлы	-3776
▁фестиваль	-3777
ғыл	-3778
▁ауа	-3779
▁кат	-3780
▁мағ	-3781
▁вело	-3782
▁корпоратив	-3783
▁68	-3784
▁ұт	-3785
алов	-3786
▁тіні	-3787
▁дыққа	-3788
▁арабия	-3789
▁диагност	-3790
▁нығматулин	-3791
қас	-3792
▁77	-3793
▁арзан	-3794
▁Тоқаев	-3795
▁делегат	-3796
▁заңдастыр	-3797
ДМ	-3798
▁элемент	-3799
▁комбинат	-3800
бағ	-3801
▁73	-3802
▁тел	-3803
▁терезе	-3804
▁_	-3805
вия	-3806
тең	-3807
енов	-3808
▁прин	-3809
▁вагон	-3810
▁зардап	-3811
▁қыштар	-3812
▁позиция	-3813
пар	-3814
сей	-3815
▁76	-3816
▁аэро	-3817
▁леніп	-3818
▁ыңғай	-3819
лды	-3820
▁лене	-3821
імбетов	-3822
дықорған	-3823
омп	-3824
▁құп	-3825
▁орман	-3826
▁ойымша	-3827
▁бейімдел	-3828
▁география	-3829
екел	-3830
▁дин	-3831
ділік	-3832
азилия	-3833
▁қалдыр	-3834
▁71	-3835
▁мж	-3836
алия	-3837
▁шаб	-3838
майды	-3839
▁толық	-3840
етіндіг	-3841
▁доктор	-3842
▁диагностика	-3843
▁акк	-3844
▁жой	-3845
▁қтж	-3846
▁атағ	-3847
▁оңай	-3848
▁әртіс	-3849
▁Еуропа	-3850
▁шақтың	-3851
▁І	-3852
мел	-3853
нің	-3854
асан	-3855
▁қашы	-3856
▁сүлейменов	-3857
сыздандыр	-3858
▁байқоңыр	-3859
▁кооперация	-3860
ли	-3861
етр	-3862
уле	-3863
тары	-3864
▁кәрі	-3865
▁диплом	-3866
▁атамқұлов	-3867
вл	-3868
▁тықта	-3869
дарындағы	-3870
йег	-3871
▁др	-3872
ермен	-3873
талас	-3874
▁жаза	-3875
▁негізінен	-3876
ицер	-3877
▁түп	-3878
баева	-3879
▁айып	-3880
▁гісін	-3881
▁тетіг	-3882
▁намаға	-3883
▁қыркүйег	-3884
вт	-3885
кем	-3886
уыл	-3887
▁ДС	-3888
ропа	-3889
▁кур	-3890
изика	-3891
▁group	-3892
▁мұның	-3893
▁тұсау	-3894
▁офицер	-3895
▁тапшылығ	-3896
дібек	-3897
▁өзек	-3898
дастығ	-3899
▁көбейт	-3900
▁трансф	-3901
▁департамен	-3902
дыз	-3903
арлы	-3904
осая	-3905
кесер	-3906
шағ	-3907
▁ақпа	-3908
▁лену	-3909
▁astana	-3910
▁генерал	-3911
▁жетістіг	-3912
бор	-3913
пір	-3914
▁xx	-3915
ошта	-3916
▁аяғ	-3917
▁рау	-3918
▁қымбат	-3919
▁тәуекел	-3920
еп	-3921
▁үнемі	-3922
кология	-3923
мағамбетов	-3924
▁тұсаукесер	-3925
et	-3926
оч	-3927
тап	-3928
▁кр	-3929
ыпов	-3930
ұлдыз	-3931
▁ғыны	-3932
▁толтыр	-3933
▁Халықаралық	-3934
▁бітімгершілік	-3935
▁тж	-3936
▁қабат	-3937
▁мәліметінше	-3938
кө	-3939
▁амб	-3940
леком	-3941
▁адал	-3942
▁ласы	-3943
▁ында	-3944
▁жанар	-3945
▁қарқын	-3946
▁қолжетімділіг	-3947
20	-3948
еди	-3949
▁194	-3950
▁қпен	-3951
▁тесті	-3952
▁әрқай	-3953
шімбаев	-3954
▁британ	-3955
▁отырғыз	-3956
ірек	-3957
▁қоя	-3958
қанды	-3959
▁клин	-3960
▁пікірталас	-3961
мас	-3962
▁87	-3963
ұхам	-3964
▁Маң	-3965
▁бир	-3966
▁юнес	-3967
▁ашықтығ	-3968
▁трансферт	-3969
▁қарапайым	-3970
иж	-3971
▁ұб	-3972
▁десі	-3973
▁гілер	-3974
▁принц	-3975
▁австрия	-3976
▁өркениет	-3977
▁86	-3978
▁ам	-3979
▁сәйке	-3980
▁орнына	-3981
▁ит	-3982
▁Кең	-3983
▁ТМД	-3984
▁2005	-3985
▁шыны	-3986
▁лидер	-3987
▁нығаю	-3988
▁ахметжан	-3989
▁номинация	-3990
▁толыққанды	-3991
▁гу	-3992
▁сей	-3993
▁жылж	-3994
▁йтын	-3995
▁дәрмек	-3996
▁этника	-3997
▁юнеско	-3998
▁Маңғыста	-3999
юция	-4000
▁тұс	-4001
теу	-4002
зинь	-4003
▁сах	-4004
▁таз	-4005
ушылық	-4006
▁жарақ	-4007
▁макро	-4008
▁құзырет	-4009
ac	-4010
ed	-4011
ot	-4012
роп	-4013
қыр	-4014
▁тим	-4015
▁тіп	-4016
овтың	-4017
▁талар	-4018
▁жұлдыз	-4019
▁Еуразия	-4020
▁Қостанай	-4021
шек	-4022
▁ұлан	-4023
▁биржа	-4024
▁Жарлығ	-4025
ғар	-4026
▁шол	-4027
ропавл	-4028
қандай	-4029
▁кеңей	-4030
▁сүйен	-4031
▁жалғыз	-4032
▁минерал	-4033
▁айналдыр	-4034
оқ	-4035
▁сәр	-4036
▁Қаза	-4037
▁жұмағ	-4038
▁көркем	-4039
▁іздестір	-4040
▁чемпионат	-4041
оне	-4042
▁шоб	-4043
▁төре	-4044
▁тәуліг	-4045
▁тестіле	-4046
▁индустриялды	-4047
сон	-4048
▁69	-4049
▁мез	-4050
▁ник	-4051
болат	-4052
▁Кеңес	-4053
▁васил	-4054
▁жаңар	-4055
ирургия	-4056
▁сіңірген	-4057
пин	-4058
▁82	-4059
▁84	-4060
ірім	-4061
▁абд	-4062
▁алма	-4063
▁плен	-4064
▁рейс	-4065
ативті	-4066
ісінше	-4067
▁амбул	-4068
▁ұлтаралық	-4069
▁ақпараттандыр	-4070
▁бап	-4071
▁куб	-4072
▁медиа	-4073
▁форма	-4074
▁вокзал	-4075
▁символ	-4076
▁тағдыр	-4077
▁аударыл	-4078
▁функция	-4079
▁корольдіг	-4080
▁Әбдіқалықова	-4081
оф	-4082
▁мег	-4083
▁нью	-4084
▁даныл	-4085
▁дікке	-4086
▁көбей	-4087
▁шұғыл	-4088
▁global	-4089
▁байбек	-4090
▁клиника	-4091
▁динамика	-4092
▁СҚО	-4093
мұнай	-4094
▁шекте	-4095
▁жылыжай	-4096
▁мажарстан	-4097
шк	-4098
ихан	-4099
дустр	-4100
▁жөне	-4101
▁ұлға	-4102
▁менеджмент	-4103
иде	-4104
▁96	-4105
▁қант	-4106
▁салығ	-4107
▁ешқандай	-4108
▁абаттандыр	-4109
▁белсенділіг	-4110
▁$	-4111
▁дон	-4112
▁2006	-4113
▁лықта	-4114
▁рәміз	-4115
▁Сырт	-4116
ЖК	-4117
▁Дү	-4118
▁суар	-4119
▁теді	-4120
▁лісін	-4121
▁алмастыр	-4122
▁пленарлы	-4123
эр	-4124
▁ид	-4125
▁кіл	-4126
▁станса	-4127
▁өңіраралық	-4128
уат	-4129
шығ	-4130
▁130	-4131
▁бак	-4132
▁мвт	-4133
арлық	-4134
▁дені	-4135
▁ласты	-4136
▁чехия	-4137
едерация	-4138
▁қарқыны	-4139
лект	-4140
▁жиі	-4141
▁уін	-4142
тырау	-4143
▁оқыл	-4144
▁қолдап	-4145
▁көтеріл	-4146
абай	-4147
▁үде	-4148
ензия	-4149
▁спек	-4150
▁трен	-4151
▁марат	-4152
▁үйрет	-4153
▁Атырау	-4154
▁болмайды	-4155
▁еңбекақы	-4156
▁басымдылық	-4157
▁K	-4158
▁81	-4159
▁Ер	-4160
▁ест	-4161
▁рег	-4162
▁жүктел	-4163
ект	-4164
етер	-4165
▁мор	-4166
▁кіші	-4167
▁әдеб	-4168
▁уақытылы	-4169
▁шынықтыр	-4170
▁үстіміздегі	-4171
спа	-4172
▁Бір	-4173
▁қтан	-4174
▁тіпті	-4175
▁венгрия	-4176
атындығын	-4177
▁автоматтандыр	-4178
gy	-4179
▁Бай	-4180
▁ЕЭК	-4181
▁мады	-4182
▁қайт	-4183
▁тілер	-4184
▁тренинг	-4185
▁өкілдіг	-4186
▁бразилия	-4187
зи	-4188
art	-4189
▁94	-4190
▁ант	-4191
▁ықы	-4192
▁бизнесмен	-4193
▁трансұлттық	-4194
еұ	-4195
▁ШО	-4196
▁хқ	-4197
▁күміс	-4198
▁оңалт	-4199
▁тәуел	-4200
▁ынның	-4201
▁қатыс	-4202
▁физика	-4203
▁әрқашан	-4204
или	-4205
▁оп	-4206
спен	-4207
ңғолия	-4208
▁аккредит	-4209
уан	-4210
▁ота	-4211
▁шысын	-4212
▁ыстан	-4213
▁жөнелт	-4214
▁көрнек	-4215
▁гүлшара	-4216
▁басымдығ	-4217
▁стипендия	-4218
ком	-4219
▁88	-4220
▁еқ	-4221
ырақ	-4222
▁тұрып	-4223
▁дастыр	-4224
▁+	-4225
▁дән	-4226
абаев	-4227
▁2000	-4228
▁азат	-4229
ластыр	-4230
▁біртұ	-4231
▁дайтын	-4232
▁мердіг	-4233
▁науқас	-4234
▁құрбан	-4235
▁табиғат	-4236
▁айтылған	-4237
▁кепілдендір	-4238
олис	-4239
реат	-4240
умент	-4241
▁інде	-4242
▁кітаб	-4243
экономика	-4244
дм	-4245
ха	-4246
кіт	-4247
▁83	-4248
▁вол	-4249
▁шие	-4250
▁аспа	-4251
▁принцип	-4252
▁дүйсенова	-4253
▁әске	-4254
▁жапон	-4255
ативтік	-4256
▁көрермен	-4257
СК	-4258
бес	-4259
кин	-4260
ашев	-4261
циал	-4262
әлем	-4263
ландия	-4264
▁дәуір	-4265
▁лауреат	-4266
▁артықшылық	-4267
го	-4268
др	-4269
▁жж	-4270
▁кла	-4271
▁әке	-4272
ланды	-4273
▁шыға	-4274
▁алмат	-4275
▁бердібек	-4276
▁айтылғандай	-4277
▁макроэкономика	-4278
ыұ	-4279
▁аө	-4280
▁дылар	-4281
▁корей	-4282
▁лицензия	-4283
▁но	-4284
ауыл	-4285
іпов	-4286
▁expo	-4287
спірім	-4288
▁карди	-4289
▁тадық	-4290
▁мұхтар	-4291
▁уәкілет	-4292
▁әдебиет	-4293
▁баә	-4294
▁шай	-4295
▁мұны	-4296
▁басыл	-4297
▁шінің	-4298
▁латвия	-4299
▁федералды	-4300
am	-4301
▁үс	-4302
▁кәр	-4303
▁шер	-4304
▁ғыш	-4305
▁жасө	-4306
▁бітір	-4307
мұнайгаз	-4308
▁стартап	-4309
▁онкология	-4310
▁93	-4311
▁см	-4312
сика	-4313
▁иыұ	-4314
▁Қыр	-4315
ыртқа	-4316
әлемдік	-4317
▁геосая	-4318
▁трансформация	-4319
▁79	-4320
▁нү	-4321
▁Мам	-4322
▁пәкістан	-4323
ДБ	-4324
құр	-4325
ауіп	-4326
▁180	-4327
▁350	-4328
▁шың	-4329
иялық	-4330
кестр	-4331
ордания	-4332
ымбетов	-4333
▁өзектіліг	-4334
син	-4335
қап	-4336
▁91	-4337
ондон	-4338
▁2021	-4339
▁саға	-4340
▁сатыл	-4341
▁оркестр	-4342
▁мырзахметов	-4343
▁Ч	-4344
ера	-4345
▁анд	-4346
генов	-4347
▁муль	-4348
матика	-4349
▁парад	-4350
▁экспоз	-4351
▁кластер	-4352
▁румыния	-4353
▁жақсыбеков	-4354
▁амбулатория	-4355
os	-4356
юз	-4357
▁гр	-4358
▁хх	-4359
стру	-4360
▁зиян	-4361
ционал	-4362
▁адами	-4363
▁айқындал	-4364
▁регламент	-4365
шақ	-4366
▁ұғ	-4367
▁Сам	-4368
▁йорк	-4369
бекова	-4370
▁дербес	-4371
▁фермер	-4372
▁жұмыртқа	-4373
▁мамандығ	-4374
▁экспозиция	-4375
▁азай	-4376
▁ақорда	-4377
ықтандыр	-4378
▁конфессияаралық	-4379
▁ли	-4380
▁ҰК	-4381
▁уып	-4382
иринг	-4383
▁шаға	-4384
▁дастар	-4385
▁транспорт	-4386
▁жасөспірім	-4387
▁Бат	-4388
▁бын	-4389
ылман	-4390
▁сүйе	-4391
▁ымға	-4392
▁терге	-4393
імділік	-4394
▁мұрағат	-4395
▁жаңғыртыл	-4396
▁ұя	-4397
елең	-4398
▁аза	-4399
▁төз	-4400
▁болг	-4401
асында	-4402
▁Төтен	-4403
▁бесжылдығ	-4404
▁ауылшаруашылық	-4405
дет	-4406
елік	-4407
▁140	-4408
▁Сау	-4409
▁мұз	-4410
▁үеұ	-4411
▁сауат	-4412
▁команд	-4413
▁мұсылман	-4414
▁василенко	-4415
ду	-4416
быз	-4417
идж	-4418
▁бок	-4419
▁паш	-4420
▁тене	-4421
▁Өкіл	-4422
▁интел	-4423
▁үнқат	-4424
волюция	-4425
▁тазарт	-4426
▁қорғал	-4427
▁намалар	-4428
▁көпшіліг	-4429
ки	-4430
уч	-4431
был	-4432
стал	-4433
ғали	-4434
▁тег	-4435
▁шыр	-4436
▁тері	-4437
▁Әлем	-4438
▁жағым	-4439
▁жөндел	-4440
▁жасақтал	-4441
▁қонақтары	-4442
дес	-4443
▁Тұ	-4444
▁Жаң	-4445
▁дыр	-4446
▁мәт	-4447
▁іім	-4448
вегия	-4449
ьютер	-4450
▁тада	-4451
қорлығ	-4452
▁консульт	-4453
ест	-4454
нир	-4455
▁ЕҚ	-4456
арна	-4457
ивті	-4458
▁900	-4459
▁Бел	-4460
▁ншісі	-4461
▁қазат	-4462
▁леттер	-4463
▁турнир	-4464
жымайтын	-4465
▁сәйкесінше	-4466
ох	-4467
иан	-4468
ита	-4469
рон	-4470
іні	-4471
▁Өз	-4472
▁лиз	-4473
▁абыр	-4474
ербаев	-4475
▁алқап	-4476
▁архит	-4477
▁осынау	-4478
▁монумент	-4479
ож	-4480
нис	-4481
ный	-4482
пұл	-4483
сшк	-4484
дайы	-4485
итын	-4486
ович	-4487
▁тоғ	-4488
▁ісу	-4489
▁аөсшк	-4490
▁сахна	-4491
▁командир	-4492
▁бозымбаев	-4493
▁G	-4494
por	-4495
▁st	-4496
▁Жең	-4497
▁күл	-4498
▁тор	-4499
▁егжей	-4500
▁сегіз	-4501
▁үстем	-4502
▁күннен	-4503
▁Қырғыз	-4504
басшылығ	-4505
▁мге	-4506
▁мир	-4507
ектор	-4508
ерант	-4509
▁блок	-4510
▁әсет	-4511
иниринг	-4512
▁инспек	-4513
▁тегжей	-4514
▁мердігер	-4515
до	-4516
оц	-4517
▁шө	-4518
алаб	-4519
▁Көк	-4520
▁кке	-4521
▁ласа	-4522
▁балет	-4523
▁тимур	-4524
иелендір	-4525
▁жақыпов	-4526
▁үнқатыс	-4527
▁моңғолия	-4528
▁Конституция	-4529
эм	-4530
кім	-4531
▁Хал	-4532
▁ШОБ	-4533
▁Шығ	-4534
▁смет	-4535
▁тасым	-4536
▁тыған	-4537
▁абырой	-4538
▁орасан	-4539
осаралық	-4540
▁орталық	-4541
▁дегенмен	-4542
▁толерант	-4543
▁жылжымайтын	-4544
мә	-4545
▁Кү	-4546
▁нө	-4547
энер	-4548
▁мик	-4549
▁шве	-4550
▁минут	-4551
▁талаб	-4552
▁таныл	-4553
▁кәсіподақ	-4554
дам	-4555
жел	-4556
һар	-4557
▁иг	-4558
ылов	-4559
▁меу	-4560
▁мжә	-4561
▁фут	-4562
▁пост	-4563
▁париж	-4564
▁ұдайы	-4565
▁Ақорда	-4566
▁Түркия	-4567
▁мейман	-4568
▁мұқтаж	-4569
▁Индустр	-4570
ват	-4571
жын	-4572
▁төл	-4573
▁кент	-4574
▁қазы	-4575
▁цзинь	-4576
▁өндіріл	-4577
▁тасымалы	-4578
▁этносаралық	-4579
ia	-4580
еш	-4581
гел	-4582
▁фра	-4583
▁мадан	-4584
▁мұхит	-4585
▁мезгіл	-4586
▁біртұтас	-4587
▁көшербаев	-4588
▁Жо	-4589
алқы	-4590
имен	-4591
инск	-4592
дерлік	-4593
▁пошта	-4594
▁смета	-4595
▁телеарна	-4596
▁несиелендір	-4597
уі	-4598
nex	-4599
ног	-4600
сем	-4601
▁al	-4602
▁it	-4603
▁Оң	-4604
▁сұ	-4605
▁Асс	-4606
▁роб	-4607
▁ғалы	-4608
▁еңсер	-4609
▁марка	-4610
▁соған	-4611
▁дайдың	-4612
▁сәйкест	-4613
апар	-4614
▁ске	-4615
▁қож	-4616
едиұлы	-4617
▁дықта	-4618
▁ертең	-4619
▁Ассамблея	-4620
▁петропавл	-4621
эс	-4622
ғам	-4623
▁Біз	-4624
▁акт	-4625
▁баж	-4626
▁төрайым	-4627
леу	-4628
оком	-4629
стаф	-4630
▁гид	-4631
▁шат	-4632
▁ұос	-4633
▁ұша	-4634
дитор	-4635
емент	-4636
▁істе	-4637
▁жылыт	-4638
техника	-4639
▁мүшеліг	-4640
▁бауыржан	-4641
▁бесжылдық	-4642
▁компьютер	-4643
▁уақытында	-4644
▁қатарынан	-4645
▁талдықорған	-4646
ЭМ	-4647
ғм	-4648
гал	-4649
▁ҚК	-4650
▁ҰЭМ	-4651
шкент	-4652
▁хқко	-4653
▁ладық	-4654
▁тарта	-4655
стралия	-4656
▁қамқорлығ	-4657
▁инжиниринг	-4658
мон	-4659
ора	-4660
▁жұ	-4661
▁ир	-4662
тану	-4663
▁оқо	-4664
▁герген	-4665
▁ысатын	-4666
▁қосалқы	-4667
▁еуроодақ	-4668
▁патриотизм	-4669
жт	-4670
▁170	-4671
▁нағ	-4672
лінше	-4673
тимал	-4674
▁2022	-4675
▁басқ	-4676
▁айына	-4677
▁радио	-4678
машылығ	-4679
▁kaznex	-4680
▁жариял	-4681
▁талант	-4682
▁мейлінше	-4683
▁сәйкестендір	-4684
▁o	-4685
вто	-4686
кеев	-4687
▁дами	-4688
▁шама	-4689
шыбаев	-4690
әсімов	-4691
▁белор	-4692
▁Мәсімов	-4693
жк	-4694
▁A	-4695
там	-4696
▁Ас	-4697
usin	-4698
иент	-4699
▁бғм	-4700
▁ласу	-4701
▁бренд	-4702
▁мейір	-4703
▁сетін	-4704
usiness	-4705
▁Сұлтан	-4706
▁америк	-4707
▁үстіне	-4708
▁тәуелді	-4709
▁ықтимал	-4710
▁гендерлік	-4711
▁педагогика	-4712
бал	-4713
хам	-4714
▁Би	-4715
▁ип	-4716
▁тк	-4717
арқа	-4718
ірет	-4719
▁xxi	-4720
▁ром	-4721
▁пров	-4722
▁ұмыт	-4723
▁асқан	-4724
▁модер	-4725
▁төңір	-4726
▁элект	-4727
▁айыппұл	-4728
ra	-4729
um	-4730
кат	-4731
ойл	-4732
▁ур	-4733
▁фа	-4734
▁Гер	-4735
▁Сер	-4736
▁Төр	-4737
▁арн	-4738
▁син	-4739
қабат	-4740
▁Фран	-4741
▁өңдел	-4742
▁лондон	-4743
▁Қорған	-4744
▁қасымбек	-4745
▁бүкіләлемдік	-4746
▁қамсыздандыр	-4747
үй	-4748
арк	-4749
мақ	-4750
рад	-4751
▁ад	-4752
озит	-4753
▁нәр	-4754
▁сара	-4755
▁қожа	-4756
ілендір	-4757
▁саябақ	-4758
▁Оңтүстік	-4759
▁толерантты	-4760
али	-4761
деу	-4762
ров	-4763
▁89	-4764
▁БА	-4765
▁104	-4766
▁Жақ	-4767
▁дете	-4768
▁реда	-4769
онезия	-4770
▁корол	-4771
майылов	-4772
▁сыйақы	-4773
▁төңірег	-4774
омөнеркәсіп	-4775
▁магистраль	-4776
дев	-4777
тест	-4778
▁мах	-4779
▁жіті	-4780
▁дәйек	-4781
▁татар	-4782
активті	-4783
▁секция	-4784
▁ұзақтығ	-4785
▁аэроғарыш	-4786
имов	-4787
ымов	-4788
▁мод	-4789
аполис	-4790
жб	-4791
▁Ю	-4792
▁Ғ	-4793
быс	-4794
дын	-4795
лев	-4796
▁ра	-4797
▁гар	-4798
▁атан	-4799
▁көре	-4800
ектура	-4801
▁көбір	-4802
▁мерей	-4803
▁бостан	-4804
▁сержан	-4805
▁геосаяси	-4806
▁Өкілетті	-4807
нд	-4808
эт	-4809
ter	-4810
жал	-4811
тегі	-4812
ынов	-4813
▁борд	-4814
▁тара	-4815
▁келем	-4816
▁микро	-4817
▁процед	-4818
▁норвегия	-4819
▁мегаполис	-4820
дым	-4821
омб	-4822
шық	-4823
▁кті	-4824
араби	-4825
▁баба	-4826
▁лету	-4827
▁спут	-4828
дабаев	-4829
▁аудит	-4830
▁интеллект	-4831
▁нидерланды	-4832
im	-4833
шіт	-4834
▁рек	-4835
▁ектің	-4836
▁тамыр	-4837
▁сөндір	-4838
▁бурабай	-4839
▁келеміз	-4840
▁бостандығ	-4841
▁процедура	-4842
▁әріптестіг	-4843
ОС	-4844
эй	-4845
пед	-4846
▁en	-4847
▁шег	-4848
▁Иран	-4849
▁теге	-4850
игация	-4851
митрий	-4852
▁лікте	-4853
▁нағыз	-4854
▁құрға	-4855
▁соттал	-4856
тымдылығ	-4857
▁фракция	-4858
▁kazakhstan	-4859
▁төн	-4860
▁мақта	-4861
станция	-4862
▁омаров	-4863
▁цемент	-4864
▁электро	-4865
▁Беларусь	-4866
құ	-4867
ият	-4868
▁АӨ	-4869
▁кін	-4870
▁шей	-4871
▁тура	-4872
▁маниф	-4873
▁мұрат	-4874
▁ұшыра	-4875
▁модель	-4876
лағ	-4877
▁160	-4878
▁БҚО	-4879
▁зай	-4880
▁архе	-4881
▁шесі	-4882
▁ынбыз	-4883
▁архитектура	-4884
▁тартымдылығ	-4885
ity	-4886
икл	-4887
ғаз	-4888
▁ив	-4889
идмб	-4890
▁110	-4891
▁идм	-4892
▁шот	-4893
ногор	-4894
оқала	-4895
дықтар	-4896
овакия	-4897
▁нашар	-4898
▁объек	-4899
▁танда	-4900
▁нысана	-4901
▁осында	-4902
▁салауат	-4903
▁менеджер	-4904
▁кәсіпорны	-4905
II	-4906
лон	-4907
▁Жа	-4908
▁каф	-4909
▁оқы	-4910
▁ассоц	-4911
▁ұзарт	-4912
▁Төраға	-4913
▁басқос	-4914
▁көреген	-4915
▁теміртау	-4916
▁дінаралық	-4917
▁қазмұнайгаз	-4918
▁автоматтандырыл	-4919
қақ	-4920
▁эр	-4921
▁шах	-4922
онент	-4923
халық	-4924
▁ккен	-4925
▁кілт	-4926
бизнес	-4927
▁демек	-4928
▁тандыр	-4929
▁эконом	-4930
▁иордания	-4931
▁ассоциация	-4932
ымыр	-4933
▁Жұм	-4934
▁Нығ	-4935
▁тра	-4936
транс	-4937
ковник	-4938
▁тасқын	-4939
▁консультативтік	-4940
эқ	-4941
сар	-4942
▁шу	-4943
қызы	-4944
▁103	-4945
▁198	-4946
▁түк	-4947
▁ұэм	-4948
ілдес	-4949
▁жиыр	-4950
▁меже	-4951
▁айлағ	-4952
▁мысыр	-4953
▁камера	-4954
▁реттел	-4955
▁сайлау	-4956
▁аудитор	-4957
деріндегі	-4958
▁Германия	-4959
▁Федерация	-4960
▁психология	-4961
co	-4962
le	-4963
ҒМ	-4964
ипа	-4965
▁АЭ	-4966
▁102	-4967
▁БҒМ	-4968
▁Мәс	-4969
▁піш	-4970
▁ісе	-4971
▁ежел	-4972
қазған	-4973
▁Дүние	-4974
▁бетон	-4975
▁дадық	-4976
▁жабыл	-4977
▁Тұңғыш	-4978
▁аттест	-4979
▁картоп	-4980
▁футбол	-4981
кітілдес	-4982
▁нидерланд	-4983
ch	-4984
▁vi	-4985
▁жқ	-4986
▁рін	-4987
▁тіг	-4988
екция	-4989
▁ораз	-4990
▁қыға	-4991
етерин	-4992
▁аспап	-4993
▁медал	-4994
▁іспіз	-4995
▁Қауіп	-4996
▁қоғам	-4997
▁Универ	-4998
▁лікпен	-4999
▁тұрғыз	-5000
▁экспед	-5001
▁Дүниежүзі	-5002
▁идеология	-5003
мс	-5004
▁j	-5005
ека	-5006
інж	-5007
▁үи	-5008
фера	-5009
▁ави	-5010
▁бах	-5011
▁өск	-5012
▁екті	-5013
▁жуығ	-5014
▁керіл	-5015
▁нәрсе	-5016
▁тарал	-5017
▁тоғыз	-5018
▁Елорда	-5019
▁монтаж	-5020
▁меніңше	-5021
▁демография	-5022
▁Ы	-5023
ань	-5024
▁аст	-5025
дықов	-5026
▁інін	-5027
▁ҚазА	-5028
▁зымыр	-5029
▁талғат	-5030
▁теннис	-5031
▁шалғай	-5032
▁сарыарқа	-5033
ag	-5034
нь	-5035
һаз	-5036
▁sm	-5037
▁по	-5038
▁air	-5039
▁гол	-5040
індей	-5041
▁бель	-5042
▁иман	-5043
▁нөмір	-5044
▁созыл	-5045
▁Өзбек	-5046
▁лизинг	-5047
▁сіздер	-5048
тты	-5049
▁қм	-5050
илов	-5051
спеу	-5052
▁айғ	-5053
▁лук	-5054
шылар	-5055
▁жиһаз	-5056
▁өскелең	-5057
тарындағы	-5058
▁революция	-5059
▁сайлауалды	-5060
сел	-5061
таң	-5062
▁ҰКП	-5063
▁шейх	-5064
▁қола	-5065
▁әбді	-5066
▁тағыл	-5067
▁курорт	-5068
▁естелік	-5069
▁моноқала	-5070
▁мыңдаған	-5071
РА	-5072
жо	-5073
бар	-5074
иліг	-5075
▁био	-5076
▁Ұлы	-5077
кенов	-5078
танов	-5079
▁анағ	-5080
▁сонда	-5081
▁қоспа	-5082
▁швеция	-5083
▁ветерин	-5084
▁ерболат	-5085
▁кәсіпорн	-5086
▁келімбетов	-5087
▁қанағаттан	-5088
ay	-5089
фф	-5090
кір	-5091
изия	-5092
▁мих	-5093
▁эст	-5094
▁1500	-5095
▁өлке	-5096
▁мүлде	-5097
▁шалар	-5098
▁ынмен	-5099
▁Мәскеу	-5100
▁игіліг	-5101
▁мағына	-5102
▁биология	-5103
▁жошыбаев	-5104
▁анағұрлым	-5105
▁экспедиция	-5106
▁интерактивті	-5107
oo	-5108
ют	-5109
▁Я	-5110
ect	-5111
ist	-5112
кте	-5113
лім	-5114
▁св	-5115
▁Жап	-5116
▁нат	-5117
▁Жаңа	-5118
▁көпұл	-5119
▁тесін	-5120
▁тұғыр	-5121
▁болғанда	-5122
▁цзиньпин	-5123
▁Өзбекстан	-5124
▁жартыжылдығ	-5125
НЕ	-5126
▁&	-5127
ссия	-5128
▁кас	-5129
иктор	-5130
▁дүкен	-5131
▁майор	-5132
▁ыннан	-5133
▁фараби	-5134
▁американдық	-5135
▁мұхамедиұлы	-5136
аны	-5137
гіт	-5138
дім	-5139
▁ик	-5140
рист	-5141
стық	-5142
▁101	-5143
▁Гүл	-5144
▁ИДМ	-5145
▁дом	-5146
▁рус	-5147
альян	-5148
деген	-5149
инция	-5150
▁1992	-5151
▁гіде	-5152
▁Қаржы	-5153
▁ұлғаю	-5154
інжіпов	-5155
▁болжан	-5156
▁даярлығ	-5157
▁Көкшетау	-5158
но	-5159
нат	-5160
▁пак	-5161
▁іле	-5162
▁мешіт	-5163
▁нығая	-5164
ational	-5165
омпания	-5166
▁зымыран	-5167
▁керемет	-5168
муникация	-5169
▁марапаттал	-5170
▁назарбаева	-5171
ИК	-5172
лет	-5173
мос	-5174
так	-5175
▁Ес	-5176
▁115	-5177
▁тыл	-5178
▁қом	-5179
отека	-5180
гетика	-5181
▁Мамин	-5182
▁дизель	-5183
▁көпұлтты	-5184
▁мұхаммед	-5185
▁провинция	-5186
▁Нығматулин	-5187
re	-5188
▁V	-5189
▁эм	-5190
баст	-5191
отив	-5192
ізді	-5193
▁уақ	-5194
▁1200	-5195
▁Бола	-5196
▁ажыр	-5197
▁болгария	-5198
▁құндылығ	-5199
▁индонезия	-5200
як	-5201
▁S	-5202
ышев	-5203
▁ұбт	-5204
сейіт	-5205
▁дыда	-5206
▁ықта	-5207
▁диасп	-5208
▁петер	-5209
▁жылжыт	-5210
▁тыңайт	-5211
▁байытыл	-5212
▁бельгия	-5213
▁business	-5214
▁Индустрия	-5215
▁X	-5216
and	-5217
кең	-5218
дігі	-5219
▁105	-5220
▁кво	-5221
▁Қай	-5222
▁ҰОС	-5223
▁еқдб	-5224
▁өтем	-5225
▁никол	-5226
▁Шымкент	-5227
▁хананың	-5228
сам	-5229
теп	-5230
▁Да	-5231
▁Эк	-5232
ылыс	-5233
▁106	-5234
▁197	-5235
▁даң	-5236
▁неғ	-5237
▁рол	-5238
▁эко	-5239
шағай	-5240
▁1995	-5241
▁Араб	-5242
▁үгіт	-5243
кетинг	-5244
▁еураз	-5245
▁квота	-5246
▁күзет	-5247
▁нүкте	-5248
халықтық	-5249
▁санкция	-5250
▁неғұрлым	-5251
▁смайылов	-5252
▁түркімен	-5253
▁орналастырыл	-5254
▁ауылшаруашылығ	-5255
рин	-5256
▁лю	-5257
▁юн	-5258
онат	-5259
▁лақ	-5260
▁рай	-5261
▁деме	-5262
▁көбі	-5263
▁экск	-5264
▁герман	-5265
▁түкпір	-5266
▁намасын	-5267
▁диаспора	-5268
▁мемориал	-5269
пат	-5270
гілі	-5271
ипаж	-5272
▁атл	-5273
динов	-5274
ченко	-5275
▁көне	-5276
▁офис	-5277
▁беруі	-5278
қабатты	-5279
▁экипаж	-5280
▁ипотека	-5281
▁австралия	-5282
▁агробизнес	-5283
▁E	-5284
▁щ	-5285
гент	-5286
▁жая	-5287
▁тән	-5288
▁шақы	-5289
▁роман	-5290
окомотив	-5291
▁Самұрық	-5292
▁ындысын	-5293
▁жез	-5294
▁кав	-5295
▁түн	-5296
▁прав	-5297
▁ішін	-5298
ингтон	-5299
▁имидж	-5300
▁этика	-5301
▁рекорд	-5302
▁тармағ	-5303
▁шабуыл	-5304
▁аккредитте	-5305
▁интеллектуал	-5306
he	-5307
жің	-5308
иум	-5309
кей	-5310
уен	-5311
oing	-5312
берн	-5313
▁АӨК	-5314
▁ОСК	-5315
▁жарам	-5316
▁модерн	-5317
▁хорват	-5318
▁қоржын	-5319
▁әрқайсы	-5320
▁қазтранс	-5321
▁локомотив	-5322
▁Қырғызстан	-5323
ig	-5324
цен	-5325
▁аң	-5326
▁иб	-5327
идің	-5328
▁іні	-5329
▁былай	-5330
▁жасам	-5331
▁игеріл	-5332
▁телеком	-5333
әй	-5334
янс	-5335
▁Ұл	-5336
ирма	-5337
▁пақ	-5338
▁сұй	-5339
рекия	-5340
▁эстаф	-5341
▁мұқият	-5342
▁жартыжыл	-5343
▁қызықтыр	-5344
▁түркітілдес	-5345
мар	-5346
шіг	-5347
▁Аз	-5348
▁эл	-5349
▁Өк	-5350
ипет	-5351
тылы	-5352
▁Жыл	-5353
циент	-5354
ындыр	-5355
▁блог	-5356
▁шіге	-5357
▁арнап	-5358
стастығ	-5359
▁әйгілі	-5360
ашингтон	-5361
▁баталов	-5362
▁пациент	-5363
▁тиісінше	-5364
▁эстафета	-5365
мк	-5366
льс	-5367
сақ	-5368
сим	-5369
▁Ай	-5370
▁мм	-5371
▁ШЫҰ	-5372
▁омб	-5373
▁Құр	-5374
▁марш	-5375
▁күшей	-5376
▁пакет	-5377
▁таңдал	-5378
шекаралық	-5379
зел	-5380
коп	-5381
▁эф	-5382
абек	-5383
ауыз	-5384
▁гіш	-5385
▁ткш	-5386
енева	-5387
іктел	-5388
▁даға	-5389
▁деге	-5390
тендір	-5391
▁Ислам	-5392
▁Корея	-5393
▁даның	-5394
▁жарат	-5395
▁құйыл	-5396
струкция	-5397
▁Жапония	-5398
▁сүйемел	-5399
▁уақтылы	-5400
етіндігін	-5401
▁қонақжай	-5402
▁археология	-5403
▁жұмағалиев	-5404
ut	-5405
сқ	-5406
ech	-5407
▁Бей	-5408
▁гім	-5409
▁мун	-5410
▁айдар	-5411
▁батыл	-5412
▁кафед	-5413
▁құқық	-5414
▁достығ	-5415
▁көптеп	-5416
▁шақырт	-5417
▁бордақы	-5418
▁депозит	-5419
▁жасампаз	-5420
▁шоғырландыр	-5421
▁модернизация	-5422
мад	-5423
сысы	-5424
▁Кел	-5425
▁бүл	-5426
▁реп	-5427
уалды	-5428
▁бриг	-5429
▁поли	-5430
▁әлде	-5431
▁айдын	-5432
▁босатыл	-5433
▁итальян	-5434
▁медиация	-5435
▁полковник	-5436
▁ықпалдастығ	-5437
ида	-5438
ория	-5439
▁іст	-5440
▁1991	-5441
▁2003	-5442
▁ЕҚЫҰ	-5443
▁коал	-5444
▁мате	-5445
▁теңе	-5446
▁ікке	-5447
басына	-5448
▁жасыр	-5449
▁тренд	-5450
▁ықпен	-5451
▁іспен	-5452
▁кердің	-5453
бернатор	-5454
▁ташкент	-5455
▁тәрізді	-5456
▁коалиция	-5457
▁ван	-5458
▁шәк	-5459
▁ҚХР	-5460
дитер	-5461
ослав	-5462
ынсыз	-5463
▁шілу	-5464
ционар	-5465
▁іктің	-5466
▁Қазына	-5467
▁манифес	-5468
млекеттік	-5469
▁губернатор	-5470
▁көпқабатты	-5471
▁трансшекаралық	-5472
ияр	-5473
мбе	-5474
қой	-5475
▁іші	-5476
▁құю	-5477
ведев	-5478
ейтін	-5479
иланд	-5480
▁әдет	-5481
олдова	-5482
▁мусин	-5483
▁режім	-5484
▁панель	-5485
▁аустрия	-5486
▁кемінде	-5487
▁ҚазАгро	-5488
▁кондитер	-5489
id	-5490
мұх	-5491
▁эп	-5492
▁вар	-5493
▁иль	-5494
індеп	-5495
▁тікұ	-5496
▁ынта	-5497
▁дасқан	-5498
▁дікпен	-5499
▁шектер	-5500
▁бригада	-5501
▁словакия	-5502
▁стационар	-5503
▁құрметіне	-5504
ld	-5505
ава	-5506
кек	-5507
▁xv	-5508
▁Те	-5509
асов	-5510
омбы	-5511
▁107	-5512
▁125	-5513
аметр	-5514
▁есіл	-5515
▁міне	-5516
▁тымын	-5517
▁қосар	-5518
▁әкімш	-5519
уктивті	-5520
▁данның	-5521
▁дмитрий	-5522
▁жағымды	-5523
▁курсант	-5524
▁мультим	-5525
▁прогрес	-5526
▁тапсырыл	-5527
бұл	-5528
ула	-5529
шін	-5530
▁дэ	-5531
▁кс	-5532
опарк	-5533
▁ержан	-5534
▁нышан	-5535
▁рельс	-5536
▁даниал	-5537
▁салмағ	-5538
▁саябағ	-5539
▁спутник	-5540
емлекеттік	-5541
▁біртіндеп	-5542
▁жезқазған	-5543
▁болатындығ	-5544
▁отырғандығ	-5545
▁қоғамдастығ	-5546
▁тасмағамбетов	-5547
ұт	-5548
gov	-5549
гүл	-5550
orld	-5551
илен	-5552
серв	-5553
юмин	-5554
паров	-5555
▁баспа	-5556
▁контр	-5557
▁кәріз	-5558
▁құбыл	-5559
▁альянс	-5560
▁қортын	-5561
▁экспорттал	-5562
ИКА	-5563
ерн	-5564
жер	-5565
нар	-5566
▁el	-5567
атау	-5568
▁нық	-5569
естік	-5570
дардың	-5571
▁зомбы	-5572
▁шаңыз	-5573
▁күйзел	-5574
▁профил	-5575
▁тамара	-5576
▁тықтан	-5577
▁дәленов	-5578
▁кафедра	-5579
▁іріктел	-5580
▁адамгершілік	-5581
▁шығармашылығ	-5582
сек	-5583
▁lt	-5584
атов	-5585
урен	-5586
▁Тал	-5587
▁Тар	-5588
▁тем	-5589
▁дада	-5590
▁кеңе	-5591
▁біреу	-5592
▁дасын	-5593
▁санкт	-5594
ытбеков	-5595
▁шектел	-5596
▁Франция	-5597
▁сержант	-5598
▁әкімшілендір	-5599
ew	-5600
ub	-5601
ріс	-5602
ғыш	-5603
▁ло	-5604
кери	-5605
ульт	-5606
▁жүн	-5607
▁эск	-5608
▁балл	-5609
▁қазп	-5610
▁дания	-5611
▁кибер	-5612
▁сәуле	-5613
▁таның	-5614
▁лақысы	-5615
▁толған	-5616
▁бағындыр	-5617
▁жинақтал	-5618
▁террорист	-5619
▁кәсіпкерліг	-5620
▁қанағаттандыр	-5621
▁ww	-5622
дыра	-5623
ласт	-5624
▁Тәж	-5625
▁гео	-5626
▁кие	-5627
▁ора	-5628
дығын	-5629
▁кваз	-5630
▁скен	-5631
▁трам	-5632
▁төсе	-5633
▁ісіп	-5634
▁емдел	-5635
▁лылар	-5636
▁руслан	-5637
▁Исекешев	-5638
ФО	-5639
РАФ	-5640
біз	-5641
лов	-5642
▁кг	-5643
дығы	-5644
евич	-5645
янью	-5646
▁ышы	-5647
мішев	-5648
ықтал	-5649
▁ішке	-5650
РАФИКА	-5651
қызмет	-5652
▁inter	-5653
▁жасай	-5654
▁испан	-5655
▁съезд	-5656
▁трилл	-5657
▁виктор	-5658
▁жанжал	-5659
▁тоғжанов	-5660
▁аймақаралық	-5661
▁түркіменстан	-5662
oc	-5663
ТА	-5664
▁ИН	-5665
едов	-5666
иров	-5667
омер	-5668
▁108	-5669
▁аша	-5670
атлон	-5671
инент	-5672
▁қауп	-5673
▁дікте	-5674
▁ділер	-5675
▁қабыр	-5676
мекбаев	-5677
▁королі	-5678
▁жанармай	-5679
▁Стратегия	-5680
▁математика	-5681
▁жарықтандыр	-5682
▁Ұлыбритания	-5683
▁ведомствоаралық	-5684
eg	-5685
▁Ц	-5686
ағаш	-5687
омен	-5688
улаг	-5689
▁196	-5690
▁com	-5691
▁Ден	-5692
▁біш	-5693
▁ИНФО	-5694
▁астр	-5695
▁жабы	-5696
▁ктің	-5697
▁манс	-5698
▁ойна	-5699
айынов	-5700
актика	-5701
▁Мәңгі	-5702
▁абаев	-5703
▁бүлдір	-5704
▁жануар	-5705
кеңестік	-5706
▁атлетика	-5707
▁триллион	-5708
ap	-5709
рах	-5710
іре	-5711
жбүр	-5712
▁Дос	-5713
▁екс	-5714
▁кри	-5715
▁жері	-5716
▁мәмс	-5717
▁барре	-5718
▁жылжы	-5719
▁шақты	-5720
▁қуант	-5721
ГРАФИКА	-5722
▁бензин	-5723
▁көрген	-5724
▁мәжбүр	-5725
▁теория	-5726
▁Ахметов	-5727
▁тактика	-5728
▁қапшағай	-5729
▁технопарк	-5730
▁қолбасшылығ	-5731
▁посткеңестік	-5732
▁қаржыландырыл	-5733
пын	-5734
куле	-5735
▁Мер	-5736
кенде	-5737
кулез	-5738
ғанов	-5739
▁сиыр	-5740
улагин	-5741
▁донор	-5742
▁драма	-5743
▁кеңею	-5744
етіндей	-5745
▁бассей	-5746
▁квазим	-5747
▁толқын	-5748
▁ханада	-5749
▁өкілет	-5750
ластырыл	-5751
▁бекітіл	-5752
▁еуразэқ	-5753
▁қолөнер	-5754
▁достастығ	-5755
КҚ	-5756
атэ	-5757
каз	-5758
альд	-5759
кель	-5760
▁240	-5761
▁450	-5762
▁www	-5763
▁Сол	-5764
лылығ	-5765
маған	-5766
▁2004	-5767
▁әдеп	-5768
▁танған	-5769
беркулез	-5770
▁бірауыз	-5771
▁қабырға	-5772
▁ИНФОГРАФИКА	-5773
йр	-5774
▁гв	-5775
илев	-5776
▁ltd	-5777
▁оша	-5778
алдық	-5779
сипед	-5780
істік	-5781
▁бада	-5782
▁цент	-5783
▁әдеби	-5784
▁андрей	-5785
▁египет	-5786
▁вашингтон	-5787
▁велосипед	-5788
▁өнімділік	-5789
▁профилактика	-5790
da	-5791
көр	-5792
▁ii	-5793
▁АШ	-5794
▁Аб	-5795
алин	-5796
міле	-5797
очта	-5798
▁112	-5799
▁vii	-5800
▁баш	-5801
▁хок	-5802
▁шен	-5803
көріс	-5804
ньган	-5805
ындар	-5806
қаржы	-5807
▁egov	-5808
▁арыз	-5809
▁даңғ	-5810
спанов	-5811
▁базар	-5812
▁бұұдб	-5813
▁ерліг	-5814
▁ланыс	-5815
▁тілеу	-5816
▁магатэ	-5817
▁мәміле	-5818
▁саяхат	-5819
▁эстония	-5820
▁магистрал	-5821
▁маркетинг	-5822
▁православ	-5823
бап	-5824
▁to	-5825
▁ҰҚ	-5826
▁109	-5827
▁адб	-5828
▁вак	-5829
▁құм	-5830
▁бесі	-5831
▁сәби	-5832
▁цикл	-5833
▁алқаб	-5834
▁герді	-5835
▁детіп	-5836
▁машин	-5837
▁табан	-5838
▁Гүлшара	-5839
▁жақында	-5840
▁өтемақы	-5841
▁Сұлтанов	-5842
▁классика	-5843
▁күнкөріс	-5844
▁сағадиев	-5845
▁әрқайсысы	-5846
бо	-5847
ейн	-5848
▁ch	-5849
изон	-5850
маса	-5851
ісов	-5852
▁БЖК	-5853
▁тім	-5854
лектр	-5855
талия	-5856
іктіг	-5857
▁тасу	-5858
▁әмбе	-5859
юзивті	-5860
▁Асқар	-5861
▁ексін	-5862
▁иидмб	-5863
▁алюмин	-5864
▁клиент	-5865
▁ескеріл	-5866
▁ленетін	-5867
▁трансфер	-5868
▁татарстан	-5869
▁елдеріндегі	-5870
ку	-5871
вер	-5872
дат	-5873
▁Өс	-5874
▁280	-5875
▁Шет	-5876
▁дәу	-5877
▁нов	-5878
▁тану	-5879
▁қыны	-5880
герлік	-5881
саулық	-5882
тықтыр	-5883
▁ресім	-5884
▁қалан	-5885
▁Украина	-5886
▁молдова	-5887
▁құзірет	-5888
▁әмбебап	-5889
яньюньган	-5890
▁Ыдырысов	-5891
▁парламентар	-5892
ұу	-5893
бит	-5894
еев	-5895
ког	-5896
▁КО	-5897
ағай	-5898
икал	-5899
ініз	-5900
▁195	-5901
▁АШМ	-5902
▁сел	-5903
▁граф	-5904
▁Мұхам	-5905
▁абдул	-5906
▁бірде	-5907
▁газет	-5908
▁пласт	-5909
▁алатау	-5910
▁даңғыл	-5911
▁женева	-5912
▁болмаса	-5913
▁ешқашан	-5914
▁ашықбаев	-5915
▁энерготи	-5916
▁агроөндір	-5917
▁жаттықтыр	-5918
▁артықшылығ	-5919
чи	-5920
баз	-5921
қыш	-5922
▁Ке	-5923
▁тб	-5924
▁Әс	-5925
ener	-5926
баян	-5927
зент	-5928
олит	-5929
ссер	-5930
▁ОКҚ	-5931
▁вир	-5932
▁фит	-5933
ометр	-5934
сенбі	-5935
▁сире	-5936
▁smart	-5937
▁поляк	-5938
▁ширек	-5939
ымдылығ	-5940
▁грекия	-5941
▁тейтін	-5942
▁бассейн	-5943
▁қортынды	-5944
▁бүлдіршін	-5945
▁газдандыр	-5946
▁депутаттығ	-5947
▁туберкулез	-5948
уг	-5949
уға	-5950
циум	-5951
▁Күш	-5952
▁шоу	-5953
▁ұса	-5954
иссер	-5955
▁Биыл	-5956
▁есен	-5957
▁жалғ	-5958
▁күнт	-5959
▁форм	-5960
▁юрий	-5961
аспорт	-5962
▁doing	-5963
▁телек	-5964
▁сыздар	-5965
ғандығын	-5966
▁белорус	-5967
▁таиланд	-5968
▁меморган	-5969
▁мойындал	-5970
▁бишімбаев	-5971
▁Әл	-5972
идео	-5973
▁1994	-5974
▁держ	-5975
▁дігі	-5976
аторий	-5977
▁аспан	-5978
▁кедей	-5979
▁тымыз	-5980
баевтың	-5981
▁шаңырақ	-5982
▁аудитория	-5983
▁шамасында	-5984
▁жақындастыр	-5985
РЕ	-5986
all	-5987
ПОР	-5988
▁as	-5989
▁ЖҚ	-5990
▁Ол	-5991
▁ҚТ	-5992
аева	-5993
инов	-5994
▁гим	-5995
самбл	-5996
▁екке	-5997
▁Қасы	-5998
▁world	-5999
▁дауыл	-6000
▁майтын	-6001
▁сарбаз	-6002
▁ансамбл	-6003
▁саламат	-6004
леріндегі	-6005
технология	-6006
▁Денсаулық	-6007
▁петербург	-6008
ers	-6009
ТАЖ	-6010
тұр	-6011
әрі	-6012
▁ян	-6013
▁Әз	-6014
емей	-6015
ПОРТАЖ	-6016
бекұлы	-6017
▁жарыл	-6018
▁лагер	-6019
▁мәлім	-6020
▁Жомарт	-6021
▁балапан	-6022
▁жіберіл	-6023
▁таратыл	-6024
40	-6025
аж	-6026
▁B	-6027
ига	-6028
рох	-6029
▁фл	-6030
ылау	-6031
▁сор	-6032
▁сқо	-6033
▁қдб	-6034
мелет	-6035
▁даби	-6036
▁дену	-6037
▁жұма	-6038
▁лейт	-6039
коголь	-6040
РЕПОРТАЖ	-6041
ье	-6042
дау	-6043
▁190	-6044
▁Бер	-6045
▁мэр	-6046
▁сағ	-6047
▁хам	-6048
ияның	-6049
краин	-6050
омали	-6051
▁1998	-6052
▁гарн	-6053
▁гере	-6054
▁инкл	-6055
▁план	-6056
▁ради	-6057
▁таса	-6058
▁тест	-6059
▁әсем	-6060
орциум	-6061
ушілік	-6062
▁биліг	-6063
▁бұзыл	-6064
▁жүрег	-6065
▁ліміз	-6066
▁хабарлан	-6067
▁шеберліг	-6068
▁жұртшылығ	-6069
▁ФОТОРЕПОРТАЖ	-6070
иш	-6071
вид	-6072
гіш	-6073
рот	-6074
рығ	-6075
▁ҮИ	-6076
әкір	-6077
▁320	-6078
▁без	-6079
▁паз	-6080
тихан	-6081
▁екеу	-6082
▁мере	-6083
байұлы	-6084
▁Сапар	-6085
▁Семей	-6086
▁керіп	-6087
▁фирма	-6088
▁христ	-6089
▁құпия	-6090
▁intern	-6091
ыздандыр	-6092
▁Сенатор	-6093
▁держава	-6094
▁кәмелет	-6095
▁наманың	-6096
▁көрсеткен	-6097
▁сәрінжіпов	-6098
▁Индустрияландыр	-6099
кб	-6100
яз	-6101
қм	-6102
аил	-6103
▁Ау	-6104
▁230	-6105
▁тип	-6106
▁ҚТЖ	-6107
▁функ	-6108
▁үиид	-6109
лендір	-6110
▁ланыл	-6111
▁тіміз	-6112
▁биатлон	-6113
▁консерв	-6114
▁паспорт	-6115
▁әділбек	-6116
▁алкоголь	-6117
▁біртанов	-6118
▁гарнизон	-6119
▁препарат	-6120
▁Экономика	-6121
▁керісінше	-6122
зе	-6123
рак	-6124
сан	-6125
▁co	-6126
▁РФ	-6127
реке	-6128
▁cor	-6129
▁pro	-6130
▁алп	-6131
▁нав	-6132
▁ғыз	-6133
визия	-6134
енант	-6135
ресми	-6136
▁азаю	-6137
▁кісі	-6138
▁көрі	-6139
▁әбіл	-6140
▁бейін	-6141
▁жасан	-6142
▁көшет	-6143
▁Король	-6144
▁шәкірт	-6145
▁емтихан	-6146
▁бейресми	-6147
▁резидент	-6148
структивті	-6149
▁ляньюньган	-6150
ce	-6151
бр	-6152
ӘДМ	-6153
▁мит	-6154
▁шаш	-6155
иллер	-6156
ломер	-6157
сонал	-6158
таңба	-6159
қайда	-6160
▁Ауыл	-6161
▁степ	-6162
▁естер	-6163
▁қылар	-6164
▁жылдам	-6165
▁модуль	-6166
▁украин	-6167
▁ысқаны	-6168
▁кардиох	-6169
▁тікұшақ	-6170
▁құлдыра	-6171
▁жетіспеу	-6172
▁редакция	-6173
▁лейтенант	-6174
▁q	-6175
old	-6176
пек	-6177
▁iv	-6178
▁тг	-6179
ахан	-6180
▁гон	-6181
▁гфр	-6182
альон	-6183
ресте	-6184
▁ақсу	-6185
▁ерен	-6186
▁жиын	-6187
▁ДСӘДМ	-6188
▁көбею	-6189
▁мүсін	-6190
▁ынбақ	-6191
▁әлиев	-6192
▁әреке	-6193
▁дәурен	-6194
▁кавказ	-6195
▁құрман	-6196
қазақстан	-6197
▁батальон	-6198
▁трансформатор	-6199
шт	-6200
шов	-6201
ения	-6202
ресс	-6203
▁220	-6204
▁con	-6205
▁ДСҰ	-6206
▁быз	-6207
▁кре	-6208
▁әйт	-6209
дария	-6210
▁став	-6211
▁шаны	-6212
▁Кеден	-6213
▁Шетел	-6214
▁геріп	-6215
▁кулагин	-6216
▁трактор	-6217
▁мұнайгаз	-6218
▁персонал	-6219
▁Сапарбаев	-6220
▁консорциум	-6221
▁функционал	-6222
анк	-6223
▁пот	-6224
▁1997	-6225
▁құры	-6226
бастұз	-6227
енциал	-6228
▁жүгір	-6229
▁катар	-6230
▁лукаш	-6231
▁терап	-6232
▁Италия	-6233
▁бейжің	-6234
▁тайтын	-6235
▁тиімсіз	-6236
▁қожалығ	-6237
▁Өскемен	-6238
▁ғаламтор	-6239
▁құсайынов	-6240
▁international	-6241
▁хабарланғанда	-6242
▁индустриаландыр	-6243
рут	-6244
▁KA	-6245
▁un	-6246
▁111	-6247
▁ақи	-6248
▁кил	-6249
▁окқ	-6250
▁Қор	-6251
ырман	-6252
▁Энер	-6253
▁каза	-6254
▁төте	-6255
інізге	-6256
▁жинағ	-6257
▁көбін	-6258
▁шатыр	-6259
▁Досаев	-6260
▁ойдағы	-6261
▁жиынтығ	-6262
▁нәресте	-6263
▁Корольдіг	-6264
▁инспектор	-6265
▁әлдеқайда	-6266
▁орталықтандырыл	-6267
ian	-6268
rim	-6269
гет	-6270
қыт	-6271
▁БЕ	-6272
дуақ	-6273
▁Поль	-6274
▁иесі	-6275
▁қоқы	-6276
мебаев	-6277
ушылар	-6278
▁Путин	-6279
▁парыз	-6280
ногорск	-6281
▁концеп	-6282
▁талпын	-6283
халықова	-6284
▁графика	-6285
▁мексика	-6286
▁экскурс	-6287
ломерация	-6288
▁коллегия	-6289
▁көбінесе	-6290
▁тіршіліг	-6291
du	-6292
кк	-6293
ино	-6294
сеф	-6295
ізбе	-6296
ғазы	-6297
өзен	-6298
▁114	-6299
▁Мал	-6300
▁бін	-6301
▁веб	-6302
▁жоқ	-6303
▁лив	-6304
берді	-6305
▁көле	-6306
▁кубог	-6307
▁пайым	-6308
▁керсек	-6309
▁спектр	-6310
▁сырқат	-6311
▁тастал	-6312
▁қашаған	-6313
▁күнтізбе	-6314
▁шығындар	-6315
▁инспекция	-6316
▁рейтингіс	-6317
▁естерінізге	-6318
ЙНЕ	-6319
зиё	-6320
▁ЕО	-6321
▁Кө	-6322
▁ги	-6323
анат	-6324
ская	-6325
ятын	-6326
▁асф	-6327
▁том	-6328
▁юни	-6329
▁Сауд	-6330
▁алаш	-6331
▁мәми	-6332
ғышарт	-6333
▁десін	-6334
▁дубай	-6335
▁жайыл	-6336
▁мінез	-6337
сенбаев	-6338
▁дизайн	-6339
▁лестер	-6340
▁меншіг	-6341
▁оқитын	-6342
▁телекө	-6343
▁тікпен	-6344
▁автоном	-6345
▁айырбас	-6346
▁алғышарт	-6347
▁режиссер	-6348
▁теңестір	-6349
▁континент	-6350
▁мемқызмет	-6351
▁агломерация	-6352
піш	-6353
▁Ең	-6354
▁На	-6355
port	-6356
жүйе	-6357
олла	-6358
шеру	-6359
▁192	-6360
▁инк	-6361
зиёев	-6362
ников	-6363
уссия	-6364
іркеу	-6365
▁1993	-6366
▁ЖҚЖК	-6367
▁киіз	-6368
▁риза	-6369
▁свет	-6370
▁тыға	-6371
▁БЕЙНЕ	-6372
▁атмос	-6373
▁діміз	-6374
▁лебіз	-6375
▁стенд	-6376
▁тізіл	-6377
ағалиев	-6378
▁жоқтығ	-6379
▁критер	-6380
▁кірпіш	-6381
▁танның	-6382
▁төндір	-6383
▁жарақтандыр	-6384
▁жалпыхалықтық	-6385
ец	-6386
қк	-6387
ard	-6388
улл	-6389
юсс	-6390
алау	-6391
▁сыл	-6392
▁ұры	-6393
генде	-6394
ділет	-6395
▁2001	-6396
▁патр	-6397
▁гидро	-6398
▁қашан	-6399
▁қолға	-6400
машылық	-6401
▁Польша	-6402
▁михаил	-6403
▁рахмет	-6404
▁ставка	-6405
▁қатары	-6406
▁жарақат	-6407
▁оқырман	-6408
▁ермекбаев	-6409
▁жұмағұлов	-6410
ДҰ	-6411
ту	-6412
▁C	-6413
ate	-6414
ақб	-6415
бұз	-6416
вен	-6417
жоб	-6418
ния	-6419
спан	-6420
▁Бәй	-6421
▁Жас	-6422
▁ней	-6423
▁тұз	-6424
▁щуч	-6425
меген	-6426
▁ышын	-6427
▁қысы	-6428
жанова	-6429
▁ағарт	-6430
▁балан	-6431
▁жойыл	-6432
▁сатын	-6433
гентина	-6434
▁Азамат	-6435
▁байлығ	-6436
▁коммун	-6437
▁хоккей	-6438
▁ирландия	-6439
▁атмосфера	-6440
▁экономист	-6441
▁қазагроқаржы	-6442
ab	-6443
маз	-6444
раг	-6445
рег	-6446
скі	-6447
ғыс	-6448
вейт	-6449
рант	-6450
▁113	-6451
▁БАҚ	-6452
▁Жоғ	-6453
▁гал	-6454
▁гор	-6455
▁при	-6456
▁раз	-6457
көрме	-6458
сының	-6459
▁ксро	-6460
▁өзег	-6461
▁абзал	-6462
▁бәсең	-6463
▁деден	-6464
▁қарақ	-6465
▁өткел	-6466
рополит	-6467
телеком	-6468
▁берлин	-6469
▁келбет	-6470
▁көбіне	-6471
▁Әскери	-6472
▁Жоғарғы	-6473
▁жалғасы	-6474
▁көлеңке	-6475
▁мұхамед	-6476
▁ондаған	-6477
▁қалашығ	-6478
▁экспонат	-6479
▁қолғабыс	-6480
ik	-6481
ank	-6482
шам	-6483
▁эн	-6484
ress	-6485
лана	-6486
олық	-6487
стет	-6488
▁145	-6489
▁175	-6490
▁анг	-6491
▁жэк	-6492
▁квт	-6493
▁сәл	-6494
▁біраз	-6495
▁диақб	-6496
▁ешбір	-6497
▁көгал	-6498
▁парал	-6499
▁сусын	-6500
▁тамақ	-6501
▁лайтын	-6502
▁рахмон	-6503
▁жарамды	-6504
теріндегі	-6505
▁қазақмыс	-6506
▁ветеринар	-6507
▁дауылбаев	-6508
▁компонент	-6509
▁Талдықорған	-6510
юс	-6511
гөз	-6512
жтм	-6513
▁Ма	-6514
конг	-6515
▁116	-6516
▁див	-6517
▁пеу	-6518
▁ток	-6519
бұлақ	-6520
уллин	-6521
▁омар	-6522
▁отыз	-6523
▁Әкім	-6524
тігіне	-6525
юссель	-6526
▁Кәсіп	-6527
▁көкей	-6528
▁лицей	-6529
▁сенбі	-6530
▁серия	-6531
▁Әбдір	-6532
екшіліг	-6533
▁бішкек	-6534
▁әзірге	-6535
poration	-6536
ымыздағы	-6537
▁Малайзия	-6538
▁алюминий	-6539
▁машинақұр	-6540
▁телекөпір	-6541
▁фотокөрме	-6542
▁Әкімшіліг	-6543
▁кезеңіндегі	-6544
жө	-6545
▁y	-6546
сүй	-6547
эль	-6548
әдм	-6549
▁sh	-6550
▁МЖ	-6551
▁го	-6552
альт	-6553
асат	-6554
кляр	-6555
шава	-6556
ылай	-6557
▁128	-6558
▁жүй	-6559
▁тоз	-6560
▁цел	-6561
▁ижтм	-6562
▁көпп	-6563
▁намы	-6564
▁рота	-6565
▁дәріп	-6566
▁жоғар	-6567
▁айырыл	-6568
▁жатқыз	-6569
▁куәліг	-6570
▁мораль	-6571
▁беларус	-6572
▁гумилев	-6573
▁медведев	-6574
▁онжылдық	-6575
▁параметр	-6576
▁хирургия	-6577
▁өкілеттіг	-6578
▁көрсеткендей	-6579
ill	-6580
ment	-6581
ашид	-6582
кова	-6583
коль	-6584
окко	-6585
урін	-6586
▁118	-6587
▁124	-6588
▁кос	-6589
▁рам	-6590
гория	-6591
тырақ	-6592
шанбе	-6593
▁Орал	-6594
▁Еңбек	-6595
атындай	-6596
▁бұйрығ	-6597
▁монета	-6598
▁объект	-6599
▁тұтқын	-6600
▁ханаға	-6601
▁оспанов	-6602
▁қазавто	-6603
▁интернат	-6604
▁кеткенде	-6605
▁тегеурін	-6606
мұхамбетов	-6607
▁Тәжікстан	-6608
▁білетіндей	-6609
▁жетіспеушіліг	-6610
▁агроөндірістік	-6611
▁кардиохирургия	-6612
ьян	-6613
▁До	-6614
▁уа	-6615
атар	-6616
▁аук	-6617
▁ғым	-6618
имент	-6619
обель	-6620
онтер	-6621
іспен	-6622
▁вена	-6623
▁десу	-6624
▁канц	-6625
▁кате	-6626
▁кемел	-6627
▁қарус	-6628
▁қысын	-6629
▁Арабия	-6630
▁оқытыл	-6631
▁аукцион	-6632
▁ведомст	-6633
▁қарашығ	-6634
▁Солтүстік	-6635
▁жетекшіліг	-6636
▁Тәуелсіздіг	-6637
▁мемлекеттіліг	-6638
▁қарусыздандыр	-6639
iv	-6640
құл	-6641
▁жк	-6642
▁ни	-6643
деме	-6644
дион	-6645
смен	-6646
▁157	-6647
▁пыс	-6648
жақты	-6649
сурет	-6650
▁дуал	-6651
▁жасы	-6652
▁икем	-6653
▁тосқ	-6654
▁қарт	-6655
▁ққан	-6656
▁дсәдм	-6657
▁ералы	-6658
▁шісін	-6659
▁іскен	-6660
▁қажыр	-6661
құрылым	-6662
▁Есімов	-6663
▁ақышев	-6664
▁ландыр	-6665
▁оптика	-6666
▁пысықтал	-6667
▁сүйіспен	-6668
▁тосқауыл	-6669
▁қатыстыр	-6670
▁категория	-6671
▁мәжілісмен	-6672
▁Универсиада	-6673
арх	-6674
кед	-6675
кор	-6676
раж	-6677
▁Ах	-6678
▁цз	-6679
▁ҚМ	-6680
овоз	-6681
тинг	-6682
ытыл	-6683
▁йық	-6684
▁соқ	-6685
▁төс	-6686
амбет	-6687
▁Атам	-6688
▁Банк	-6689
▁ердо	-6690
озитор	-6691
▁іспет	-6692
ссертал	-6693
▁абылай	-6694
▁лагерь	-6695
▁учаскі	-6696
▁стадион	-6697
▁елбасына	-6698
▁кейіннен	-6699
▁нақтырақ	-6700
▁навигация	-6701
▁экскурсия	-6702
▁көгалдандыр	-6703
▁конструктивті	-6704
▁машинақұрылыс	-6705
ОО	-6706
ык	-6707
әл	-6708
est	-6709
ако	-6710
вай	-6711
мән	-6712
пау	-6713
рет	-6714
құм	-6715
▁Мұ	-6716
▁Ру	-6717
▁еу	-6718
▁кн	-6719
▁оа	-6720
аков	-6721
банк	-6722
горь	-6723
▁193	-6724
▁бая	-6725
▁лаг	-6726
▁рим	-6727
▁шав	-6728
▁Қас	-6729
▁қоң	-6730
імова	-6731
▁Ядро	-6732
▁альб	-6733
▁тыды	-6734
▁түзе	-6735
миссия	-6736
▁Алтын	-6737
▁алуан	-6738
▁күмән	-6739
▁финал	-6740
▁үшжақ	-6741
▁полиэт	-6742
▁серпіл	-6743
▁шіркеу	-6744
▁юнисеф	-6745
ографика	-6746
▁маршрут	-6747
бұзушылық	-6748
▁инфекция	-6749
▁тұтастығ	-6750
▁пайымынша	-6751
▁топтастыр	-6752
▁мамытбеков	-6753
дақ	-6754
лия	-6755
▁фи	-6756
▁Үн	-6757
екті	-6758
▁155	-6759
▁the	-6760
▁нөл	-6761
▁эйр	-6762
іктір	-6763
▁prim	-6764
▁аэха	-6765
▁ақто	-6766
▁дысы	-6767
▁литр	-6768
▁меди	-6769
▁Ауған	-6770
▁Тараз	-6771
▁айғағ	-6772
▁кетін	-6773
▁пеген	-6774
▁робот	-6775
▁сәлем	-6776
деліліг	-6777
▁Наурыз	-6778
▁алаңда	-6779
▁дархан	-6780
▁тастар	-6781
▁ердоған	-6782
▁контент	-6783
▁Владимир	-6784
▁аттестат	-6785
▁жаңаөзен	-6786
▁сырдария	-6787
▁қаппаров	-6788
▁аргентина	-6789
▁екібастұз	-6790
▁жылдамдығ	-6791
▁композитор	-6792
ek	-6793
вр	-6794
пп	-6795
уы	-6796
ics	-6797
мун	-6798
тип	-6799
икан	-6800
▁117	-6801
▁260	-6802
▁ЖОО	-6803
▁Сан	-6804
▁аек	-6805
▁так	-6806
▁экс	-6807
▁іжө	-6808
▁ұбх	-6809
inist	-6810
▁мото	-6811
▁праг	-6812
▁туыл	-6813
▁ышқа	-6814
▁ұран	-6815
абеков	-6816
страда	-6817
түстіг	-6818
▁аудан	-6819
▁махаб	-6820
▁раунд	-6821
▁көпбал	-6822
оператор	-6823
ұхамедов	-6824
▁төреліг	-6825
▁артиллер	-6826
▁светлана	-6827
▁түймебаев	-6828
▁метрология	-6829
▁тілеуберді	-6830
▁қазавтожол	-6831
▁үстемдігін	-6832
КО	-6833
иқа	-6834
мам	-6835
фак	-6836
▁Дж	-6837
▁мс	-6838
▁127	-6839
▁Инф	-6840
▁бит	-6841
▁ерт	-6842
▁рмк	-6843
▁уәл	-6844
▁шев	-6845
▁ұак	-6846
іккен	-6847
▁арыл	-6848
▁джон	-6849
▁жалп	-6850
▁жуыр	-6851
денция	-6852
сіздік	-6853
▁портф	-6854
▁босқын	-6855
▁тұлпар	-6856
▁жәмішев	-6857
▁тезірек	-6858
▁эстрада	-6859
▁қоңырау	-6860
▁әзірліг	-6861
ларындағы	-6862
▁волонтер	-6863
▁кәсіпқой	-6864
▁ведомства	-6865
▁концепция	-6866
▁сотталған	-6867
конструкция	-6868
▁артиллерия	-6869
▁corporation	-6870
▁айырмашылық	-6871
ШҰ	-6872
фа	-6873
ээн	-6874
іле	-6875
▁ro	-6876
▁ТЖ	-6877
▁яс	-6878
езов	-6879
▁137	-6880
▁and	-6881
▁сит	-6882
ирург	-6883
▁1999	-6884
▁драй	-6885
▁ыншы	-6886
иханов	-6887
лектор	-6888
сайлау	-6889
сыздар	-6890
ханұлы	-6891
▁дистр	-6892
▁жағар	-6893
▁смарт	-6894
inister	-6895
▁гердің	-6896
▁жүргін	-6897
▁құрлығ	-6898
▁экожүйе	-6899
▁қасымов	-6900
▁километр	-6901
▁сыйымдылығ	-6902
ят	-6903
▁'	-6904
ine	-6905
діл	-6906
хаб	-6907
ьев	-6908
▁ХҚ	-6909
▁аақ	-6910
▁пыз	-6911
▁сән	-6912
амжар	-6913
мбаев	-6914
пенді	-6915
құжат	-6916
▁лига	-6917
▁ажыра	-6918
▁қаһар	-6919
кольник	-6920
▁ліктен	-6921
▁салиқа	-6922
бергенов	-6923
ээнбеков	-6924
▁парасат	-6925
▁Біріккен	-6926
▁Бәйтерек	-6927
▁қайтарыл	-6928
▁көпбалалы	-6929
▁беретіндіг	-6930
▁инклюзивті	-6931
▁Инфографика	-6932
▁коммерцияландыр	-6933
ric	-6934
арм	-6935
бын	-6936
ешт	-6937
зым	-6938
лең	-6939
пағ	-6940
цин	-6941
▁ЖІ	-6942
итан	-6943
ософ	-6944
рейн	-6945
▁бэк	-6946
▁под	-6947
▁құж	-6948
шілер	-6949
▁3000	-6950
▁брон	-6951
▁есіг	-6952
▁маса	-6953
▁сцен	-6954
▁Өңір	-6955
гендік	-6956
сүйгіш	-6957
тастық	-6958
▁керді	-6959
▁паром	-6960
амжаров	-6961
▁кувейт	-6962
▁транск	-6963
ақтастығ	-6964
▁дистриб	-6965
▁күнінде	-6966
▁орынбор	-6967
▁философ	-6968
eminister	-6969
▁объектив	-6970
▁тіршілік	-6971
▁Ауғанстан	-6972
▁отырғанда	-6973
▁магистрант	-6974
▁туроператор	-6975
жи	-6976
пе	-6977
еля	-6978
жық	-6979
уды	-6980
▁Со	-6981
▁әш	-6982
тияр	-6983
▁119	-6984
▁141	-6985
▁Кан	-6986
▁вин	-6987
▁миг	-6988
▁шоқ	-6989
уашев	-6990
▁леме	-6991
дапешт	-6992
▁герге	-6993
▁дуаль	-6994
▁инкуб	-6995
▁ұрпағ	-6996
▁Каспий	-6997
▁десант	-6998
▁лықтан	-6999
▁максим	-7000
гендігін	-7001
▁спектак	-7002
▁іншіден	-7003
сайлауком	-7004
▁жүздеген	-7005
▁махаббат	-7006
▁потенциал	-7007
▁ортсайлауком	-7008
▁primeminister	-7009
▁мемлекеттілік	-7010
▁реконструкция	-7011
ge	-7012
iz	-7013
уп	-7014
бел	-7015
ван	-7016
зақ	-7017
сия	-7018
ыра	-7019
▁tr	-7020
иева	-7021
орон	-7022
▁122	-7023
▁126	-7024
▁ЖІӨ	-7025
▁бжк	-7026
▁бух	-7027
▁дев	-7028
▁кал	-7029
хстан	-7030
ыстан	-7031
▁Амер	-7032
▁гимн	-7033
▁тана	-7034
▁түйе	-7035
▁ҮИИД	-7036
ылықты	-7037
электр	-7038
▁Жақсы	-7039
▁Қанат	-7040
▁асфальт	-7041
▁Байқоңыр	-7042
▁брюссель	-7043
▁критерий	-7044
▁мирзиёев	-7045
▁Олимпиада	-7046
▁тенденция	-7047
▁фотосурет	-7048
▁аттестация	-7049
▁көшбасшылығ	-7050
▁Түрікменстан	-7051
EX	-7052
зо	-7053
хе	-7054
яқ	-7055
сут	-7056
үст	-7057
▁Ан	-7058
▁фр	-7059
рмен	-7060
таль	-7061
▁135	-7062
▁270	-7063
▁АЭФ	-7064
▁Чех	-7065
▁асы	-7066
▁бұн	-7067
▁пін	-7068
▁стр	-7069
ындай	-7070
▁апар	-7071
▁тұса	-7072
▁тәжі	-7073
▁ұшағ	-7074
гілдір	-7075
дердің	-7076
дылығы	-7077
тардың	-7078
▁ақсақ	-7079
▁бұның	-7080
▁данда	-7081
▁данға	-7082
▁крист	-7083
▁мамен	-7084
▁трамп	-7085
▁ышпен	-7086
▁Сербия	-7087
▁мемлек	-7088
зиденция	-7089
▁гонконг	-7090
▁концерн	-7091
▁николай	-7092
▁астрахан	-7093
▁иманғали	-7094
▁көгілдір	-7095
▁бітімгерлік	-7096
▁қызметіндегі	-7097
лк	-7098
діз	-7099
иға	-7100
пей	-7101
▁мб	-7102
▁іт	-7103
олий	-7104
став	-7105
▁206	-7106
▁БАӘ	-7107
▁Мыр	-7108
▁Сай	-7109
▁кәм	-7110
▁рыс	-7111
▁суы	-7112
▁шөп	-7113
гмент	-7114
сутек	-7115
▁Опер	-7116
▁камп	-7117
▁олжа	-7118
▁респ	-7119
▁слов	-7120
▁турб	-7121
▁ҰҚШҰ	-7122
▁өлең	-7123
майтын	-7124
▁битум	-7125
▁ектер	-7126
▁ферро	-7127
▁ұлғая	-7128
бақылау	-7129
кедония	-7130
▁кірген	-7131
▁күндіз	-7132
▁нобель	-7133
▁тағзым	-7134
▁канцлер	-7135
▁меркель	-7136
▁редактор	-7137
▁хорватия	-7138
▁егемендіг	-7139
▁лукашенко	-7140
▁Энергетика	-7141
▁резиденция	-7142
▁қазақтелеком	-7143
уи	-7144
әқ	-7145
sat	-7146
▁Бр	-7147
▁ЖШ	-7148
ауов	-7149
ибол	-7150
▁154	-7151
▁750	-7152
▁сың	-7153
▁әбу	-7154
имова	-7155
▁анат	-7156
▁дату	-7157
▁евро	-7158
▁мырз	-7159
▁осал	-7160
▁ошағ	-7161
▁әдем	-7162
▁Опера	-7163
▁скляр	-7164
кенбаев	-7165
▁әуезов	-7166
▁Америка	-7167
▁баррель	-7168
▁айымбетов	-7169
▁белсендір	-7170
▁мораторий	-7171
PO	-7172
ct	-7173
эц	-7174
яд	-7175
ҚМ	-7176
ике	-7177
иро	-7178
кий	-7179
ниг	-7180
пыз	-7181
▁шә	-7182
дала	-7183
сене	-7184
▁121	-7185
▁Мед	-7186
▁бож	-7187
▁бқо	-7188
▁дәм	-7189
▁неб	-7190
▁піз	-7191
▁рог	-7192
▁уым	-7193
коның	-7194
некер	-7195
ыстар	-7196
▁десе	-7197
▁куба	-7198
▁хром	-7199
▁Қоға	-7200
olding	-7201
дролық	-7202
ымызша	-7203
ілетін	-7204
▁Жасыл	-7205
▁айғақ	-7206
▁асқақ	-7207
▁ересе	-7208
▁тыдан	-7209
▁шабыт	-7210
▁кесене	-7211
▁науқан	-7212
▁танбек	-7213
▁шавкат	-7214
▁әлихан	-7215
▁биіктіг	-7216
▁факульт	-7217
ологиялық	-7218
▁атамбаев	-7219
▁жансейіт	-7220
▁қазғарыш	-7221
▁докторант	-7222
▁жұмылдырыл	-7223
▁көмірсутек	-7224
▁Университет	-7225
au	-7226
ви	-7227
тк	-7228
юр	-7229
ina	-7230
атт	-7231
аун	-7232
жеп	-7233
ияз	-7234
пор	-7235
анақ	-7236
пинг	-7237
▁123	-7238
▁Kaz	-7239
▁kad	-7240
▁ЖШС	-7241
▁Сәр	-7242
▁адв	-7243
▁боя	-7244
▁пын	-7245
▁тжм	-7246
анбай	-7247
терлі	-7248
▁1996	-7249
▁атай	-7250
▁сөйт	-7251
▁хоре	-7252
▁шіні	-7253
▁қате	-7254
▁бесіг	-7255
▁еркін	-7256
▁қарар	-7257
▁Мәдени	-7258
▁бабына	-7259
▁дыққан	-7260
▁жалған	-7261
▁ыссыздар	-7262
▁шетелдегі	-7263
ip	-7264
бу	-7265
кол	-7266
уля	-7267
▁01	-7268
▁ag	-7269
▁de	-7270
арон	-7271
асай	-7272
малы	-7273
олик	-7274
▁гур	-7275
▁еұу	-7276
▁жән	-7277
▁кеп	-7278
▁люк	-7279
▁тұм	-7280
▁ққс	-7281
▁өне	-7282
маков	-7283
химия	-7284
ғарин	-7285
▁comp	-7286
▁терр	-7287
маркет	-7288
▁elect	-7289
▁касса	-7290
▁лабор	-7291
▁латып	-7292
▁тәмам	-7293
▁істен	-7294
▁әбден	-7295
▁карьер	-7296
▁трансп	-7297
▁радикал	-7298
▁қолтаңба	-7299
▁қысқартыл	-7300
▁магистратура	-7301
45	-7302
80	-7303
ma	-7304
гу	-7305
дп	-7306
▁M	-7307
ast	-7308
акр	-7309
бей	-7310
иат	-7311
онт	-7312
▁op	-7313
▁ph	-7314
амыз	-7315
арал	-7316
атыл	-7317
конт	-7318
оның	-7319
ордж	-7320
ыған	-7321
▁182	-7322
▁ІІМ	-7323
▁Фин	-7324
▁пир	-7325
▁рым	-7326
▁ғұм	-7327
▁қош	-7328
▁Келі	-7329
▁нато	-7330
▁поез	-7331
▁сочи	-7332
▁ұлас	-7333
дайтын	-7334
удсмен	-7335
▁авиак	-7336
▁адвок	-7337
▁ласын	-7338
▁музык	-7339
▁түгел	-7340
▁Байбек	-7341
▁жоғалт	-7342
▁сценар	-7343
▁шөкеев	-7344
▁Вьетнам	-7345
▁асырылу	-7346
▁перинат	-7347
▁безендір	-7348
▁жағымсыз	-7349
▁сарыағаш	-7350
▁голландия	-7351
▁мультимед	-7352
▁қазтрансойл	-7353
зю	-7354
ани	-7355
овь	-7356
уге	-7357
шен	-7358
▁II	-7359
▁аи	-7360
▁гл	-7361
▁ҰБ	-7362
2050	-7363
ффиц	-7364
▁360	-7365
▁for	-7366
▁Біл	-7367
▁Жер	-7368
▁Исп	-7369
▁жек	-7370
▁жэо	-7371
▁рио	-7372
▁сұл	-7373
▁экв	-7374
сайыс	-7375
янмен	-7376
үстем	-7377
▁2002	-7378
▁city	-7379
▁гелі	-7380
▁омбы	-7381
▁ұпай	-7382
energy	-7383
иболла	-7384
қандығ	-7385
әтерлі	-7386
▁Нидер	-7387
▁абдал	-7388
▁арсен	-7389
▁жоғал	-7390
▁нотар	-7391
▁парсы	-7392
▁рашид	-7393
▁топыр	-7394
▁тоғыс	-7395
▁фитос	-7396
▁дықтан	-7397
▁лекция	-7398
▁сөйтіп	-7399
▁хартия	-7400
▁Испания	-7401
▁капитан	-7402
▁марокко	-7403
▁қозғалт	-7404
ссерталес	-7405
▁көшпенді	-7406
▁ойластыр	-7407
▁қаһарман	-7408
▁әшімбаев	-7409
▁Жақсыбеков	-7410
▁полиэтилен	-7411
▁қазтрансгаз	-7412
▁қайырбекова	-7413
▁бейнебақылау	-7414
▁жылдарындағы	-7415
▁T	-7416
any	-7417
ell	-7418
мыр	-7419
оск	-7420
▁ar	-7421
▁ха	-7422
ақым	-7423
быра	-7424
граф	-7425
▁146	-7426
▁210	-7427
▁exp	-7428
▁Бри	-7429
▁Ком	-7430
▁Тұр	-7431
▁аял	-7432
▁опп	-7433
▁шор	-7434
лекет	-7435
сенов	-7436
ғолия	-7437
▁дара	-7438
арафон	-7439
керлер	-7440
ұзақов	-7441
▁айгүл	-7442
▁аллея	-7443
▁иммун	-7444
▁меден	-7445
▁мұнан	-7446
▁сонша	-7447
▁ықшам	-7448
▁ғымен	-7449
▁Бейбіт	-7450
▁Рухани	-7451
▁пәрмен	-7452
▁қауқар	-7453
▁аяғында	-7454
▁варшава	-7455
▁процент	-7456
▁сұйытыл	-7457
қандардың	-7458
▁дирекция	-7459
▁музыкант	-7460
▁словения	-7461
▁автономды	-7462
▁санитария	-7463
▁өткенінде	-7464
▁қарашығанақ	-7465
▁авиакомпания	-7466
ob	-7467
ЫДҰ	-7468
абл	-7469
мал	-7470
риш	-7471
▁ОА	-7472
▁Сә	-7473
▁ех	-7474
▁шү	-7475
ital	-7476
етан	-7477
пром	-7478
уров	-7479
▁АЭА	-7480
▁Пет	-7481
▁абу	-7482
▁вер	-7483
▁коэ	-7484
▁лин	-7485
▁ойл	-7486
ислав	-7487
істіг	-7488
▁ЭЫДҰ	-7489
▁сеул	-7490
берген	-7491
ылықов	-7492
▁kadex	-7493
▁антон	-7494
▁армян	-7495
▁минск	-7496
▁скрин	-7497
▁тылар	-7498
▁целин	-7499
▁шұжық	-7500
▁ғұмыр	-7501
йсенова	-7502
▁асанов	-7503
▁жасына	-7504
▁консал	-7505
▁Армения	-7506
▁арсенал	-7507
▁дәнекер	-7508
▁сегмент	-7509
▁гимназия	-7510
▁территор	-7511
▁электром	-7512
▁хабарландыр	-7513
▁энерготиімділік	-7514
фе	-7515
▁D	-7516
int	-7517
ood	-7518
алл	-7519
обил	-7520
отип	-7521
стың	-7522
ікте	-7523
▁131	-7524
▁153	-7525
▁мил	-7526
▁нәз	-7527
▁шап	-7528
гелді	-7529
оград	-7530
ыпова	-7531
▁анти	-7532
▁Бақыт	-7533
▁айшық	-7534
▁бұлар	-7535
▁мохам	-7536
▁тұспа	-7537
▁шыған	-7538
▁қараб	-7539
▁ұйғар	-7540
контент	-7541
энергия	-7542
▁жалтар	-7543
▁керген	-7544
▁рүстем	-7545
▁тықпен	-7546
▁тұрған	-7547
▁holding	-7548
▁адвокат	-7549
▁альберт	-7550
▁бабының	-7551
▁бұзылған	-7552
▁тұрғызыл	-7553
▁қырымбек	-7554
▁өндірген	-7555
▁алаңдаушылық	-7556
дс	-7557
loc	-7558
mat	-7559
жин	-7560
кок	-7561
лұм	-7562
онг	-7563
сіт	-7564
rate	-7565
естр	-7566
улығ	-7567
▁151	-7568
▁650	-7569
▁iii	-7570
▁Бол	-7571
▁Кар	-7572
▁акц	-7573
▁бин	-7574
▁лам	-7575
▁мжс	-7576
▁тәл	-7577
▁тәт	-7578
▁ғай	-7579
▁ұәқ	-7580
▁әбі	-7581
андия	-7582
іңғай	-7583
▁леті	-7584
▁ымда	-7585
▁құла	-7586
ұлының	-7587
▁Алмат	-7588
▁Корол	-7589
▁гастр	-7590
▁игорь	-7591
▁канал	-7592
сембург	-7593
▁мемлект	-7594
▁біріңғай	-7595
▁психолог	-7596
▁скрининг	-7597
▁стипенди	-7598
▁Швейцария	-7599
▁жээнбеков	-7600
▁спектакль	-7601
▁құрметпен	-7602
▁Назарбаева	-7603
▁консалтинг	-7604
▁экстремист	-7605
▁Ассамблеясы	-7606
▁сүйіспеншілік	-7607
ЖТ	-7608
ирк	-7609
тып	-7610
энь	-7611
echn	-7612
имит	-7613
ұран	-7614
▁136	-7615
▁172	-7616
▁Мар	-7617
▁Мем	-7618
▁Пер	-7619
▁Шан	-7620
▁гри	-7621
▁зел	-7622
▁шаһ	-7623
гресс	-7624
ұтқыр	-7625
▁гааг	-7626
▁күше	-7627
▁мәре	-7628
▁неке	-7629
▁пайы	-7630
▁теме	-7631
▁түрт	-7632
▁Әмір	-7633
rategy	-7634
▁залал	-7635
▁рынок	-7636
▁филип	-7637
▁шаның	-7638
▁элита	-7639
▁құдай	-7640
▁әдемі	-7641
▁біркел	-7642
▁вектор	-7643
▁мағлұм	-7644
▁Қайрат	-7645
▁Жақыпов	-7646
▁душанбе	-7647
энергетика	-7648
▁Финляндия	-7649
▁бейнебаян	-7650
▁омбудсмен	-7651
▁көппәтерлі	-7652
▁территория	-7653
▁электровоз	-7654
▁ветеринария	-7655
▁түркменстан	-7656
▁абаттандырыл	-7657
дә	-7658
иу	-7659
км	-7660
мо	-7661
тс	-7662
гул	-7663
идо	-7664
маш	-7665
мия	-7666
ний	-7667
ное	-7668
сіп	-7669
чер	-7670
чес	-7671
паев	-7672
стам	-7673
▁156	-7674
▁keg	-7675
▁МЖӘ	-7676
▁аэф	-7677
▁іід	-7678
▁ііі	-7679
истік	-7680
назар	-7681
сапар	-7682
умбия	-7683
▁бере	-7684
▁керу	-7685
▁інге	-7686
▁қиыл	-7687
▁әуек	-7688
▁ескір	-7689
▁жаман	-7690
▁заңжо	-7691
▁секір	-7692
▁транш	-7693
▁Инвест	-7694
▁патент	-7695
▁реестр	-7696
▁қастер	-7697
▁банкрот	-7698
▁домбыра	-7699
▁концент	-7700
▁коэффиц	-7701
▁логотип	-7702
▁макарон	-7703
▁планета	-7704
▁миграция	-7705
▁төлқұжат	-7706
▁азаматтығ	-7707
▁сәйкестіг	-7708
▁шәкіртақы	-7709
▁әділеттілік	-7710
sk	-7711
ul	-7712
▁F	-7713
ash	-7714
erg	-7715
iii	-7716
дор	-7717
иоп	-7718
ней	-7719
род	-7720
тек	-7721
чен	-7722
▁of	-7723
▁зт	-7724
▁шм	-7725
байн	-7726
даль	-7727
хема	-7728
▁ДСМ	-7729
▁аян	-7730
▁кир	-7731
▁пеш	-7732
ардия	-7733
бетон	-7734
геран	-7735
истер	-7736
трина	-7737
ьекті	-7738
▁авиа	-7739
▁азая	-7740
▁алар	-7741
▁жқжк	-7742
▁заид	-7743
▁ирак	-7744
▁лату	-7745
▁мүлк	-7746
▁Темір	-7747
▁божко	-7748
▁екпін	-7749
▁ербол	-7750
▁жайға	-7751
▁рефер	-7752
▁схема	-7753
▁шайқа	-7754
▁авария	-7755
▁дариға	-7756
▁діктен	-7757
▁корабл	-7758
▁отырар	-7759
▁парник	-7760
▁презид	-7761
▁әнұран	-7762
▁Израиль	-7763
▁электор	-7764
▁Мәдениет	-7765
▁Дүйсенова	-7766
▁Саудабаев	-7767
▁оппозиция	-7768
▁факультет	-7769
▁қатардағы	-7770
▁жетілдіріл	-7771
▁степногорск	-7772
▁биотехнология	-7773
▁жарақтандырыл	-7774
ace	-7775
ене	-7776
иян	-7777
ңғы	-7778
▁02	-7779
▁МБ	-7780
▁Сү	-7781
осов	-7782
імді	-7783
▁133	-7784
▁850	-7785
▁Абд	-7786
▁Лат	-7787
▁Сар	-7788
▁аку	-7789
▁ддұ	-7790
▁хол	-7791
▁өрі	-7792
рижер	-7793
хатшы	-7794
▁керт	-7795
▁реад	-7796
▁симп	-7797
▁спар	-7798
▁эфир	-7799
▁ясжт	-7800
денген	-7801
терриш	-7802
▁Федер	-7803
▁евген	-7804
▁жұман	-7805
▁ибраг	-7806
▁шасын	-7807
▁қуғын	-7808
циалист	-7809
шыларын	-7810
▁біржан	-7811
▁кемсіт	-7812
▁мульти	-7813
▁нейрох	-7814
▁қайнар	-7815
▁бабында	-7816
▁комбайн	-7817
▁мигрант	-7818
▁оралман	-7819
▁өрістет	-7820
▁академик	-7821
▁бекетаев	-7822
▁дәріптеу	-7823
▁философия	-7824
▁белоруссия	-7825
▁реадмиссия	-7826
▁мүмкіншілік	-7827
▁кәсіпорнының	-7828
tz	-7829
лу	-7830
юк	-7831
ans	-7832
жас	-7833
итм	-7834
мау	-7835
нем	-7836
нит	-7837
ьго	-7838
қдб	-7839
әлі	-7840
▁Ав	-7841
▁из	-7842
▁Ұй	-7843
ақож	-7844
есін	-7845
ранс	-7846
тері	-7847
ыртп	-7848
ғана	-7849
▁138	-7850
▁147	-7851
▁KAZ	-7852
▁Жіб	-7853
▁Лит	-7854
▁Про	-7855
▁бүр	-7856
▁йын	-7857
▁саз	-7858
қорыт	-7859
▁1941	-7860
▁ауди	-7861
▁ақиұ	-7862
▁банг	-7863
▁мойн	-7864
▁тесе	-7865
▁чили	-7866
▁Әбді	-7867
ингент	-7868
ованың	-7869
қалиев	-7870
▁Чехия	-7871
▁елена	-7872
▁кәміл	-7873
▁такси	-7874
▁тенге	-7875
▁урбан	-7876
▁қадір	-7877
▁әркім	-7878
▁Бизнес	-7879
▁Шанхай	-7880
▁бакала	-7881
▁палест	-7882
▁сүргін	-7883
▁тальго	-7884
▁алексей	-7885
▁ақтоғай	-7886
▁зерттел	-7887
▁шығанағ	-7888
пермаркет	-7889
▁анатолий	-7890
▁колумбия	-7891
▁монғолия	-7892
▁пробация	-7893
▁сүлеймен	-7894
▁қабиболла	-7895
▁мүдделіліг	-7896
▁сенімділіг	-7897
▁құрастырыл	-7898
▁сабақтастығ	-7899
▁ықпалдастыр	-7900
▁орайластырыл	-7901
▁құқықбұзушылық	-7902
of	-7903
ph	-7904
ron	-7905
анг	-7906
еан	-7907
ифа	-7908
▁07	-7909
▁XX	-7910
▁po	-7911
▁ры	-7912
▁фо	-7913
авто	-7914
берг	-7915
дель	-7916
лері	-7917
▁129	-7918
▁185	-7919
▁ktz	-7920
▁баз	-7921
▁кот	-7922
▁Қол	-7923
идеми	-7924
фония	-7925
ымдар	-7926
ілген	-7927
▁1945	-7928
▁2023	-7929
▁амал	-7930
▁ауыт	-7931
▁боса	-7932
▁цирк	-7933
▁шары	-7934
асының	-7935
матизм	-7936
ошенко	-7937
угалия	-7938
эконом	-7939
▁Литва	-7940
▁валер	-7941
▁денін	-7942
▁керге	-7943
▁ледік	-7944
▁нәзік	-7945
▁телер	-7946
▁тәтті	-7947
азиялық	-7948
▁Жоғары	-7949
▁ауыртп	-7950
▁дықпен	-7951
▁монако	-7952
▁қоятын	-7953
▁гвардия	-7954
▁картина	-7955
▁орнымен	-7956
▁процесс	-7957
▁центнер	-7958
▁іссапар	-7959
▁үлестір	-7960
▁Сингапур	-7961
▁будапешт	-7962
▁доктрина	-7963
▁медиатор	-7964
▁христиан	-7965
▁школьник	-7966
▁Петропавл	-7967
▁мыңжылдық	-7968
▁саудабаев	-7969
▁телевизия	-7970
▁толғандыр	-7971
▁Келімбетов	-7972
▁контингент	-7973
▁нұрымбетов	-7974
▁ферроқорыт	-7975
▁целиноград	-7976
▁лаборатория	-7977
▁федеративті	-7978
▁мәдениетаралық	-7979
▁қатысатындығын	-7980
ru	-7981
КМ	-7982
шн	-7983
юн	-7984
әз	-7985
▁P	-7986
erv	-7987
аби	-7988
айл	-7989
вар	-7990
шин	-7991
▁EX	-7992
▁Ду	-7993
исян	-7994
кара	-7995
мере	-7996
окал	-7997
▁134	-7998
▁168	-7999
▁183	-8000
▁188	-8001
▁гип	-8002
▁жығ	-8003
▁хкб	-8004
▁қып	-8005
абарт	-8006
екеле	-8007
мұхан	-8008
озиум	-8009
селор	-8010
ұлына	-8011
▁иван	-8012
▁педи	-8013
▁роль	-8014
▁ұңғы	-8015
▁әлім	-8016
овьева	-8017
омпром	-8018
ондент	-8019
салалы	-8020
туалды	-8021
▁kegoc	-8022
▁Алекс	-8023
▁акциз	-8024
▁видео	-8025
▁далар	-8026
▁дыбыс	-8027
▁кейіп	-8028
▁лалар	-8029
▁пекин	-8030
▁сұрып	-8031
▁сәкен	-8032
▁темек	-8033
дылығын	-8034
шембаев	-8035
ғылықты	-8036
▁Astana	-8037
▁бұндай	-8038
▁немере	-8039
▁сәдуақ	-8040
акрабарт	-8041
▁ланатын	-8042
▁спартак	-8043
▁эпидеми	-8044
кендердің	-8045
▁еркіндіг	-8046
▁орнықтыр	-8047
▁симфония	-8048
▁алатындығ	-8049
▁гүлденген	-8050
▁македония	-8051
▁металлург	-8052
▁симпозиум	-8053
▁стипендиат	-8054
▁хореография	-8055
▁конфедерация	-8056
▁Әбдірахманов	-8057
▁қалаларындағы	-8058
se	-8059
ху	-8060
гар	-8061
ици	-8062
орг	-8063
▁тш	-8064
ныша	-8065
▁144	-8066
▁165	-8067
▁203	-8068
▁cit	-8069
▁gov	-8070
▁nur	-8071
▁дүр	-8072
▁хай	-8073
бағыс	-8074
терін	-8075
▁EXPO	-8076
▁княз	-8077
▁күрт	-8078
▁петр	-8079
▁түйт	-8080
▁хель	-8081
▁іңіз	-8082
▁қпыз	-8083
▁қыра	-8084
гендіг	-8085
дество	-8086
іктеме	-8087
▁алмаз	-8088
▁бөгет	-8089
▁карло	-8090
▁кілем	-8091
▁мызғы	-8092
▁тараб	-8093
▁шаһар	-8094
▁ымдық	-8095
▁ұйғыр	-8096
▁Канада	-8097
▁жазған	-8098
▁кіргіз	-8099
▁абонент	-8100
▁марафон	-8101
▁номинал	-8102
▁турбина	-8103
изациялау	-8104
▁келтіріл	-8105
▁оңтүстіг	-8106
▁селектор	-8107
▁қазпошта	-8108
▁үстемдігі	-8109
▁қанағаттанарлық	-8110
ао	-8111
уэ	-8112
nov	-8113
ЖТМ	-8114
ини	-8115
▁ЕХ	-8116
▁Жә	-8117
акөл	-8118
асса	-8119
мира	-8120
шевр	-8121
ьяна	-8122
▁139	-8123
▁380	-8124
▁gre	-8125
▁Гру	-8126
▁Сот	-8127
▁жэс	-8128
▁ысқ	-8129
▁Ұйы	-8130
илиси	-8131
лігін	-8132
скіде	-8133
қанов	-8134
▁1300	-8135
▁ИЖТМ	-8136
▁крем	-8137
▁сипа	-8138
▁алгор	-8139
▁алпыс	-8140
▁асеан	-8141
▁батар	-8142
▁дадым	-8143
▁кенже	-8144
▁ланың	-8145
▁токио	-8146
▁шешіл	-8147
▁эфиоп	-8148
▁Қайыр	-8149
▁әнуар	-8150
спансер	-8151
▁kazsat	-8152
▁волков	-8153
▁ласпен	-8154
▁мейтін	-8155
▁Әділет	-8156
ландырыл	-8157
▁айталық	-8158
▁бетінше	-8159
▁түсіріл	-8160
▁strategy	-8161
▁Мұхаммед	-8162
▁біркелкі	-8163
▁жағармай	-8164
▁кампания	-8165
▁күнбағыс	-8166
▁мағлұмат	-8167
▁мекенжай	-8168
▁ұқсастығ	-8169
▁импорттал	-8170
▁көпсалалы	-8171
▁қолдайтын	-8172
▁басшыларын	-8173
▁сауаттылығ	-8174
▁этнография	-8175
▁Бейбітшілік	-8176
▁кардиология	-8177
▁органикалық	-8178
▁түсініктеме	-8179
▁әуекомпания	-8180
▁қалыптастырыл	-8181
10	-8182
17	-8183
жу	-8184
пов	-8185
сый	-8186
тез	-8187
янь	-8188
▁ot	-8189
▁142	-8190
▁164	-8191
▁171	-8192
▁sol	-8193
▁Тас	-8194
▁бун	-8195
▁дэф	-8196
▁ҰБТ	-8197
убаев	-8198
▁ЕҚДБ	-8199
▁егін	-8200
▁олег	-8201
▁рент	-8202
▁Құра	-8203
▁үйір	-8204
▁Мырза	-8205
▁Сүлей	-8206
▁вирус	-8207
▁еққдб	-8208
▁кешір	-8209
▁таппа	-8210
▁тасып	-8211
▁ындық	-8212
▁ілгер	-8213
▁індер	-8214
сембаев	-8215
шевройл	-8216
▁бұйрық	-8217
▁керуен	-8218
▁мыңбай	-8219
▁статус	-8220
иядролық	-8221
▁корабль	-8222
▁татьяна	-8223
▁эмомали	-8224
▁генетика	-8225
▁зеландия	-8226
▁қазпочта	-8227
▁kazenergy	-8228
▁тәртіппен	-8229
▁жұманғарин	-8230
▁меморгандар	-8231
▁журналистика	-8232
▁шеккендердің	-8233
▁әбдіхалықова	-8234
bus	-8235
гей	-8236
ико	-8237
▁on	-8238
▁Ди	-8239
▁шқ	-8240
▁Құ	-8241
асты	-8242
кірт	-8243
ожин	-8244
цина	-8245
ғаев	-8246
▁169	-8247
▁173	-8248
▁Мон	-8249
айнер	-8250
басын	-8251
терді	-8252
типат	-8253
ценат	-8254
қазан	-8255
▁bank	-8256
▁Абай	-8257
▁ақыр	-8258
▁неге	-8259
▁тірі	-8260
▁шипа	-8261
▁қарп	-8262
▁Петер	-8263
▁асхат	-8264
ғалиева	-8265
▁бекіре	-8266
▁болгар	-8267
▁джордж	-8268
▁осынша	-8269
▁шамасы	-8270
икативті	-8271
▁express	-8272
▁апталығ	-8273
▁бахрейн	-8274
▁вакцина	-8275
▁дамитын	-8276
▁меценат	-8277
▁мойнына	-8278
▁терапия	-8279
▁ілтипат	-8280
▁байменов	-8281
▁бәсекеле	-8282
▁гутерриш	-8283
ототехника	-8284
▁астрахань	-8285
▁болғандығ	-8286
▁инкубатор	-8287
▁казахстан	-8288
▁тыңғылықты	-8289
▁қожамжаров	-8290
қазақстандық	-8291
▁антиядролық	-8292
пі	-8293
log	-8294
ато	-8295
уді	-8296
унд	-8297
фат	-8298
фия	-8299
▁ri	-8300
амер	-8301
дара	-8302
овск	-8303
ытау	-8304
▁148	-8305
▁pol	-8306
▁жуы	-8307
▁жұқ	-8308
▁нев	-8309
▁піс	-8310
▁три	-8311
▁шим	-8312
▁ғұр	-8313
▁Құл	-8314
▁әли	-8315
айұлы	-8316
ейбол	-8317
ендум	-8318
щенко	-8319
▁аңыз	-8320
▁дата	-8321
▁крас	-8322
▁ліні	-8323
▁смағ	-8324
▁фарм	-8325
▁фоль	-8326
имация	-8327
сыздығ	-8328
ымызды	-8329
▁Ахмет	-8330
▁актер	-8331
▁артыр	-8332
▁артығ	-8333
▁аягөз	-8334
▁генер	-8335
▁драйв	-8336
▁инфро	-8337
▁метро	-8338
▁тілек	-8339
▁түген	-8340
▁қызан	-8341
бердиев	-8342
ымбеков	-8343
▁абдрах	-8344
▁күкірт	-8345
▁шахмат	-8346
структор	-8347
▁алгоритм	-8348
▁белорусь	-8349
▁радиация	-8350
▁аэроұтқыр	-8351
▁жасұзақов	-8352
▁жақсылықов	-8353
▁референдум	-8354
▁конструкция	-8355
▁миллиондаған	-8356
▁робототехника	-8357
▁эпидемиология	-8358
if	-8359
our	-8360
гіс	-8361
деп	-8362
шют	-8363
ығы	-8364
▁ap	-8365
▁sp	-8366
алья	-8367
амад	-8368
зада	-8369
ицид	-8370
клор	-8371
штаб	-8372
құрт	-8373
▁189	-8374
▁370	-8375
▁Сал	-8376
▁пас	-8377
▁уль	-8378
▁ғаб	-8379
денов	-8380
ерлік	-8381
иннің	-8382
уация	-8383
▁ХҚКО	-8384
▁Штат	-8385
▁анал	-8386
▁зонд	-8387
▁меді	-8388
▁ново	-8389
▁отар	-8390
▁әлия	-8391
анбаев	-8392
бағдар	-8393
▁армат	-8394
▁жолағ	-8395
▁сілте	-8396
▁тораб	-8397
▁шыдан	-8398
▁жоятын	-8399
▁жүрдек	-8400
▁креатив	-8401
▁масштаб	-8402
▁педиатр	-8403
▁ұмытпау	-8404
▁велошеру	-8405
▁мұсабаев	-8406
▁транспар	-8407
▁тәжірбие	-8408
▁әйтімова	-8409
дімұхамедов	-8410
▁прагматизм	-8411
▁айырмашылығ	-8412
▁жалғастырыл	-8413
▁инфроқұрылым	-8414
▁ферроқорытпа	-8415
▁электромобиль	-8416
▁Й	-8417
und	-8418
СКО	-8419
ите	-8420
над	-8421
нот	-8422
уші	-8423
шқа	-8424
▁03	-8425
▁is	-8426
▁Та	-8427
▁тх	-8428
▁ққ	-8429
maty	-8430
абет	-8431
басш	-8432
гулы	-8433
жоба	-8434
лама	-8435
стаг	-8436
▁143	-8437
▁158	-8438
▁ipo	-8439
▁nad	-8440
▁Деп	-8441
▁Тай	-8442
▁айн	-8443
▁апа	-8444
▁гре	-8445
▁жұп	-8446
▁зен	-8447
▁мөз	-8448
▁род	-8449
▁іқм	-8450
іксіз	-8451
▁алаб	-8452
▁ерке	-8453
▁мега	-8454
▁мүлт	-8455
▁усіз	-8456
▁ікті	-8457
▁қоян	-8458
галтер	-8459
инский	-8460
тердің	-8461
террор	-8462
▁денис	-8463
▁ендір	-8464
▁күшею	-8465
▁рамаз	-8466
▁сабыр	-8467
бангулы	-8468
шақбаев	-8469
▁Global	-8470
▁nadloc	-8471
▁Грузия	-8472
▁оқыған	-8473
▁шолпан	-8474
▁құлшын	-8475
▁ұшырыл	-8476
novation	-8477
▁company	-8478
▁дональд	-8479
▁презент	-8480
▁щучинск	-8481
▁волейбол	-8482
▁жексенбі	-8483
▁кепілдіг	-8484
▁мультимо	-8485
▁мультипл	-8486
▁сыздықов	-8487
▁отырғызыл	-8488
▁президиум	-8489
▁көрегендіг	-8490
▁люксембург	-8491
▁португалия	-8492
▁ырықтандыр	-8493
▁лоссерталес	-8494
▁спартакиада	-8495
▁тамақтандыр	-8496
▁тілектестіг	-8497
15	-8498
ST	-8499
енц	-8500
ияс	-8501
мыз	-8502
сиф	-8503
шыл	-8504
▁ad	-8505
▁im	-8506
dust	-8507
бике	-8508
егал	-8509
ейро	-8510
үнем	-8511
▁178	-8512
▁215	-8513
▁Бар	-8514
▁Вен	-8515
▁жам	-8516
▁пик	-8517
▁тех	-8518
▁фос	-8519
▁энд	-8520
гияев	-8521
сынов	-8522
тығын	-8523
фильм	-8524
ыстығ	-8525
▁2500	-8526
▁Бала	-8527
▁арпа	-8528
▁бабы	-8529
▁када	-8530
▁кара	-8531
▁карл	-8532
▁лата	-8533
дестаг	-8534
инград	-8535
лекция	-8536
лыбаев	-8537
ішілік	-8538
▁автов	-8539
▁айбын	-8540
▁беген	-8541
▁жатпа	-8542
▁макет	-8543
▁мегав	-8544
▁сұйық	-8545
▁шошқа	-8546
ділігін	-8547
мегияев	-8548
назаров	-8549
▁Королі	-8550
▁ажырат	-8551
▁біржол	-8552
▁ведомс	-8553
▁жаңбыр	-8554
▁кабель	-8555
▁мастер	-8556
▁намада	-8557
▁түркпа	-8558
▁үиидмб	-8559
геология	-8560
▁Брифинг	-8561
▁дирижер	-8562
▁кішкент	-8563
▁парашют	-8564
▁перзент	-8565
▁сарыбай	-8566
▁ынтымағ	-8567
▁үнемдел	-8568
▁жеңілдіг	-8569
▁фольклор	-8570
▁Түркістан	-8571
▁айдарбаев	-8572
▁бухгалтер	-8573
▁мүлтіксіз	-8574
▁сербияның	-8575
▁композиция	-8576
▁концентрат	-8577
▁толықтырыл	-8578
▁конструктор	-8579
▁презентация	-8580
▁паралимпиада	-8581
▁мүмкіндігінше	-8582
▁театрландырыл	-8583
▁мультимедиялық	-8584
og	-8585
жм	-8586
фт	-8587
ён	-8588
▁z	-8589
ass	-8590
алу	-8591
вак	-8592
гір	-8593
жир	-8594
йін	-8595
леш	-8596
лоп	-8597
рдо	-8598
соқ	-8599
▁cn	-8600
▁gm	-8601
▁pe	-8602
▁pl	-8603
▁ТК	-8604
▁лу	-8605
▁қб	-8606
ills	-8607
абар	-8608
баға	-8609
екет	-8610
ерея	-8611
итов	-8612
тігі	-8613
удың	-8614
імше	-8615
▁163	-8616
▁225	-8617
▁ЕХӘ	-8618
▁Жан	-8619
▁Көл	-8620
▁Ода	-8621
▁абэ	-8622
▁дзю	-8623
▁жад	-8624
▁саң	-8625
▁сов	-8626
▁чер	-8627
▁эль	-8628
йікті	-8629
мұхам	-8630
▁2024	-8631
▁5000	-8632
▁Сері	-8633
▁баул	-8634
▁госп	-8635
▁нұра	-8636
▁рақы	-8637
▁село	-8638
▁флеш	-8639
дығына	-8640
▁china	-8641
▁Сирия	-8642
▁бронь	-8643
▁елжан	-8644
▁коорд	-8645
▁рыног	-8646
▁халық	-8647
▁акушер	-8648
▁небәрі	-8649
▁нұржан	-8650
▁темекі	-8651
▁башқұрт	-8652
▁көшбасш	-8653
▁сырғана	-8654
▁шипажай	-8655
▁шілетін	-8656
▁кішкентай	-8657
▁транскаспий	-8658
▁бәсекелестіг	-8659
▁процессуалды	-8660
▁этникааралық	-8661
▁өңірлеріндегі	-8662
ai	-8663
кр	-8664
▁W	-8665
▁u	-8666
ice	-8667
org	-8668
ung	-8669
ure	-8670
ХҚО	-8671
дас	-8672
иді	-8673
ила	-8674
тем	-8675
уда	-8676
ықұ	-8677
▁Сы	-8678
▁дб	-8679
▁өш	-8680
емен	-8681
есуэ	-8682
тант	-8683
ібек	-8684
▁132	-8685
▁159	-8686
▁лиф	-8687
▁отр	-8688
▁сид	-8689
▁тжд	-8690
▁уың	-8691
▁хим	-8692
▁үшт	-8693
▁әул	-8694
альді	-8695
белгі	-8696
оника	-8697
стану	-8698
▁cent	-8699
▁Кәрі	-8700
▁март	-8701
▁сарк	-8702
▁өтел	-8703
▁Видео	-8704
▁ЕХӘҚМ	-8705
▁Мажар	-8706
▁Санкт	-8707
▁байып	-8708
▁бәйге	-8709
▁жазып	-8710
▁ливан	-8711
▁мария	-8712
▁ықтан	-8713
атындық	-8714
дігінен	-8715
жетімді	-8716
▁баласы	-8717
▁біртек	-8718
▁йоркте	-8719
▁мансап	-8720
▁сыбаға	-8721
▁сілкін	-8722
▁темпер	-8723
▁қорқыт	-8724
▁қышқыл	-8725
▁Депутат	-8726
▁батарея	-8727
▁көкейке	-8728
▁сүйікті	-8729
▁түсініг	-8730
▁electric	-8731
▁арматура	-8732
▁брифингі	-8733
▁дизайнер	-8734
▁куәландыр	-8735
▁кәсібиліг	-8736
▁сәлемдеме	-8737
▁ойластырыл	-8738
▁респондент	-8739
▁коэффициент	-8740
▁бүкілхалықтық	-8741
ух	-8742
эп	-8743
қб	-8744
ena	-8745
иег	-8746
чев	-8747
▁08	-8748
▁ge	-8749
▁ir	-8750
▁ху	-8751
ited	-8752
адов	-8753
ерлі	-8754
лант	-8755
умен	-8756
▁187	-8757
▁237	-8758
▁340	-8759
▁med	-8760
▁phd	-8761
▁ККМ	-8762
▁ЮНЕ	-8763
▁еэо	-8764
▁инс	-8765
▁оль	-8766
▁ред	-8767
аният	-8768
жайып	-8769
колог	-8770
мақшы	-8771
синки	-8772
стант	-8773
стика	-8774
ғожин	-8775
▁otan	-8776
▁АХҚО	-8777
▁Тұра	-8778
▁нано	-8779
▁сити	-8780
▁спен	-8781
▁стил	-8782
▁тмык	-8783
▁тұма	-8784
▁ірім	-8785
атикан	-8786
ланған	-8787
фестив	-8788
▁дабыл	-8789
▁либер	-8790
▁медеу	-8791
▁миним	-8792
▁себеб	-8793
▁тәжин	-8794
▁Қазат	-8795
▁үштіг	-8796
▁өткір	-8797
оронбай	-8798
▁ЮНЕСКО	-8799
▁алакөл	-8800
▁міндет	-8801
▁хананы	-8802
атындығы	-8803
дықтарын	-8804
ылыстану	-8805
▁евгений	-8806
▁жетерлі	-8807
▁британия	-8808
▁жақыпова	-8809
▁пластмас	-8810
▁сценарий	-8811
▁төсбелгі	-8812
▁ұштастыр	-8813
▁ведомсвто	-8814
▁диспансер	-8815
▁дистрибью	-8816
▁есептілік	-8817
▁Сүлейменов	-8818
экономикалық	-8819
▁температура	-8820
▁жаратылыстану	-8821
▁мониторингіле	-8822
▁президенттігіне	-8823
гс	-8824
фи	-8825
ще	-8826
air	-8827
евт	-8828
ная	-8829
рид	-8830
рип	-8831
рис	-8832
тет	-8833
ісі	-8834
ғау	-8835
▁06	-8836
▁зә	-8837
атер	-8838
дина	-8839
нның	-8840
олиз	-8841
▁174	-8842
▁255	-8843
▁fis	-8844
▁Дін	-8845
▁Күн	-8846
▁бюл	-8847
▁жем	-8848
▁жор	-8849
амбул	-8850
иалды	-8851
лығын	-8852
уінше	-8853
шанов	-8854
қақты	-8855
▁еңсе	-8856
▁жана	-8857
▁кемі	-8858
▁реак	-8859
▁соны	-8860
▁тыны	-8861
▁шерт	-8862
дейсоқ	-8863
есуэла	-8864
стылығ	-8865
фуллин	-8866
▁Румын	-8867
▁баған	-8868
▁зайыр	-8869
▁мәнмә	-8870
▁сфера	-8871
▁юнидо	-8872
▁қымыз	-8873
▁киберқ	-8874
▁шеврон	-8875
▁қыруар	-8876
▁банкнот	-8877
▁ертерек	-8878
▁тбилиси	-8879
▁шынымен	-8880
▁ірімшік	-8881
акрабарти	-8882
спеушілік	-8883
▁Иордания	-8884
▁патриарх	-8885
▁саркисян	-8886
▁Александр	-8887
▁Мажарстан	-8888
▁кездейсоқ	-8889
▁қанатқақты	-8890
▁Мырзахметов	-8891
▁транспарент	-8892
▁түсінушілік	-8893
▁тұрғанқұлов	-8894
▁мұхамеджанов	-8895
▁фитосанитарлық	-8896
эа	-8897
ҰУ	-8898
act	-8899
ark	-8900
ади	-8901
бау	-8902
вич	-8903
ври	-8904
елл	-8905
еун	-8906
сет	-8907
ссе	-8908
сік	-8909
фан	-8910
▁аа	-8911
▁жс	-8912
екем	-8913
имер	-8914
ицей	-8915
метр	-8916
улла	-8917
іген	-8918
қазы	-8919
үсті	-8920
▁161	-8921
▁167	-8922
▁ТКШ	-8923
▁аңғ	-8924
▁кте	-8925
▁хау	-8926
▁әуб	-8927
летен	-8928
немат	-8929
строй	-8930
тарын	-8931
филов	-8932
▁Степ	-8933
▁алда	-8934
▁виде	-8935
▁еықұ	-8936
▁ғани	-8937
▁ұйыт	-8938
венция	-8939
леумет	-8940
ушілер	-8941
▁green	-8942
▁Мерей	-8943
▁герін	-8944
▁жасағ	-8945
▁мемен	-8946
▁райым	-8947
▁рогов	-8948
▁тілег	-8949
▁шамыз	-8950
▁Қазақ	-8951
▁үйлес	-8952
▁баррел	-8953
▁бектұр	-8954
▁жүгері	-8955
▁прокат	-8956
▁шенеун	-8957
дырбеков	-8958
▁Австрия	-8959
▁бақауов	-8960
▁галерея	-8961
▁кинемат	-8962
▁ішінара	-8963
▁Бразилия	-8964
▁бюллетен	-8965
▁руханият	-8966
▁тоқтатыл	-8967
▁виртуалды	-8968
▁социалист	-8969
▁өздігінен	-8970
▁өскенбаев	-8971
▁innovation	-8972
▁investment	-8973
▁мемлекттік	-8974
▁мұхамбетов	-8975
▁Қолжетімді	-8976
▁православие	-8977
▁қазатомпром	-8978
▁аймақтарындағы	-8979
ЕҰ	-8980
ққ	-8981
рос	-8982
урт	-8983
▁In	-8984
▁VI	-8985
▁ru	-8986
▁МӘ	-8987
▁эб	-8988
сула	-8989
ыңыз	-8990
▁166	-8991
▁177	-8992
▁236	-8993
▁Мұх	-8994
▁бро	-8995
▁евр	-8996
▁ием	-8997
▁кок	-8998
▁ләз	-8999
▁рав	-9000
▁рен	-9001
▁руд	-9002
▁рға	-9003
▁шау	-9004
▁Қап	-9005
гінов	-9006
детіл	-9007
регат	-9008
▁Жеке	-9009
▁дүни	-9010
▁сұлу	-9011
дабасы	-9012
олюция	-9013
▁бейіл	-9014
▁гаага	-9015
▁дербе	-9016
▁қалың	-9017
▁қақпа	-9018
▁үздіг	-9019
▁өнерт	-9020
▁airbus	-9021
▁анкара	-9022
▁болмыс	-9023
▁экспер	-9024
алықбаев	-9025
ақтастық	-9026
▁арселор	-9027
▁баяндал	-9028
▁валерий	-9029
▁дивизия	-9030
▁тайланд	-9031
▁тегеран	-9032
▁хандығы	-9033
▁этносая	-9034
▁қасірет	-9035
▁дұрыстығ	-9036
▁мегаватт	-9037
▁мәлімдеу	-9038
▁ойымызша	-9039
▁табыстал	-9040
▁шенеунік	-9041
▁эволюция	-9042
▁өмірбаян	-9043
▁айтжанова	-9044
▁метрополит	-9045
▁мырзағалиев	-9046
ib	-9047
еч	-9048
со	-9049
▁R	-9050
end	-9051
ады	-9052
аян	-9053
ере	-9054
ияд	-9055
мут	-9056
фар	-9057
хов	-9058
▁Іш	-9059
▁ПА	-9060
▁чж	-9061
etro	-9062
даев	-9063
иков	-9064
омон	-9065
ымды	-9066
▁152	-9067
▁216	-9068
▁290	-9069
▁Рах	-9070
▁бон	-9071
▁дүй	-9072
▁себ	-9073
▁шой	-9074
▁шоғ	-9075
дікәр	-9076
ларды	-9077
несие	-9078
серік	-9079
імдер	-9080
▁1990	-9081
▁call	-9082
▁ener	-9083
▁Түрк	-9084
▁беге	-9085
▁бұны	-9086
▁даса	-9087
▁көкж	-9088
▁роза	-9089
▁чжан	-9090
▁ғыға	-9091
▁Ұжым	-9092
dustri	-9093
кендір	-9094
тілігі	-9095
фессия	-9096
ылығын	-9097
▁депут	-9098
▁душар	-9099
▁жарық	-9100
▁жаңақ	-9101
▁жұбай	-9102
▁көрне	-9103
▁мәнер	-9104
▁ольга	-9105
▁орнығ	-9106
▁хасан	-9107
▁шешен	-9108
▁шықпа	-9109
етіндік	-9110
терінше	-9111
ұлыбаев	-9112
▁дендер	-9113
▁дүркін	-9114
▁жабдығ	-9115
▁имашев	-9116
▁кептір	-9117
▁ноғаев	-9118
мұханбет	-9119
▁Румыния	-9120
▁дінтану	-9121
▁кадастр	-9122
▁наталья	-9123
▁сенегал	-9124
▁тенетін	-9125
▁ханзада	-9126
▁шардара	-9127
▁әубәкір	-9128
▁өмірзақ	-9129
форматика	-9130
імділігін	-9131
▁алпысбаев	-9132
▁ауыстырыл	-9133
▁кардиолог	-9134
▁коммунист	-9135
▁Инвестиция	-9136
▁Сәрінжіпов	-9137
▁көкейкесті	-9138
▁агротехника	-9139
▁мультимодаль	-9140
▁Тасмағамбетов	-9141
▁нейрохирургия	-9142
▁табылатындығын	-9143
зв	-9144
үн	-9145
ail	-9146
ata	-9147
ипр	-9148
күн	-9149
лор	-9150
моб	-9151
очи	-9152
ско	-9153
умп	-9154
▁Су	-9155
амас	-9156
аяси	-9157
ебер	-9158
стат	-9159
тағы	-9160
ылан	-9161
ыров	-9162
ығып	-9163
ібай	-9164
▁162	-9165
▁184	-9166
▁191	-9167
▁VII	-9168
▁Боз	-9169
▁Жал	-9170
▁афф	-9171
▁рож	-9172
▁хдп	-9173
амида	-9174
датыл	-9175
овкин	-9176
хника	-9177
▁open	-9178
▁кінә	-9179
▁түпн	-9180
▁челя	-9181
▁шыда	-9182
▁ікте	-9183
▁Қазп	-9184
▁бекем	-9185
▁вокал	-9186
▁групп	-9187
▁зәкір	-9188
▁импер	-9189
▁камаз	-9190
▁көкен	-9191
▁мерит	-9192
▁ойлап	-9193
▁серпі	-9194
▁төлем	-9195
▁ыштар	-9196
▁ұтқыр	-9197
армония	-9198
аторлық	-9199
▁бөлшег	-9200
▁мерген	-9201
▁солист	-9202
▁талшық	-9203
▁шыңғыс	-9204
▁эскато	-9205
▁көкжиег	-9206
▁патруль	-9207
▁спутниг	-9208
▁Бақытжан	-9209
▁башмаков	-9210
▁субьекті	-9211
▁төмендіг	-9212
атындығына	-9213
ауіпсіздік	-9214
бағдарлама	-9215
▁облигация	-9216
▁резолюция	-9217
▁теңдестір	-9218
▁хельсинки	-9219
▁келетіндіг	-9220
▁филармония	-9221
▁консультант	-9222
▁эксперимент	-9223
▁дистрибьютор	-9224
▁перинаталдық	-9225
▁үйлесімділіг	-9226
▁мембағдарлама	-9227
▁қамқорлығынсыз	-9228
ky	-9229
oy	-9230
МС	-9231
бк	-9232
лл	-9233
му	-9234
ый	-9235
өр	-9236
ews	-9237
urk	-9238
жам	-9239
зар	-9240
ица	-9241
она	-9242
ріш	-9243
сой	-9244
тад	-9245
чар	-9246
▁04	-9247
▁bi	-9248
▁Же	-9249
▁Пә	-9250
▁бж	-9251
▁кх	-9252
банд	-9253
ельд	-9254
ольф	-9255
▁208	-9256
▁217	-9257
▁Айт	-9258
▁Хат	-9259
▁жиг	-9260
▁пау	-9261
▁фел	-9262
▁хар	-9263
▁хас	-9264
ement	-9265
анова	-9266
ардың	-9267
асова	-9268
банов	-9269
вриат	-9270
▁Сары	-9271
▁Сочи	-9272
▁ағай	-9273
▁гине	-9274
▁депо	-9275
▁дисп	-9276
▁ейін	-9277
▁ювен	-9278
▁імім	-9279
изатор	-9280
никова	-9281
тарлық	-9282
▁Абаев	-9283
▁алжир	-9284
▁ахмед	-9285
▁исаев	-9286
▁келең	-9287
▁мирас	-9288
▁таңер	-9289
▁Ғылым	-9290
▁қадыр	-9291
тілігін	-9292
▁мұнара	-9293
▁наград	-9294
▁хирург	-9295
▁ұлытау	-9296
▁өзінше	-9297
▁Венгрия	-9298
▁ақсақал	-9299
▁замануи	-9300
▁капсула	-9301
▁каримов	-9302
▁көрнекі	-9303
▁полимер	-9304
▁портфел	-9305
▁ревизия	-9306
▁хромтау	-9307
▁эфиопия	-9308
▁Елбасына	-9309
▁Медведев	-9310
▁дүниетан	-9311
▁керамика	-9312
▁терапевт	-9313
▁өтілгенде	-9314
▁автовокзал	-9315
▁жүйелендір	-9316
▁табыстылығ	-9317
▁аккредиттел	-9318
▁біртектілік	-9319
▁аймағамбетов	-9320
▁меритократия	-9321
▁теңізшевройл	-9322
▁электростанция	-9323
pe	-9324
по	-9325
см	-9326
диа	-9327
кам	-9328
пол	-9329
▁бк	-9330
▁Әу	-9331
алақ	-9332
ение	-9333
онов	-9334
очка	-9335
ронт	-9336
ырян	-9337
ячес	-9338
▁149	-9339
▁181	-9340
▁186	-9341
▁226	-9342
▁330	-9343
▁480	-9344
▁qaz	-9345
▁Нью	-9346
▁аэс	-9347
▁гиг	-9348
▁жыр	-9349
▁мух	-9350
▁пит	-9351
▁поп	-9352
▁фаш	-9353
▁чан	-9354
▁ғын	-9355
▁ұна	-9356
барыс	-9357
надий	-9358
педия	-9359
сация	-9360
сіпов	-9361
▁fisu	-9362
▁Мәми	-9363
▁алик	-9364
▁венч	-9365
▁корт	-9366
▁линг	-9367
▁мина	-9368
▁мұқа	-9369
▁оман	-9370
▁теже	-9371
▁імде	-9372
▁ұзын	-9373
▁Әзір	-9374
▁әуен	-9375
▁әуес	-9376
еберіс	-9377
улятор	-9378
шілігі	-9379
▁techn	-9380
▁trans	-9381
▁арбит	-9382
▁ақкөл	-9383
▁ақпар	-9384
▁борис	-9385
▁геріл	-9386
▁елтаң	-9387
▁олимп	-9388
▁фронт	-9389
▁ілияс	-9390
▁қазұу	-9391
ячеслав	-9392
▁карант	-9393
▁паздар	-9394
▁раушан	-9395
▁рейтін	-9396
▁ұмытыл	-9397
ғанындай	-9398
▁Жәмішев	-9399
▁жәнібек	-9400
▁полицей	-9401
▁рентген	-9402
▁салидат	-9403
▁Атамекен	-9404
▁Пәкістан	-9405
▁біржолғы	-9406
▁гастроль	-9407
▁мемхатшы	-9408
▁перуашев	-9409
▁пирамида	-9410
▁рационал	-9411
▁таңертең	-9412
▁этноауыл	-9413
▁айтуғанов	-9414
▁кіреберіс	-9415
▁порошенко	-9416
▁қорландыр	-9417
▁әбдібеков	-9418
▁Мамытбеков	-9419
▁дүниетаным	-9420
▁кинофестив	-9421
▁мүгедектіг	-9422
▁пластмасса	-9423
▁Әзербайжан	-9424
▁бакалавриат	-9425
▁терминология	-9426
▁бердімұхамедов	-9427
aq	-9428
ci	-9429
АТ	-9430
СМ	-9431
еж	-9432
кұ	-9433
йер	-9434
фун	-9435
▁Бю	-9436
▁ох	-9437
▁сю	-9438
uras	-9439
алаш	-9440
амай	-9441
уппа	-9442
шева	-9443
ысыр	-9444
іңіз	-9445
▁212	-9446
▁car	-9447
▁ИЫҰ	-9448
▁аяз	-9449
▁едб	-9450
▁еме	-9451
▁инв	-9452
▁лак	-9453
▁рак	-9454
▁шем	-9455
ction	-9456
амбұл	-9457
басты	-9458
күйер	-9459
оскоп	-9460
уризм	-9461
▁1600	-9462
▁МӘМС	-9463
▁борт	-9464
▁гипс	-9465
▁дыға	-9466
▁жанд	-9467
▁зере	-9468
▁стен	-9469
▁сөре	-9470
▁тиян	-9471
▁қаша	-9472
▁үзіл	-9473
дарбек	-9474
лықтар	-9475
▁бамен	-9476
▁георг	-9477
▁михай	-9478
▁пелер	-9479
▁плаза	-9480
▁таман	-9481
▁іктен	-9482
алдинов	-9483
амерзім	-9484
индустр	-9485
стантин	-9486
▁екатер	-9487
▁кирилл	-9488
▁көбісі	-9489
▁логика	-9490
▁тендер	-9491
▁трасса	-9492
▁труппа	-9493
▁фосфор	-9494
▁қудала	-9495
▁әлтаев	-9496
ірекбаев	-9497
ішембаев	-9498
▁Дмитрий	-9499
▁абдулла	-9500
▁дәлірек	-9501
▁тиістіг	-9502
▁формула	-9503
▁қарағай	-9504
▁ансамбль	-9505
▁басқарыл	-9506
▁жанкүйер	-9507
▁карантин	-9508
▁механика	-9509
▁панфилов	-9510
етіндігіне	-9511
▁амангелді	-9512
▁бундестаг	-9513
▁венесуэла	-9514
▁дербестіг	-9515
▁концессия	-9516
▁палестина	-9517
▁рождество	-9518
▁сейфуллин	-9519
▁монография	-9520
▁чакрабарти	-9521
▁преференция	-9522
▁жаңартылмалы	-9523
▁метрополитен	-9524
▁Әбдіхалықова	-9525
▁рейтингісінде	-9526
▁аудандарындағы	-9527
ЖМ	-9528
хо	-9529
юм	-9530
▁#	-9531
▁*	-9532
▁•	-9533
ore	-9534
аст	-9535
мұр	-9536
нев	-9537
риг	-9538
уов	-9539
▁05	-9540
▁09	-9541
▁le	-9542
▁Іс	-9543
▁еп	-9544
stru	-9545
аспа	-9546
гела	-9547
звод	-9548
парк	-9549
қанд	-9550
қары	-9551
ұнай	-9552
▁176	-9553
▁179	-9554
▁207	-9555
▁218	-9556
▁229	-9557
▁245	-9558
▁xvi	-9559
▁АДБ	-9560
▁Рау	-9561
▁айр	-9562
▁зтб	-9563
▁ура	-9564
artup	-9565
ағдар	-9566
жүрек	-9567
иддер	-9568
митаж	-9569
ұсова	-9570
▁арай	-9571
▁аққа	-9572
▁жазы	-9573
▁лыға	-9574
▁мұса	-9575
▁саид	-9576
▁қысқ	-9577
▁Өмір	-9578
генция	-9579
кетбол	-9580
рдоған	-9581
тылығы	-9582
▁gener	-9583
▁аудио	-9584
▁бүтін	-9585
▁бөлен	-9586
▁взвод	-9587
▁дебат	-9588
▁дивер	-9589
▁дэвид	-9590
▁зақым	-9591
▁майкл	-9592
▁мырыш	-9593
▁сайра	-9594
▁синер	-9595
▁ғұрып	-9596
▁Қорға	-9597
▁қарат	-9598
▁өнеге	-9599
илендір	-9600
▁energy	-9601
▁аянбай	-9602
▁көпкон	-9603
▁көпфун	-9604
▁роберт	-9605
▁соқтыр	-9606
▁субъек	-9607
▁талғар	-9608
▁шақтал	-9609
ақожаева	-9610
▁гүлмира	-9611
▁керетін	-9612
▁кәрімов	-9613
▁Теміртау	-9614
▁алмазбек	-9615
▁ансамблі	-9616
▁кеңейтіл	-9617
▁көлгінов	-9618
▁премьера	-9619
▁тереңдіг	-9620
▁фармация	-9621
▁баскетбол	-9622
▁казақстан	-9623
▁наурызбай	-9624
▁жаңақорған	-9625
▁митрополит	-9626
▁Әзірбайжан	-9627
▁ізмұхамбетов	-9628
36	-9629
СЕ	-9630
йл	-9631
ies	-9632
ish	-9633
дыс	-9634
ода	-9635
сая	-9636
тех	-9637
▁Сл	-9638
▁Ст	-9639
▁ЭБ	-9640
▁хв	-9641
▁як	-9642
адор	-9643
алам	-9644
арак	-9645
арев	-9646
еван	-9647
есов	-9648
отан	-9649
уляр	-9650
▁244	-9651
▁256	-9652
▁283	-9653
▁440	-9654
▁XXI	-9655
▁sam	-9656
▁Бак	-9657
▁Біш	-9658
▁акв	-9659
▁бог	-9660
▁има	-9661
▁лав	-9662
▁құш	-9663
▁ҮЕҰ	-9664
жарыс	-9665
залин	-9666
ипроп	-9667
италь	-9668
ичард	-9669
омура	-9670
ылдыр	-9671
ылығы	-9672
қышев	-9673
▁asia	-9674
▁serv	-9675
▁ағза	-9676
▁влад	-9677
▁каль	-9678
▁соңы	-9679
▁элев	-9680
▁Қара	-9681
▁әуел	-9682
денсат	-9683
қорғау	-9684
▁Сыбай	-9685
▁айман	-9686
▁артыл	-9687
▁ахмад	-9688
▁дзюдо	-9689
▁жүніс	-9690
▁иннов	-9691
▁кейде	-9692
▁масса	-9693
▁молда	-9694
▁ораза	-9695
▁ортақ	-9696
▁саргс	-9697
▁сұрағ	-9698
▁ыспақ	-9699
▁қарау	-9700
▁қатал	-9701
▁өрнек	-9702
сікбаев	-9703
▁almaty	-9704
▁аманат	-9705
▁венчур	-9706
▁кентау	-9707
▁ләззат	-9708
▁протез	-9709
дегендей	-9710
лантация	-9711
▁ауызбір	-9712
▁берешек	-9713
▁ватикан	-9714
▁еместіг	-9715
▁жерасты	-9716
▁кремний	-9717
▁түрксой	-9718
▁ханасын	-9719
▁өтуінше	-9720
ипропилен	-9721
сификация	-9722
▁national	-9723
▁ордабасы	-9724
▁тайқазан	-9725
▁тексеріл	-9726
▁элеватор	-9727
▁Қасымбек	-9728
▁Бишімбаев	-9729
▁Бозымбаев	-9730
▁қалдықтар	-9731
▁әскерилер	-9732
▁ауыртпалық	-9733
▁көркемөнер	-9734
▁максималды	-9735
▁мәлімдеуінше	-9736
▁полипропилен	-9737
▁мәліметтерінше	-9738
▁трансплантация	-9739
af	-9740
pc	-9741
ча	-9742
age	-9743
ala	-9744
ook	-9745
вин	-9746
дзо	-9747
ейс	-9748
има	-9749
рав	-9750
ьен	-9751
▁Мо	-9752
▁Си	-9753
▁дұ	-9754
▁нұ	-9755
▁хі	-9756
бита	-9757
дары	-9758
илер	-9759
инаж	-9760
омар	-9761
рест	-9762
трак	-9763
тығы	-9764
юник	-9765
▁205	-9766
▁310	-9767
▁430	-9768
▁lim	-9769
▁man	-9770
▁Лук	-9771
▁ақа	-9772
▁диф	-9773
▁жік	-9774
▁жөө	-9775
▁ккм	-9776
▁мүй	-9777
▁оар	-9778
▁сем	-9779
▁сил	-9780
ivers	-9781
илище	-9782
тілер	-9783
әлиев	-9784
▁kaze	-9785
▁Саға	-9786
▁ЭБЖМ	-9787
▁дерт	-9788
▁ехро	-9789
▁итер	-9790
▁кипр	-9791
▁кост	-9792
▁наха	-9793
▁роуд	-9794
▁тұғы	-9795
▁факт	-9796
▁эвак	-9797
▁үдет	-9798
▁үшеу	-9799
apital	-9800
skills	-9801
еліліг	-9802
ентаев	-9803
талман	-9804
уллаев	-9805
ғыстыр	-9806
құлова	-9807
▁Мысыр	-9808
▁байра	-9809
▁гуман	-9810
▁денің	-9811
▁жұмыс	-9812
▁жұқпа	-9813
▁жәбір	-9814
▁зырян	-9815
▁сыныб	-9816
▁ұстал	-9817
холдинг	-9818
үнемдеу	-9819
▁Саммит	-9820
▁десетін	-9821
▁диаметр	-9822
▁жанейро	-9823
▁медбике	-9824
▁мұқанов	-9825
▁полимет	-9826
▁реактор	-9827
▁сыдықов	-9828
▁ысқақов	-9829
▁industri	-9830
▁активтер	-9831
▁арбитраж	-9832
▁арттырыл	-9833
▁кейбіреу	-9834
▁келіскен	-9835
▁смағұлов	-9836
▁түпнұсқа	-9837
▁фотограф	-9838
▁Петербург	-9839
▁геосаясат	-9840
▁майталман	-9841
▁қарабалин	-9842
▁қорғалжын	-9843
▁консулдығы	-9844
▁микронесие	-9845
▁құрманғазы	-9846
▁көкірекбаев	-9847
▁супермаркет	-9848
▁қолдайтындығ	-9849
▁мәлімдегендей	-9850
уж	-9851
▁L	-9852
еді	-9853
жаз	-9854
жіг	-9855
иус	-9856
кез	-9857
уба	-9858
фин	-9859
цик	-9860
▁ak	-9861
▁hy	-9862
▁pm	-9863
▁Ат	-9864
▁Тү	-9865
▁аж	-9866
▁тв	-9867
алып	-9868
имин	-9869
озер	-9870
омыш	-9871
ондо	-9872
сина	-9873
учич	-9874
▁274	-9875
▁285	-9876
▁540	-9877
▁720	-9878
▁770	-9879
▁min	-9880
▁Екі	-9881
▁бру	-9882
▁габ	-9883
▁зәр	-9884
▁нем	-9885
▁рап	-9886
▁тшо	-9887
▁төг	-9888
▁цин	-9889
▁шым	-9890
▁эмб	-9891
▁Қыл	-9892
▁өті	-9893
екеев	-9894
рипка	-9895
хабад	-9896
юнике	-9897
▁1700	-9898
▁4000	-9899
▁Йорк	-9900
▁байт	-9901
▁биог	-9902
▁герт	-9903
▁лесі	-9904
▁мирз	-9905
▁мсак	-9906
▁мөлт	-9907
▁тель	-9908
▁флот	-9909
▁ышты	-9910
▁қажы	-9911
асымал	-9912
инская	-9913
▁Цзинь	-9914
▁босан	-9915
▁иеліг	-9916
▁самат	-9917
▁торап	-9918
▁халал	-9919
▁шариф	-9920
▁шұбар	-9921
▁экскл	-9922
▁құлан	-9923
ациялау	-9924
енконың	-9925
офизика	-9926
▁Прокур	-9927
▁василь	-9928
▁диабет	-9929
▁ильхам	-9930
▁орбита	-9931
▁растал	-9932
▁салдар	-9933
▁сендір	-9934
▁ынатын	-9935
▁general	-9936
▁univers	-9937
▁атбасар	-9938
▁көмірсу	-9939
▁мыңбаев	-9940
▁нүсіпов	-9941
▁сауығып	-9942
▁училище	-9943
▁Сағадиев	-9944
▁вячеслав	-9945
▁карточка	-9946
▁кешіктір	-9947
▁күшейтіл	-9948
▁прогресс	-9949
▁Қазғарыш	-9950
▁есептіліг	-9951
▁инноватор	-9952
▁конденсат	-9953
▁модератор	-9954
▁сооронбай	-9955
▁уәлиханов	-9956
ыстарындағы	-9957
▁бекназаров	-9958
▁константин	-9959
▁тәуелділіг	-9960
▁қазконтент	-9961
▁басымдылығы	-9962
▁белсенділет	-9963
▁ететіндігін	-9964
▁информатика	-9965
▁индикаторлар	-9966
▁шоғырландырыл	-9967
VE	-9968
di	-9969
ЭС	-9970
че	-9971
▁O	-9972
DEX	-9973
dai	-9974
ern	-9975
ind	-9976
lin	-9977
man	-9978
Газ	-9979
деш	-9980
йел	-9981
неп	-9982
обл	-9983
сол	-9984
фос	-9985
қжб	-9986
▁IN	-9987
▁pr	-9988
▁Ту	-9989
елеу	-9990
жиек	-9991
илья	-9992
орес	-9993
яков	-9994
ғырт	-9995
ұров	-9996
▁209	-9997
▁219	-9998
▁228	-9999
▁257	-10000
▁258	-10001
▁318	-10002
▁420	-10003
▁460	-10004
▁ЕҰУ	-10005
▁МСМ	-10006
▁ТЖМ	-10007
▁дсм	-10008
▁жби	-10009
▁иге	-10010
▁ҚДБ	-10011
▁қаж	-10012
▁Әуе	-10013
альды	-10014
балин	-10015
комен	-10016
кілер	-10017
мырыш	-10018
▁food	-10019
▁Аман	-10020
▁Салы	-10021
▁алек	-10022
▁анар	-10023
▁илья	-10024
▁ктір	-10025
▁реан	-10026
▁тену	-10027
▁тепл	-10028
▁фиск	-10029
▁ҚазМ	-10030
аевтың	-10031
герлер	-10032
ғандық	-10033
▁KADEX	-10034
▁Жалпы	-10035
▁браун	-10036
▁жауаб	-10037
▁мүйіз	-10038
▁номен	-10039
▁павел	-10040
▁танып	-10041
▁томас	-10042
▁төсел	-10043
▁франк	-10044
▁шаңыр	-10045
▁экран	-10046
▁эскиз	-10047
▁этник	-10048
▁қарға	-10049
▁қырық	-10050
▁әулие	-10051
ғандығы	-10052
▁бақуат	-10053
▁биогаз	-10054
▁бүркіт	-10055
▁делдал	-10056
▁жатқан	-10057
▁риддер	-10058
▁қолжет	-10059
етіндігі	-10060
▁арыстан	-10061
▁аффинаж	-10062
▁бақтияр	-10063
▁көшіріл	-10064
▁либерал	-10065
▁саргсян	-10066
▁скрипка	-10067
▁стамбул	-10068
▁тысқары	-10069
▁флешмоб	-10070
▁Перуашев	-10071
▁беріктіг	-10072
▁йорктегі	-10073
▁манифест	-10074
▁мохаммад	-10075
▁ювеналды	-10076
▁ғалымжан	-10077
▁ермегияев	-10078
▁иммунитет	-10079
▁коллекция	-10080
▁турасында	-10081
▁Нидерланды	-10082
▁пікірсайыс	-10083
▁этносаясат	-10084
▁өзектендір	-10085
▁этникаралық	-10086
▁Жекешелендір	-10087
▁кәсіпорнында	-10088
▁консультативті	-10089
12	-10090
tt	-10091
АҚ	-10092
КБ	-10093
ЛУ	-10094
аа	-10095
зу	-10096
зқ	-10097
әм	-10098
igh	-10099
san	-10100
дос	-10101
жоу	-10102
итв	-10103
лес	-10104
тов	-10105
унг	-10106
экв	-10107
▁or	-10108
▁Бу	-10109
▁Ли	-10110
▁ЮН	-10111
VEST	-10112
ical	-10113
osat	-10114
адио	-10115
енте	-10116
еция	-10117
лары	-10118
линг	-10119
лығы	-10120
овак	-10121
ольт	-10122
сион	-10123
өңір	-10124
▁222	-10125
▁224	-10126
▁233	-10127
▁278	-10128
▁375	-10129
▁nas	-10130
▁Бур	-10131
▁Мек	-10132
▁Мың	-10133
▁Ник	-10134
▁алу	-10135
▁коб	-10136
▁ков	-10137
▁мех	-10138
▁мсм	-10139
▁мүс	-10140
▁оба	-10141
▁пул	-10142
▁рец	-10143
▁шри	-10144
ashak	-10145
Транс	-10146
акова	-10147
атқыш	-10148
гария	-10149
лылық	-10150
лікті	-10151
ссауи	-10152
темір	-10153
ығұрт	-10154
ықтығ	-10155
▁жанұ	-10156
▁кпен	-10157
▁прод	-10158
▁росс	-10159
▁інсе	-10160
▁қойм	-10161
бетова	-10162
енбаев	-10163
иросим	-10164
лардың	-10165
▁айрыл	-10166
▁гвине	-10167
▁девел	-10168
▁етене	-10169
▁ильин	-10170
▁катод	-10171
▁күріш	-10172
▁мазут	-10173
▁мобил	-10174
▁орнал	-10175
▁отряд	-10176
▁петро	-10177
▁прото	-10178
▁тыныш	-10179
▁тұран	-10180
▁шырай	-10181
▁шырқа	-10182
▁ылғал	-10183
▁ясжтш	-10184
▁қарин	-10185
▁қыдыр	-10186
▁құмар	-10187
olashak	-10188
клатура	-10189
лопкова	-10190
никалық	-10191
өндіріс	-10192
▁аударт	-10193
▁байқат	-10194
▁бейнер	-10195
▁дайдан	-10196
▁жолдас	-10197
▁иванов	-10198
▁лавров	-10199
▁магнит	-10200
▁мұстаф	-10201
▁мөлдір	-10202
▁тыңдал	-10203
▁тізбег	-10204
▁Қылмыс	-10205
▁қайсар	-10206
▁құштар	-10207
сейітұлы	-10208
өндіруші	-10209
▁аманжол	-10210
▁банкинг	-10211
▁василий	-10212
▁дететін	-10213
▁жерүсті	-10214
▁кеңірек	-10215
▁мусинов	-10216
▁профиль	-10217
▁әуесқой	-10218
▁kazeosat	-10219
▁жаңарған	-10220
▁киберқыл	-10221
▁ҚазТранс	-10222
▁қызылжар	-10223
андырылған	-10224
▁Инновация	-10225
▁адырбеков	-10226
▁коммюнике	-10227
▁аустриялық	-10228
▁бейсенбаев	-10229
▁гурбангулы	-10230
▁Қайырбекова	-10231
▁қансейітұлы	-10232
▁номенклатура	-10233
▁прогрессивті	-10234
▁келіспеушілік	-10235
▁консерватория	-10236
sa	-10237
ии	-10238
con	-10239
ust	-10240
ашв	-10241
зер	-10242
кеш	-10243
көз	-10244
мәм	-10245
рас	-10246
шең	-10247
▁Дә	-10248
▁кэ	-10249
▁хо	-10250
ence	-10251
альв	-10252
апия	-10253
апыл	-10254
афак	-10255
ашыр	-10256
иена	-10257
молд	-10258
теңе	-10259
хард	-10260
цикл	-10261
қысы	-10262
ұмық	-10263
▁204	-10264
▁213	-10265
▁295	-10266
▁302	-10267
▁316	-10268
▁Мир	-10269
▁бот	-10270
▁бөр	-10271
▁имп	-10272
▁көн	-10273
▁сэс	-10274
▁түл	-10275
▁хвқ	-10276
▁ғзи	-10277
undai	-10278
алары	-10279
апқыш	-10280
бақов	-10281
жазба	-10282
жинақ	-10283
мерон	-10284
осмос	-10285
тылық	-10286
умпур	-10287
усейн	-10288
▁аитв	-10289
▁асан	-10290
▁блан	-10291
▁маль	-10292
▁серб	-10293
▁тесп	-10294
▁тісі	-10295
▁швед	-10296
▁эбжм	-10297
▁Қала	-10298
▁қышы	-10299
▁әзіл	-10300
▁өрбі	-10301
агистр	-10302
гендей	-10303
ентьев	-10304
кенова	-10305
кеттік	-10306
ғандай	-10307
▁irena	-10308
▁Сарап	-10309
▁бордю	-10310
▁бюрок	-10311
▁венгр	-10312
▁датын	-10313
▁жанұя	-10314
▁кариб	-10315
▁лесін	-10316
▁лингв	-10317
▁метод	-10318
▁мухам	-10319
▁старт	-10320
▁түбег	-10321
▁тәмәм	-10322
▁әйнек	-10323
аларлық	-10324
ағандығ	-10325
едицина	-10326
маханов	-10327
мелекет	-10328
құрылыс	-10329
▁INVEST	-10330
▁айқара	-10331
▁бастыр	-10332
▁денген	-10333
▁ереван	-10334
▁ештеңе	-10335
▁киноте	-10336
▁конфер	-10337
▁күттір	-10338
▁миттал	-10339
▁Құрмет	-10340
омоносов	-10341
▁Меркель	-10342
▁ашхабад	-10343
▁гигиена	-10344
▁жанашыр	-10345
▁сұрапыл	-10346
▁экспрес	-10347
▁қарасай	-10348
▁қошанов	-10349
▁Әлеумет	-10350
амерзімді	-10351
▁Болгария	-10352
▁жатқанда	-10353
▁сертифик	-10354
▁тазартыл	-10355
▁толтырыл	-10356
▁құлыбаев	-10357
▁ұлғайтыл	-10358
▁әдеттегі	-10359
▁әділқазы	-10360
▁балықбаев	-10361
▁генератор	-10362
▁монополис	-10363
▁санаторий	-10364
▁эвакуация	-10365
▁қарауында	-10366
▁қарақұмық	-10367
▁қолжеткіз	-10368
▁university	-10369
▁Жұмағалиев	-10370
▁бейнеролик	-10371
▁электролиз	-10372
▁өнертапқыш	-10373
▁болғанындай	-10374
▁радиоэлектр	-10375
▁эксклюзивті	-10376
▁қазгеология	-10377
▁докторантура	-10378
▁көпконфессия	-10379
ho	-10380
rc	-10381
эл	-10382
үк	-10383
▁H	-10384
com	-10385
mit	-10386
ong	-10387
ors	-10388
бен	-10389
беу	-10390
джи	-10391
жүн	-10392
кан	-10393
одж	-10394
пес	-10395
роб	-10396
қау	-10397
▁af	-10398
▁МА	-10399
▁Са	-10400
▁пу	-10401
▁рм	-10402
▁Үл	-10403
аділ	-10404
еско	-10405
етик	-10406
олин	-10407
ское	-10408
стор	-10409
улат	-10410
уман	-10411
форд	-10412
▁214	-10413
▁227	-10414
▁254	-10415
▁315	-10416
▁580	-10417
▁640	-10418
▁eng	-10419
▁fin	-10420
▁Мұс	-10421
▁дор	-10422
▁жын	-10423
▁зұл	-10424
▁ика	-10425
▁лаз	-10426
▁мму	-10427
▁оят	-10428
▁поэ	-10429
▁хос	-10430
▁қия	-10431
▁қмг	-10432
▁әше	-10433
демия	-10434
кібас	-10435
овпен	-10436
одром	-10437
тарды	-10438
ысқан	-10439
▁viii	-10440
▁ШОЛУ	-10441
▁брик	-10442
▁гамб	-10443
▁герц	-10444
▁елем	-10445
▁жыра	-10446
▁квар	-10447
▁киев	-10448
▁парт	-10449
▁рейд	-10450
▁рубл	-10451
▁саль	-10452
▁эссе	-10453
▁інім	-10454
▁қайы	-10455
▁қали	-10456
▁қама	-10457
▁ұқкұ	-10458
аларды	-10459
инбург	-10460
исенте	-10461
кредит	-10462
окуров	-10463
▁Марат	-10464
▁асыға	-10465
▁датып	-10466
▁ерсай	-10467
▁жасар	-10468
▁жақын	-10469
▁жігіт	-10470
▁зенит	-10471
▁ирина	-10472
▁кадет	-10473
▁лизин	-10474
▁мерке	-10475
▁рахым	-10476
▁солар	-10477
▁стиль	-10478
▁федор	-10479
▁фельд	-10480
▁қамат	-10481
жүнісов	-10482
отников	-10483
пекбаев	-10484
▁Kazakh	-10485
▁Күніне	-10486
▁брокер	-10487
▁греция	-10488
▁жалпық	-10489
▁көпқыр	-10490
▁секунд	-10491
▁серуен	-10492
▁стомат	-10493
▁limited	-10494
▁агрегат	-10495
▁ақбұлақ	-10496
▁бижанов	-10497
▁бойныша	-10498
▁интерна	-10499
▁координ	-10500
▁көкжиек	-10501
▁рейтінг	-10502
▁татулығ	-10503
▁толағай	-10504
▁өміршең	-10505
▁анимация	-10506
▁дүйсенбі	-10507
▁жақындығ	-10508
▁жұмабаев	-10509
▁ошақбаев	-10510
▁тұрарлық	-10511
▁төлемақы	-10512
▁шимомура	-10513
▁Айымбетов	-10514
▁Нидерланд	-10515
▁ақсақалов	-10516
▁кинотеатр	-10517
▁көпжылдық	-10518
▁соловьева	-10519
▁сәрсенбаев	-10520
▁шешілмеген	-10521
▁Степногорск	-10522
▁автомагистр	-10523
▁аккредитация	-10524
▁орталықтандыр	-10525
▁парламентарий	-10526
▁геоэкономикалық	-10527
14	-10528
76	-10529
ef	-10530
rt	-10531
th	-10532
ym	-10533
еф	-10534
кс	-10535
NEX	-10536
ade	-10537
asp	-10538
uge	-10539
uro	-10540
use	-10541
апа	-10542
баб	-10543
миг	-10544
ушы	-10545
ьки	-10546
энд	-10547
ғым	-10548
▁Әр	-10549
obil	-10550
raph	-10551
адам	-10552
алан	-10553
дрид	-10554
етір	-10555
ияда	-10556
комп	-10557
стро	-10558
явич	-10559
▁263	-10560
▁292	-10561
▁III	-10562
▁inf	-10563
▁tal	-10564
▁Бал	-10565
▁Бах	-10566
▁Дем	-10567
▁Кен	-10568
▁Ман	-10569
▁Нор	-10570
▁джа	-10571
▁жао	-10572
▁идб	-10573
▁ншы	-10574
▁сев	-10575
▁тиг	-10576
▁усы	-10577
▁фон	-10578
▁ісб	-10579
ugeot	-10580
бедев	-10581
десый	-10582
ивтік	-10583
ладеш	-10584
медиа	-10585
тальм	-10586
▁асем	-10587
▁бжзқ	-10588
▁гіге	-10589
▁джей	-10590
▁икао	-10591
▁легі	-10592
▁ліге	-10593
▁мемл	-10594
▁рына	-10595
▁фаза	-10596
▁ысым	-10597
▁қаба	-10598
▁ұйым	-10599
екенов	-10600
мутова	-10601
опмент	-10602
ханова	-10603
ғжанов	-10604
▁solar	-10605
▁Бүкіл	-10606
▁Париж	-10607
▁аккум	-10608
▁алиев	-10609
▁архив	-10610
▁вучич	-10611
▁дерек	-10612
▁дүбір	-10613
▁елдім	-10614
▁жанат	-10615
▁зелен	-10616
▁карин	-10617
▁кешке	-10618
▁нараз	-10619
▁нарық	-10620
▁панел	-10621
▁сібір	-10622
▁теніп	-10623
▁тысын	-10624
▁тұрағ	-10625
▁ікпен	-10626
▁інбек	-10627
оресурс	-10628
экспорт	-10629
▁KAZNEX	-10630
▁Электр	-10631
▁бердым	-10632
▁григор	-10633
▁гүлзар	-10634
▁исеско	-10635
▁мадрид	-10636
▁подпол	-10637
▁сарқыл	-10638
▁теңдіг	-10639
альвация	-10640
ейтіндіг	-10641
истермен	-10642
мұхамбет	-10643
▁capital	-10644
▁hyundai	-10645
▁антониу	-10646
▁георгий	-10647
▁голланд	-10648
▁есептеу	-10649
▁жетібай	-10650
▁жигалов	-10651
▁кәдесый	-10652
▁офтальм	-10653
▁үстінен	-10654
дікәрімов	-10655
▁алтынкөл	-10656
▁байжанов	-10657
▁ескендір	-10658
▁мырзалин	-10659
▁ордабаев	-10660
▁петербор	-10661
▁синергия	-10662
▁ғаламшар	-10663
▁үстемақы	-10664
▁Әшімбаев	-10665
▁бюллетень	-10666
▁елдімекен	-10667
▁жұмабеков	-10668
▁ломоносов	-10669
▁қазыханов	-10670
▁антитеррор	-10671
▁сәдуақасов	-10672
▁worldskills	-10673
▁абдрахманов	-10674
▁асырылуының	-10675
▁тұрақсыздығ	-10676
▁электроника	-10677
▁құқыққорғау	-10678
▁әрекеттестіг	-10679
ck	-10680
oe	-10681
ЗИ	-10682
бы	-10683
тұ	-10684
шу	-10685
als	-10686
ism	-10687
oft	-10688
ork	-10689
бон	-10690
вал	-10691
кал	-10692
код	-10693
ома	-10694
реш	-10695
сис	-10696
сит	-10697
өрі	-10698
▁he	-10699
▁За	-10700
▁эд	-10701
▁Қа	-10702
ақты	-10703
бдал	-10704
енда	-10705
енің	-10706
нова	-10707
омба	-10708
роду	-10709
сенс	-10710
стен	-10711
ідір	-10712
інов	-10713
ұлан	-10714
▁232	-10715
▁265	-10716
▁268	-10717
▁365	-10718
▁tim	-10719
▁xii	-10720
▁Дар	-10721
▁Хан	-10722
▁ақб	-10723
▁аәк	-10724
▁лор	-10725
▁мог	-10726
▁нур	-10727
▁сиг	-10728
▁тұщ	-10729
▁фен	-10730
▁ҰҚК	-10731
ағына	-10732
дірек	-10733
сібір	-10734
ындат	-10735
қайың	-10736
▁1800	-10737
▁көпв	-10738
▁лада	-10739
▁лифт	-10740
▁ыдыс	-10741
▁Құқы	-10742
▁ұзар	-10743
▁Әділ	-10744
▁Әйел	-10745
logist	-10746
алация	-10747
альдық	-10748
дарман	-10749
күндік	-10750
рессия	-10751
фосфат	-10752
▁euras	-10753
▁Тәжин	-10754
▁аптал	-10755
▁бадан	-10756
▁белең	-10757
▁геном	-10758
▁еврей	-10759
▁киров	-10760
▁мезет	-10761
▁почта	-10762
▁салым	-10763
▁сейіт	-10764
▁тадан	-10765
▁ультр	-10766
▁шадан	-10767
▁шарап	-10768
▁щучье	-10769
дағылар	-10770
пейісов	-10771
▁Берлин	-10772
▁Тұрғын	-10773
▁англия	-10774
▁коньки	-10775
▁рустам	-10776
▁тиянақ	-10777
▁қалдығ	-10778
▁әбішев	-10779
▁өтеміс	-10780
амыздағы	-10781
беушілік	-10782
оскосмос	-10783
імділігі	-10784
▁автотұр	-10785
▁данатын	-10786
▁жұбанов	-10787
▁контраб	-10788
▁көпфунк	-10789
▁мелекет	-10790
▁рамазан	-10791
▁туысқан	-10792
▁эрмитаж	-10793
▁Моңғолия	-10794
▁Словакия	-10795
▁бейнекон	-10796
▁бейтарап	-10797
▁дүниежүз	-10798
▁елемесов	-10799
▁жерсерік	-10800
▁коммуник	-10801
▁кіріктір	-10802
▁көпқырлы	-10803
▁сарабдал	-10804
▁сипаттал	-10805
▁фельдшер	-10806
▁қазмедиа	-10807
▁қазмырыш	-10808
▁қарыздар	-10809
▁өткендіг	-10810
алашникова	-10811
▁алатындай	-10812
▁аустралия	-10813
▁веложарыс	-10814
▁ерімбетов	-10815
▁көпвектор	-10816
▁төлегенов	-10817
▁Индустриал	-10818
▁ауғаныстан	-10819
▁ахметжанов	-10820
▁ибрагимова	-10821
▁коммерциал	-10822
▁отансүйгіш	-10823
▁innovations	-10824
▁Мұхамедиұлы	-10825
▁девелопмент	-10826
▁әлеуметтану	-10827
▁энерготиімді	-10828
▁көпконфессиялы	-10829
▁облыстарындағы	-10830
19	-10831
ei	-10832
ps	-10833
qu	-10834
ПА	-10835
еб	-10836
ео	-10837
жі	-10838
ays	-10839
daq	-10840
ota	-10841
son	-10842
yst	-10843
леп	-10844
оли	-10845
чин	-10846
әне	-10847
▁we	-10848
▁нг	-10849
▁Үш	-10850
ecom	-10851
азов	-10852
енци	-10853
иеев	-10854
овец	-10855
огия	-10856
окон	-10857
раев	-10858
удің	-10859
өнім	-10860
▁234	-10861
▁241	-10862
▁252	-10863
▁272	-10864
▁313	-10865
▁345	-10866
▁Ары	-10867
▁Бек	-10868
▁Дон	-10869
▁Рио	-10870
▁Шар	-10871
▁боб	-10872
▁еэа	-10873
▁кэц	-10874
▁мур	-10875
▁мәж	-10876
▁фат	-10877
▁үак	-10878
бинск	-10879
гілер	-10880
лауды	-10881
фирма	-10882
цикло	-10883
інсіз	-10884
ұлова	-10885
▁Даби	-10886
▁азап	-10887
▁айны	-10888
▁виль	-10889
▁диск	-10890
▁жанғ	-10891
▁оңал	-10892
▁пиан	-10893
▁сейт	-10894
▁сона	-10895
▁тата	-10896
▁тесу	-10897
▁усыз	-10898
▁холл	-10899
▁хуан	-10900
▁черн	-10901
аларын	-10902
ертуар	-10903
ессион	-10904
етірес	-10905
охимия	-10906
ышбаев	-10907
▁варга	-10908
▁лазер	-10909
▁легін	-10910
▁маңай	-10911
▁самар	-10912
▁сағын	-10913
▁түбір	-10914
▁түсіп	-10915
▁іштің	-10916
▁қатыр	-10917
ниханов	-10918
оскопия	-10919
тандыру	-10920
ытайлық	-10921
▁акимат	-10922
▁бестіг	-10923
▁гвинея	-10924
▁гүлжан	-10925
▁дейтін	-10926
▁иемден	-10927
▁интерн	-10928
▁кескін	-10929
▁красно	-10930
▁сомали	-10931
▁студия	-10932
▁таптыр	-10933
▁филипп	-10934
▁peugeot	-10935
▁асылбек	-10936
▁бангкок	-10937
▁демпинг	-10938
▁инсульт	-10939
▁консенс	-10940
▁телевид	-10941
▁трамвай	-10942
▁қарауыл	-10943
▁қолында	-10944
▁ұмытпай	-10945
▁археолог	-10946
▁нотариус	-10947
▁Қаппаров	-10948
▁қазығұрт	-10949
▁қоймалау	-10950
▁инженерия	-10951
▁ленинград	-10952
▁майлыбаев	-10953
▁репертуар	-10954
▁текетірес	-10955
▁толығырақ	-10956
▁темірбетон	-10957
▁девальвация	-10958
▁көпвекторлы	-10959
▁алдабергенов	-10960
▁перспективті	-10961
▁сертификация	-10962
▁интернационал	-10963
▁орындарындағы	-10964
▁көпфункционалды	-10965
ca	-10966
sp	-10967
ги	-10968
қу	-10969
өп	-10970
eng	-10971
ory	-10972
sco	-10973
ult	-10974
агу	-10975
бин	-10976
вел	-10977
вор	-10978
гай	-10979
даб	-10980
дсұ	-10981
сто	-10982
сыл	-10983
хим	-10984
эск	-10985
▁em	-10986
▁hu	-10987
▁se	-10988
▁Ег	-10989
▁Мү	-10990
▁бі	-10991
▁жш	-10992
▁кқ	-10993
▁шл	-10994
авод	-10995
алқа	-10996
атыр	-10997
ента	-10998
ират	-10999
кала	-11000
кейт	-11001
ллер	-11002
озин	-11003
отов	-11004
цент	-11005
шісі	-11006
қала	-11007
ңгер	-11008
▁238	-11009
▁242	-11010
▁275	-11011
▁288	-11012
▁303	-11013
▁329	-11014
▁470	-11015
▁630	-11016
▁new	-11017
▁Вар	-11018
▁Инд	-11019
▁беу	-11020
▁боп	-11021
▁буд	-11022
▁жоя	-11023
▁жіт	-11024
▁зап	-11025
▁зим	-11026
▁кау	-11027
▁мкк	-11028
▁пог	-11029
▁роз	-11030
▁тоң	-11031
▁шәр	-11032
▁қоқ	-11033
ystem	-11034
батау	-11035
герім	-11036
жасау	-11037
инист	-11038
ктура	-11039
осток	-11040
тарға	-11041
таған	-11042
шімов	-11043
▁2045	-11044
▁xxii	-11045
▁ддсұ	-11046
▁жанр	-11047
▁лорд	-11048
▁матч	-11049
▁нияз	-11050
▁панд	-11051
▁серж	-11052
▁інді	-11053
▁қиыр	-11054
иципал	-11055
ментау	-11056
овский	-11057
▁Саяси	-11058
▁геоде	-11059
▁гимна	-11060
▁деэск	-11061
▁күйік	-11062
▁ланса	-11063
▁модул	-11064
▁орбан	-11065
▁рәпіл	-11066
▁тедік	-11067
▁түйір	-11068
▁ізгіл	-11069
▁ікмен	-11070
▁қажым	-11071
▁құнар	-11072
▁құтыл	-11073
асырлық	-11074
молдина	-11075
огендік	-11076
эквондо	-11077
іміздің	-11078
▁techno	-11079
▁Ақышев	-11080
▁Лондон	-11081
▁Мектеп	-11082
▁аттрак	-11083
▁валент	-11084
▁жылдар	-11085
▁конвер	-11086
▁кубогы	-11087
▁мартин	-11088
▁олланд	-11089
▁сигнал	-11090
▁тойтар	-11091
▁шалқар	-11092
▁яссауи	-11093
▁ісетін	-11094
▁ғыштар	-11095
▁қалиев	-11096
▁өсіріл	-11097
айтындығ	-11098
бердиева	-11099
итикалық	-11100
▁startup	-11101
▁Бурабай	-11102
▁Саламат	-11103
▁бұрыңғы	-11104
▁дүбірлі	-11105
▁түйткіл	-11106
▁хиросим	-11107
▁энцикло	-11108
▁Business	-11109
▁жарамсыз	-11110
▁жылыстат	-11111
▁нотариат	-11112
▁портфель	-11113
▁қабанбай	-11114
▁қашықтығ	-11115
елеріндегі	-11116
▁автокөліг	-11117
▁барасында	-11118
▁бішімбаев	-11119
▁консенсус	-11120
▁муниципал	-11121
▁пішембаев	-11122
▁өксікбаев	-11123
▁Демократия	-11124
▁архитектор	-11125
▁аттракцион	-11126
▁ауқымдылығ	-11127
▁ізгілендір	-11128
▁құралымдар	-11129
▁деэскалация	-11130
▁нәтижеліліг	-11131
▁телевидение	-11132
▁әдеттегідей	-11133
▁подполковник	-11134
▁оңтайландырыл	-11135
▁электротехника	-11136
33	-11137
94	-11138
av	-11139
рт	-11140
ost	-11141
yon	-11142
иды	-11143
икс	-11144
иля	-11145
иса	-11146
омо	-11147
пеу	-11148
уде	-11149
фти	-11150
▁XV	-11151
▁Ло	-11152
▁зо	-11153
▁тн	-11154
▁ұж	-11155
ance	-11156
berg	-11157
urkv	-11158
игма	-11159
ктад	-11160
омаш	-11161
стау	-11162
стің	-11163
удия	-11164
усан	-11165
ығым	-11166
ңгір	-11167
▁235	-11168
▁301	-11169
▁324	-11170
▁520	-11171
▁res	-11172
▁Жез	-11173
▁Тан	-11174
▁гэс	-11175
▁деф	-11176
▁жқз	-11177
▁лыс	-11178
▁мүш	-11179
▁сүю	-11180
▁тіс	-11181
▁тұк	-11182
▁шуа	-11183
▁шәм	-11184
▁эыұ	-11185
▁қоб	-11186
ағасы	-11187
ділер	-11188
келер	-11189
ктағы	-11190
ларын	-11191
ойлер	-11192
ордан	-11193
таның	-11194
тараз	-11195
чатов	-11196
інген	-11197
ірмен	-11198
▁data	-11199
▁Ораз	-11200
▁аида	-11201
▁ақан	-11202
▁бұлт	-11203
▁гүлн	-11204
▁исма	-11205
▁каир	-11206
▁леон	-11207
▁лива	-11208
▁пияз	-11209
▁саур	-11210
▁слав	-11211
▁слет	-11212
▁стал	-11213
▁стив	-11214
▁шана	-11215
▁ысыр	-11216
▁үлбі	-11217
▁әкет	-11218
ograph	-11219
громар	-11220
енажер	-11221
кендіг	-11222
сервис	-11223
уынсыз	-11224
энерго	-11225
▁БҰҰДБ	-11226
▁Көшер	-11227
▁апроб	-11228
▁артис	-11229
▁ақсай	-11230
▁бочар	-11231
▁дысын	-11232
▁жарағ	-11233
▁пасха	-11234
▁сидор	-11235
▁собор	-11236
▁совет	-11237
▁тозығ	-11238
▁тұрлы	-11239
▁тұтын	-11240
▁төзім	-11241
▁ынтам	-11242
▁ықтыр	-11243
▁ғының	-11244
▁қонағ	-11245
▁Үлкен	-11246
ағұсова	-11247
енкомен	-11248
ұнайГаз	-11249
▁nasdaq	-11250
▁Бейжің	-11251
▁артыру	-11252
▁ақиқат	-11253
▁белбеу	-11254
▁гидром	-11255
▁даймен	-11256
▁зардаб	-11257
▁премия	-11258
▁словак	-11259
▁тигран	-11260
▁түйткі	-11261
▁тұрсын	-11262
▁фостер	-11263
▁хаиров	-11264
▁халифа	-11265
▁юнктад	-11266
▁ҮИИДМБ	-11267
▁Комитет	-11268
▁ақылбай	-11269
▁бағалау	-11270
▁бройлер	-11271
▁венеция	-11272
▁диірмен	-11273
▁елестет	-11274
▁еткенде	-11275
▁католик	-11276
▁орналас	-11277
▁принціп	-11278
▁қонақүй	-11279
▁әбіқаев	-11280
▁өтерлік	-11281
▁геннадий	-11282
▁минскіде	-11283
▁мұғалжар	-11284
▁орынбаев	-11285
▁смартфон	-11286
▁тренажер	-11287
▁түлкібас	-11288
▁электрик	-11289
▁Қазпочта	-11290
мағанбетов	-11291
▁Жезқазған	-11292
▁Индонезия	-11293
▁Көшербаев	-11294
▁Федералды	-11295
▁бангладеш	-11296
▁венгерлік	-11297
▁мақтаарал	-11298
▁міндеттел	-11299
▁парадигма	-11300
▁филология	-11301
▁гимнастика	-11302
▁иманғалиев	-11303
громаркетинг	-11304
▁Федеративті	-11305
▁машинажасау	-11306
▁мұсақожаева	-11307
▁топтастырыл	-11308
▁урбанизация	-11309
▁ҚазМұнайГаз	-11310
▁парламентари	-11311
▁электрэнергия	-11312
▁нанотехнология	-11313
▁органдарындағы	-11314
▁коммуникативтік	-11315
27	-11316
65	-11317
95	-11318
СШ	-11319
пс	-11320
000	-11321
arm	-11322
ral	-11323
ros	-11324
АТО	-11325
Ойл	-11326
СШК	-11327
аки	-11328
бұр	-11329
уіл	-11330
өбе	-11331
▁ab	-11332
▁ba	-11333
▁cl	-11334
▁cr	-11335
▁ip	-11336
▁re	-11337
▁sa	-11338
▁Га	-11339
▁Ка	-11340
▁дю	-11341
▁кт	-11342
▁мк	-11343
ater	-11344
oyle	-11345
stom	-11346
sung	-11347
аунт	-11348
вард	-11349
вент	-11350
гель	-11351
жіре	-11352
ипов	-11353
росс	-11354
синг	-11355
стон	-11356
тедж	-11357
унов	-11358
шаев	-11359
қыра	-11360
ңкер	-11361
▁211	-11362
▁253	-11363
▁273	-11364
▁317	-11365
▁334	-11366
▁346	-11367
▁356	-11368
▁780	-11369
▁ast	-11370
▁erg	-11371
▁fit	-11372
▁toy	-11373
▁БЭК	-11374
▁Гол	-11375
▁али	-11376
▁бәл	-11377
▁жуа	-11378
▁жшқ	-11379
▁маж	-11380
▁сур	-11381
▁цой	-11382
▁ынт	-11383
▁Құс	-11384
▁әлс	-11385
агент	-11386
айнал	-11387
акция	-11388
асына	-11389
аудан	-11390
бания	-11391
веция	-11392
дарды	-11393
кович	-11394
латыл	-11395
мекші	-11396
таева	-11397
талон	-11398
уминг	-11399
ылады	-11400
ьянма	-11401
ңғала	-11402
▁2040	-11403
▁7000	-11404
▁tour	-11405
▁анна	-11406
▁арақ	-11407
▁биом	-11408
▁конд	-11409
▁кіте	-11410
▁ліде	-11411
▁наша	-11412
▁сорт	-11413
▁сімк	-11414
▁тани	-11415
▁траф	-11416
▁трей	-11417
▁цзян	-11418
▁ынса	-11419
▁қалт	-11420
▁қозы	-11421
ділігі	-11422
енерал	-11423
мейтін	-11424
миттал	-11425
омбард	-11426
себаев	-11427
улатов	-11428
ъетнам	-11429
ысымен	-11430
імізді	-11431
▁Doing	-11432
▁qazaq	-11433
▁xviii	-11434
▁Катар	-11435
▁Лукаш	-11436
▁бозой	-11437
▁домин	-11438
▁жапыр	-11439
▁запас	-11440
▁ивуар	-11441
▁кембр	-11442
▁князь	-11443
▁крест	-11444
▁кубок	-11445
▁лента	-11446
▁парағ	-11447
▁продю	-11448
▁ролик	-11449
▁рубль	-11450
▁сәбит	-11451
▁центр	-11452
▁үржар	-11453
порация	-11454
ымыздай	-11455
ьяченко	-11456
▁Африка	-11457
▁Грекия	-11458
▁атымен	-11459
▁костюм	-11460
▁лукойл	-11461
▁нахаян	-11462
▁ричард	-11463
▁самара	-11464
▁тағалы	-11465
▁техник	-11466
▁шежіре	-11467
андықтау	-11468
лигенция	-11469
стелеком	-11470
ымбекова	-11471
▁Ақпарат	-11472
▁Ердоған	-11473
▁Француз	-11474
▁ақылбек	-11475
▁бақылан	-11476
▁бордюжа	-11477
▁висенте	-11478
▁геретін	-11479
▁елтаңба	-11480
▁лебедев	-11481
▁пластик	-11482
▁психика	-11483
▁республ	-11484
▁роуминг	-11485
▁субъект	-11486
▁тараған	-11487
▁туындат	-11488
▁тікұшағ	-11489
▁төралқа	-11490
▁эквадор	-11491
▁ғажайып	-11492
▁әбдіров	-11493
▁Норвегия	-11494
▁Тоғжанов	-11495
▁ахметова	-11496
▁геодезия	-11497
▁головкин	-11498
▁есенбаев	-11499
▁жөнелтіл	-11500
▁лайықтал	-11501
▁оразалин	-11502
▁тоғыстыр	-11503
▁шаштараз	-11504
▁қалбатау	-11505
▁автотұрақ	-11506
▁апробация	-11507
▁бағдарлам	-11508
▁винокуров	-11509
▁госпиталь	-11510
▁инстанция	-11511
▁оңайлатыл	-11512
▁тыңдарман	-11513
▁энергетик	-11514
▁әзілханов	-11515
▁камалдинов	-11516
▁түсетіндіг	-11517
▁қағазбасты	-11518
▁өміршеңдіг	-11519
▁өркендеген	-11520
▁аккумулятор	-11521
▁бектұрғанов	-11522
▁белсендірек	-11523
▁контрабанда	-11524
▁ҚазТрансОйл	-11525
▁амбулаторлық	-11526
▁энциклопедия	-11527
▁көрсетілгенде	-11528
▁мамандырылған	-11529
▁қазақстаннның	-11530
▁бәсекелестігін	-11531
▁кинематография	-11532
74	-11533
bh	-11534
ty	-11535
бә	-11536
сү	-11537
тд	-11538
▁@	-11539
isa	-11540
ola	-11541
vel	-11542
баш	-11543
ели	-11544
жап	-11545
иди	-11546
ира	-11547
исі	-11548
кар	-11549
лиф	-11550
рея	-11551
сөз	-11552
тах	-11553
ток	-11554
ури	-11555
чак	-11556
шім	-11557
ілі	-11558
▁St	-11559
▁ib	-11560
▁us	-11561
▁xi	-11562
▁Бе	-11563
▁Ир	-11564
▁От	-11565
▁қс	-11566
ubai	-11567
амбо	-11568
екст	-11569
еңке	-11570
икон	-11571
овая	-11572
ольд	-11573
пиев	-11574
риан	-11575
риев	-11576
фарм	-11577
хром	-11578
хрон	-11579
▁262	-11580
▁282	-11581
▁286	-11582
▁312	-11583
▁335	-11584
▁336	-11585
▁344	-11586
▁530	-11587
▁XII	-11588
▁bar	-11589
▁cri	-11590
▁ind	-11591
▁iso	-11592
▁jac	-11593
▁pos	-11594
▁Баш	-11595
▁Фор	-11596
▁Хор	-11597
▁гау	-11598
▁гем	-11599
▁жжм	-11600
▁ипп	-11601
▁нег	-11602
▁рақ	-11603
▁сою	-11604
▁тбу	-11605
▁хаз	-11606
▁эне	-11607
▁ғой	-11608
▁Әбу	-11609
▁Әбі	-11610
▁әтк	-11611
▁өтк	-11612
izyon	-11613
агуош	-11614
жігіт	-11615
ияров	-11616
кімет	-11617
мейді	-11618
солют	-11619
ститу	-11620
фаэль	-11621
ынмен	-11622
ғұлов	-11623
▁1400	-11624
▁fest	-11625
▁fund	-11626
▁xvii	-11627
▁Арал	-11628
▁Бель	-11629
▁Вена	-11630
▁Съез	-11631
▁апел	-11632
▁жәйт	-11633
▁мысы	-11634
▁сыры	-11635
▁тжкб	-11636
▁тұяқ	-11637
▁қайр	-11638
▁әсел	-11639
▁өсім	-11640
альтер	-11641
ономия	-11642
улетов	-11643
▁petro	-11644
▁АӨСШК	-11645
▁Батыр	-11646
▁Никол	-11647
▁айтпа	-11648
▁арылт	-11649
▁біріз	-11650
▁бөкей	-11651
▁жамыл	-11652
▁жатып	-11653
▁кіріг	-11654
▁көпэт	-11655
▁майра	-11656
▁махмұ	-11657
▁разак	-11658
▁салуы	-11659
▁самал	-11660
▁сенім	-11661
▁серіг	-11662
▁сюжет	-11663
▁ырғыз	-11664
▁қисын	-11665
▁қоңыр	-11666
гендігі	-11667
ковский	-11668
▁toyota	-11669
▁Латвия	-11670
▁Мұхтар	-11671
▁аренда	-11672
▁балқыт	-11673
▁бағана	-11674
▁жаңғақ	-11675
▁желбір	-11676
▁немқұр	-11677
▁поэзия	-11678
▁репрод	-11679
▁рудный	-11680
▁төңкер	-11681
▁шеттет	-11682
▁эталон	-11683
▁қатайт	-11684
▁әшімов	-11685
сембаева	-11686
қытайлық	-11687
▁service	-11688
▁абсолют	-11689
▁асылжан	-11690
▁донақов	-11691
▁драйвер	-11692
▁елбасын	-11693
▁жаңалығ	-11694
▁жетіген	-11695
▁жүнісов	-11696
▁отырған	-11697
▁планшет	-11698
▁превент	-11699
▁феномен	-11700
▁әмірліг	-11701
logistics	-11702
urkvizyon	-11703
▁Медицина	-11704
▁Смайылов	-11705
▁автопарк	-11706
▁американ	-11707
▁ерғалиев	-11708
▁ипподром	-11709
▁кемеңгер	-11710
▁консерві	-11711
▁курчатов	-11712
▁мотоцикл	-11713
▁мұхтаров	-11714
▁құнанбай	-11715
▁өтемісов	-11716
▁Атамқұлов	-11717
▁автономия	-11718
▁агрофирма	-11719
▁агрохимия	-11720
▁мемелекет	-11721
▁охлопкова	-11722
▁степногор	-11723
▁телерадио	-11724
▁түрлендір	-11725
▁тұрғандығ	-11726
▁болатындай	-11727
▁бочарников	-11728
▁төзімділіг	-11729
▁қабілеттіг	-11730
▁заңдастырыл	-11731
▁көмірсутегі	-11732
▁лингвистика	-11733
▁бірегейлікті	-11734
▁арселормиттал	-11735
▁интеллигенция	-11736
▁сертификаттал	-11737
▁электрстанция	-11738
▁нарықтарындағы	-11739
▁мәселелеріндегі	-11740
▁әртараптандырыл	-11741
op	-11742
ts	-11743
ach	-11744
ack	-11745
гос	-11746
деж	-11747
ела	-11748
елі	-11749
иза	-11750
иха	-11751
күл	-11752
лат	-11753
шид	-11754
▁br	-11755
▁lo	-11756
▁Ку	-11757
▁Се	-11758
▁ву	-11759
book	-11760
ject	-11761
mart	-11762
nect	-11763
бере	-11764
град	-11765
ейни	-11766
еман	-11767
ешев	-11768
иано	-11769
одты	-11770
оник	-11771
орын	-11772
улов	-11773
ушин	-11774
фурт	-11775
янов	-11776
ілен	-11777
ңқыр	-11778
▁223	-11779
▁243	-11780
▁248	-11781
▁287	-11782
▁308	-11783
▁355	-11784
▁441	-11785
▁487	-11786
▁htt	-11787
▁int	-11788
▁Бож	-11789
▁Пат	-11790
▁Тер	-11791
▁бил	-11792
▁зак	-11793
▁мох	-11794
▁нап	-11795
▁одм	-11796
▁сүз	-11797
▁тдм	-11798
▁тун	-11799
▁Қож	-11800
айғыр	-11801
алент	-11802
дидар	-11803
етчер	-11804
кевич	-11805
кешен	-11806
майер	-11807
рация	-11808
сайын	-11809
ығына	-11810
▁cnpc	-11811
▁Агро	-11812
▁Вице	-11813
▁Дипл	-11814
▁аштө	-11815
▁бота	-11816
▁град	-11817
▁гіні	-11818
▁дина	-11819
▁крол	-11820
▁месе	-11821
▁тонг	-11822
▁трав	-11823
▁трек	-11824
▁тянь	-11825
▁юлия	-11826
igital	-11827
invest	-11828
асенко	-11829
ағұлов	-11830
дігіне	-11831
италий	-11832
итенци	-11833
ректор	-11834
уляция	-11835
циалық	-11836
▁shell	-11837
▁Армия	-11838
▁Мемор	-11839
▁айнұр	-11840
▁дедік	-11841
▁десті	-11842
▁диқан	-11843
▁елдер	-11844
▁куала	-11845
▁ладым	-11846
▁лимит	-11847
▁мелде	-11848
▁момыш	-11849
▁мотор	-11850
▁мығым	-11851
▁нелік	-11852
▁плита	-11853
▁сейсм	-11854
▁субұр	-11855
▁тағат	-11856
▁шесін	-11857
▁шімен	-11858
▁шұбат	-11859
▁қаріп	-11860
абекұлы	-11861
дығының	-11862
остовец	-11863
рактағы	-11864
терапия	-11865
терінің	-11866
тылығын	-11867
ғалиұлы	-11868
қарағай	-11869
▁engine	-11870
▁байтұр	-11871
▁босния	-11872
▁грузин	-11873
▁дәулет	-11874
▁жауһар	-11875
▁инклюз	-11876
▁лумпур	-11877
▁ракета	-11878
▁реформ	-11879
бековтың	-11880
икасының	-11881
▁Конгрес	-11882
▁коттедж	-11883
▁мұқашев	-11884
▁намамен	-11885
▁сәтбаев	-11886
▁сәтпаев	-11887
▁ғашқысы	-11888
▁қарқара	-11889
struction	-11890
ушылардың	-11891
▁Бірыңғай	-11892
▁автошеру	-11893
▁айтжанов	-11894
▁араласпа	-11895
▁марченко	-11896
▁мирзиеев	-11897
▁неліктен	-11898
▁рәсімдел	-11899
▁тоғызқұм	-11900
▁шұбаркөл	-11901
▁Соловьева	-11902
▁апелляция	-11903
▁бахмутова	-11904
▁велоспорт	-11905
▁дастархан	-11906
▁инвестжоб	-11907
▁контрафак	-11908
▁теледидар	-11909
▁Қарабалин	-11910
итенциарлық	-11911
▁Мәжілісмен	-11912
▁мұнайхимия	-11913
▁радиология	-11914
▁трансплант	-11915
▁түсіпбеков	-11916
▁қасымбеков	-11917
▁агроқұрылым	-11918
▁ақпаратынша	-11919
▁бағалауынша	-11920
▁төзбеушілік	-11921
▁хорватияның	-11922
▁регламенттел	-11923
▁өңіріміздегі	-11924
▁репродуктивті	-11925
▁диверсификация	-11926
▁журналистермен	-11927
75	-11928
fa	-11929
ly	-11930
ok	-11931
ow	-11932
pa	-11933
жж	-11934
мэ	-11935
пи	-11936
тш	-11937
arn	-11938
eel	-11939
ild	-11940
ilk	-11941
xos	-11942
АТЭ	-11943
ась	-11944
аус	-11945
зір	-11946
ной	-11947
ожа	-11948
сор	-11949
сса	-11950
сіб	-11951
уми	-11952
хин	-11953
ыль	-11954
▁am	-11955
▁ev	-11956
▁Ро	-11957
▁жф	-11958
▁ио	-11959
▁пи	-11960
▁сн	-11961
▁сқ	-11962
▁ун	-11963
▁хэ	-11964
▁эй	-11965
ГАТЭ	-11966
абан	-11967
абил	-11968
дром	-11969
ейіт	-11970
мэәк	-11971
обал	-11972
отаж	-11973
ытыр	-11974
інді	-11975
ңғол	-11976
әрім	-11977
▁269	-11978
▁271	-11979
▁293	-11980
▁306	-11981
▁393	-11982
▁414	-11983
▁425	-11984
▁610	-11985
▁740	-11986
▁960	-11987
▁led	-11988
▁Ада	-11989
▁Ата	-11990
▁Каз	-11991
▁Май	-11992
▁Мен	-11993
▁Муз	-11994
▁Сыр	-11995
▁ХКБ	-11996
▁Эст	-11997
▁ган	-11998
▁дав	-11999
▁зәу	-12000
▁коч	-12001
▁кош	-12002
▁лим	-12003
▁фед	-12004
▁шок	-12005
▁әқк	-12006
▁ӨДМ	-12007
group	-12008
organ	-12009
ravel	-12010
анцев	-12011
астығ	-12012
бекет	-12013
иалық	-12014
келді	-12015
кявич	-12016
ліліг	-12017
талай	-12018
тінде	-12019
уттон	-12020
шемет	-12021
штейн	-12022
інбей	-12023
қазақ	-12024
▁cont	-12025
▁арте	-12026
▁ерей	-12027
▁кхдр	-12028
▁лесе	-12029
▁маза	-12030
▁невр	-12031
▁пана	-12032
▁рика	-12033
▁рияд	-12034
▁теке	-12035
▁төбе	-12036
▁ішім	-12037
▁қазұ	-12038
алиева	-12039
аманов	-12040
ексика	-12041
коммер	-12042
кіншек	-12043
лердің	-12044
рослав	-12045
циялық	-12046
ымызға	-12047
▁media	-12048
▁Форум	-12049
▁акаде	-12050
▁аннан	-12051
▁барак	-12052
▁бесеу	-12053
▁бөлін	-12054
▁кесір	-12055
▁самбо	-12056
▁санағ	-12057
▁сатыб	-12058
▁сәбіз	-12059
▁фелип	-12060
▁қыран	-12061
▁әбдел	-12062
▁өздер	-12063
алардың	-12064
бербанк	-12065
остудия	-12066
ықтылығ	-12067
қасымов	-12068
▁system	-12069
▁Бішкек	-12070
▁Виктор	-12071
▁МАГАТЭ	-12072
▁Мерзім	-12073
▁балуан	-12074
▁болжал	-12075
▁гүлнар	-12076
▁ланбек	-12077
▁марқұм	-12078
▁мьянма	-12079
▁наубай	-12080
▁стефан	-12081
▁теспін	-12082
▁шұңқыр	-12083
▁шөбере	-12084
▁қайтып	-12085
▁қауырт	-12086
▁өнідір	-12087
автопром	-12088
грессмен	-12089
леушілік	-12090
ыстандыр	-12091
▁Бельгия	-12092
▁Эстония	-12093
▁алпауыт	-12094
▁арнасай	-12095
▁виталий	-12096
▁даналығ	-12097
▁ержанов	-12098
▁жарықди	-12099
▁жағажай	-12100
▁жұмаділ	-12101
▁резеңке	-12102
▁соңынан	-12103
▁қатыспа	-12104
▁қошемет	-12105
▁әбдірах	-12106
▁Башмаков	-12107
▁Цзиньпин	-12108
▁айтуныша	-12109
▁біржақты	-12110
▁исабеков	-12111
▁мансұров	-12112
▁мәнмәтін	-12113
▁рысқұлов	-12114
▁суландыр	-12115
▁террорис	-12116
▁шпекбаев	-12117
▁ыстамбұл	-12118
▁Ермекбаев	-12119
▁диспетчер	-12120
▁жандарбек	-12121
▁жаңбыршин	-12122
▁жеткіншек	-12123
▁жоғарылығ	-12124
▁мотоатқыш	-12125
▁новосібір	-12126
▁плотников	-12127
▁тәсілдеме	-12128
ілетіндігін	-12129
▁кәсіпорнын	-12130
▁мемлкеттік	-12131
▁минниханов	-12132
▁полиметалл	-12133
▁прагматика	-12134
▁сәрсембаев	-12135
▁түсіністіг	-12136
▁біртұтастығ	-12137
▁методология	-12138
▁нұрмұхамбет	-12139
▁сәдуақасова	-12140
▁құдайберген	-12141
▁тоғызқұмалақ	-12142
▁бағытталғандығ	-12143
▁меморгандардың	-12144
▁парламентаризм	-12145
▁Президенттігіне	-12146
32	-12147
78	-12148
EG	-12149
ФР	-12150
ЭҚ	-12151
зм	-12152
нс	-12153
ши	-12154
қи	-12155
ұн	-12156
▁Щ	-12157
ang	-12158
gle	-12159
hev	-12160
its	-12161
one	-12162
ram	-12163
бир	-12164
зян	-12165
ичк	-12166
као	-12167
лец	-12168
мол	-12169
суа	-12170
уст	-12171
чук	-12172
ызы	-12173
ымы	-12174
әқм	-12175
▁IT	-12176
▁kh	-12177
▁sc	-12178
▁кп	-12179
▁пм	-12180
rsco	-12181
азиз	-12182
айды	-12183
аңыз	-12184
бала	-12185
жыға	-12186
иясы	-12187
опея	-12188
уэль	-12189
хмет	-12190
чжоу	-12191
шина	-12192
ыспа	-12193
қару	-12194
▁266	-12195
▁289	-12196
▁322	-12197
▁325	-12198
▁337	-12199
▁341	-12200
▁343	-12201
▁372	-12202
▁387	-12203
▁490	-12204
▁680	-12205
▁bus	-12206
▁edu	-12207
▁mar	-12208
▁mic	-12209
▁sms	-12210
▁xiv	-12211
▁xxv	-12212
▁Бау	-12213
▁Бен	-12214
▁Иль	-12215
▁МЖС	-12216
▁Соң	-12217
▁гиб	-12218
▁жаю	-12219
▁мма	-12220
▁моб	-12221
▁раб	-12222
▁соя	-12223
▁тұн	-12224
▁хқо	-12225
▁яку	-12226
▁Ғар	-12227
▁әбд	-12228
ecomm	-12229
oogle	-12230
абель	-12231
арест	-12232
астыр	-12233
рохим	-12234
терея	-12235
элект	-12236
өкеев	-12237
▁1989	-12238
▁casp	-12239
▁poll	-12240
▁азығ	-12241
▁ашар	-12242
▁герб	-12243
▁гөрі	-12244
▁егіл	-12245
▁есім	-12246
▁ланд	-12247
▁лыса	-12248
▁мель	-12249
▁педі	-12250
▁прор	-12251
▁сакр	-12252
▁сүбе	-12253
▁тонн	-12254
▁фоос	-12255
▁эрит	-12256
▁ғабд	-12257
▁қияр	-12258
амасыз	-12259
андыру	-12260
далған	-12261
етанья	-12262
камера	-12263
ругвай	-12264
ставка	-12265
уллина	-12266
ғазиев	-12267
қандық	-12268
құрлық	-12269
▁Smart	-12270
▁dubai	-12271
▁Жаһан	-12272
▁Мұнай	-12273
▁айран	-12274
▁алаяқ	-12275
▁андре	-12276
▁ақтал	-12277
▁ботан	-12278
▁деніп	-12279
▁жүсіп	-12280
▁карат	-12281
▁килов	-12282
▁ленсе	-12283
▁маржа	-12284
▁монша	-12285
▁мүсір	-12286
▁нгуен	-12287
▁нигер	-12288
▁режеп	-12289
▁талон	-12290
▁талға	-12291
▁телем	-12292
▁түркі	-12293
▁чейни	-12294
▁штайн	-12295
▁шіміз	-12296
▁ымыра	-12297
▁ындыр	-12298
▁эквив	-12299
▁экстр	-12300
▁імдік	-12301
мейстер	-12302
тарапты	-12303
ғысынша	-12304
▁Invest	-12305
▁alstom	-12306
▁Арнайы	-12307
▁Женева	-12308
▁Йоркте	-12309
▁Швеция	-12310
▁альтер	-12311
▁аңғарт	-12312
▁бәлкім	-12313
▁геолог	-12314
▁гіштер	-12315
▁демарк	-12316
▁ертаев	-12317
▁моңғол	-12318
▁пандус	-12319
▁полите	-12320
▁полков	-12321
▁правда	-12322
▁реджеп	-12323
▁таниды	-12324
▁тіктен	-12325
▁хусейн	-12326
дуақасов	-12327
онтинент	-12328
▁crirsco	-12329
▁Абдулла	-12330
▁Душанбе	-12331
▁азайтыл	-12332
▁берешег	-12333
▁дамытыл	-12334
▁доңғала	-12335
▁келісіл	-12336
▁куратор	-12337
▁күйіков	-12338
▁цзиньта	-12339
▁шапағат	-12340
▁шынында	-12341
▁қазыбек	-12342
▁қанжыға	-12343
▁Прокурор	-12344
▁алтынсар	-12345
▁алғандығ	-12346
▁бітімгер	-12347
▁бәйменов	-12348
▁ирактағы	-12349
▁кассация	-12350
▁кембридж	-12351
▁отставка	-12352
▁пластика	-12353
▁продюсер	-12354
▁субұрқақ	-12355
▁тұрғынүй	-12356
▁черногор	-12357
▁қайырбек	-12358
▁қолжазба	-12359
айтындығын	-12360
▁аграрилер	-12361
▁беларусия	-12362
▁конверсия	-12363
▁кредиттеу	-12364
▁пікірімше	-12365
▁солтүстіг	-12366
▁тиімдірек	-12367
▁челябинск	-12368
▁әубәкіров	-12369
▁Kazakhstan	-12370
▁банкаралық	-12371
▁белсендіру	-12372
▁бюрократия	-12373
▁инвестжоба	-12374
▁киностудия	-12375
▁көптарапты	-12376
▁ниеттестіг	-12377
▁олимпиялық	-12378
▁рейтингісі	-12379
▁тыныштығын	-12380
▁Қожамжаров	-12381
▁қалааралық	-12382
▁қырыққабат	-12383
▁бейнекамера	-12384
▁еңбексүйгіш	-12385
▁жолдасбеков	-12386
▁конгрессмен	-12387
▁контрафакті	-12388
▁мүмкіншіліг	-12389
▁райымқұлова	-12390
▁санатындағы	-12391
▁өкілеттіліг	-12392
▁бұрынғысынша	-12393
▁тапқандардың	-12394
▁транстелеком	-12395
▁облысымыздағы	-12396
қазақстандықтар	-12397
▁трансконтинент	-12398
▁электроэнергия	-12399
▁ілгерілеушілік	-12400
EN	-12401
bc	-12402
ud	-12403
Аз	-12404
РМ	-12405
дқ	-12406
кп	-12407
оғ	-12408
тқ	-12409
EGO	-12410
ase	-12411
enc	-12412
erc	-12413
ive	-12414
Жол	-12415
ете	-12416
раз	-12417
ред	-12418
сеп	-12419
ски	-12420
усс	-12421
ути	-12422
хир	-12423
хон	-12424
ций	-12425
шез	-12426
шөп	-12427
ьяр	-12428
іге	-12429
▁XI	-12430
▁by	-12431
▁ix	-12432
▁бэ	-12433
▁ою	-12434
▁чо	-12435
▁эц	-12436
▁юр	-12437
2017	-12438
айлы	-12439
акао	-12440
десу	-12441
дікі	-12442
овна	-12443
парт	-12444
ынын	-12445
▁294	-12446
▁326	-12447
▁410	-12448
▁452	-12449
▁491	-12450
▁510	-12451
▁542	-12452
▁558	-12453
▁560	-12454
▁860	-12455
▁mck	-12456
▁mot	-12457
▁sum	-12458
▁ГФР	-12459
▁Пал	-12460
▁бүй	-12461
▁бұқ	-12462
▁гаг	-12463
▁деб	-12464
▁діл	-12465
▁жұр	-12466
▁кеу	-12467
▁кум	-12468
▁мац	-12469
▁мел	-12470
▁мұң	-12471
▁нұс	-12472
▁смс	-12473
▁сэқ	-12474
▁тмк	-12475
▁хаш	-12476
▁экз	-12477
▁эни	-12478
▁ғиб	-12479
ended	-12480
ution	-12481
айдер	-12482
бабве	-12483
заұлы	-12484
ократ	-12485
патит	-12486
шайым	-12487
ытпай	-12488
істір	-12489
▁1100	-12490
▁KEGO	-12491
▁gold	-12492
▁Төле	-12493
▁аииб	-12494
▁асса	-12495
▁бөрі	-12496
▁дель	-12497
▁джан	-12498
▁камб	-12499
▁каст	-12500
▁лавр	-12501
▁масс	-12502
▁оран	-12503
▁оқым	-12504
▁союз	-12505
▁тона	-12506
▁ушығ	-12507
▁шала	-12508
▁шина	-12509
▁қазг	-12510
▁қира	-12511
▁құты	-12512
▁ұқып	-12513
▁Әбіл	-12514
асанов	-12515
втоЖол	-12516
жоспар	-12517
итация	-12518
оритар	-12519
сариев	-12520
тықожа	-12521
імізше	-12522
▁Божко	-12523
▁ЕурАз	-12524
▁Тарих	-12525
▁архим	-12526
▁аухат	-12527
▁аңғар	-12528
▁болив	-12529
▁бомба	-12530
▁бонус	-12531
▁десіп	-12532
▁думан	-12533
▁ехәқм	-12534
▁йемен	-12535
▁кесіп	-12536
▁ламақ	-12537
▁ланка	-12538
▁матви	-12539
▁машығ	-12540
▁номер	-12541
▁позит	-12542
▁пісір	-12543
▁сабағ	-12544
▁сокол	-12545
▁сынап	-12546
▁тасты	-12547
▁түзіл	-12548
▁франц	-12549
▁хамад	-12550
▁хамид	-12551
▁шымен	-12552
▁қобда	-12553
▁әркез	-12554
acebook	-12555
agement	-12556
алықтар	-12557
ландыру	-12558
тасымал	-12559
утдинов	-12560
шіқазақ	-12561
▁Хорват	-12562
▁арынов	-12563
▁ассорт	-12564
▁ақтаев	-12565
▁бейсен	-12566
▁блогер	-12567
▁допинг	-12568
▁санжар	-12569
▁сериал	-12570
▁синдзо	-12571
▁тандық	-12572
▁шындығ	-12573
▁ясжтшұ	-12574
▁құятын	-12575
▁әлсіре	-12576
▁samsung	-12577
▁артефак	-12578
▁белград	-12579
▁былғары	-12580
▁гепатит	-12581
▁елубаев	-12582
▁кэмерон	-12583
▁минимум	-12584
▁онколог	-12585
▁пианист	-12586
▁тазалығ	-12587
▁тұтыныл	-12588
▁қазхром	-12589
▁әміреев	-12590
▁bolashak	-12591
▁академиг	-12592
▁баянауыл	-12593
▁бейсенбі	-12594
▁боржақты	-12595
▁бәйдібек	-12596
▁жолбарыс	-12597
▁мохаммед	-12598
▁ондығына	-12599
▁тұрақтал	-12600
▁үшжылдық	-12601
▁алтынбаев	-12602
▁заңжобасы	-12603
▁инкубация	-12604
▁кейінірек	-12605
▁роскосмос	-12606
▁сандықтау	-12607
ханбердиева	-12608
▁industries	-12609
▁ерейментау	-12610
▁заңдылығын	-12611
▁күрделіліг	-12612
▁металургия	-12613
▁танымалдығ	-12614
▁транзакция	-12615
▁трансляция	-12616
▁эквивалент	-12617
▁қолайлылығ	-12618
▁ансамблінің	-12619
▁ассортимент	-12620
▁гипермаркет	-12621
▁жасалғандығ	-12622
▁калашникова	-12623
▁картография	-12624
▁политехника	-12625
▁қалмұханбет	-12626
▁қаматамасыз	-12627
▁қоныстандыр	-12628
▁construction	-12629
▁кәсібилендір	-12630
▁энергоресурс	-12631
▁қатысатындық	-12632
▁құрманғалиев	-12633
▁нұрмағамбетов	-12634
▁транспарентті	-12635
▁ынтамақтастық	-12636
▁қатысқандардың	-12637
▁мультимодальдық	-12638
16	-12639
93	-12640
go	-12641
te	-12642
uk	-12643
Вт	-12644
лю	-12645
эы	-12646
ұй	-12647
ada	-12648
aid	-12649
rid	-12650
гаж	-12651
дыл	-12652
зен	-12653
кая	-12654
кею	-12655
оны	-12656
риб	-12657
рик	-12658
тей	-12659
төк	-12660
ули	-12661
хар	-12662
цов	-12663
шот	-12664
імі	-12665
▁Ex	-12666
▁ҚА	-12667
logy	-12668
дері	-12669
джан	-12670
егов	-12671
едия	-12672
екин	-12673
кина	-12674
лиор	-12675
оглу	-12676
отын	-12677
плин	-12678
таст	-12679
убог	-12680
шель	-12681
шсыз	-12682
ысты	-12683
ғыла	-12684
қали	-12685
▁259	-12686
▁284	-12687
▁298	-12688
▁314	-12689
▁327	-12690
▁328	-12691
▁342	-12692
▁396	-12693
▁415	-12694
▁446	-12695
▁505	-12696
▁620	-12697
▁730	-12698
▁760	-12699
▁950	-12700
▁all	-12701
▁aut	-12702
▁cam	-12703
▁ios	-12704
▁Аль	-12705
▁Ақс	-12706
▁Бәс	-12707
▁Мақ	-12708
▁Пан	-12709
▁Таш	-12710
▁Тим	-12711
▁Ток	-12712
▁ЮНИ	-12713
▁дод	-12714
▁жко	-12715
▁жсқ	-12716
▁жфэ	-12717
▁иер	-12718
▁иид	-12719
▁инт	-12720
▁исо	-12721
▁куз	-12722
▁лих	-12723
▁нин	-12724
▁тжк	-12725
▁түт	-12726
▁төк	-12727
▁хак	-12728
▁чар	-12729
▁штр	-12730
erals	-12731
барак	-12732
басов	-12733
данов	-12734
даров	-12735
дікті	-12736
есары	-12737
зауыт	-12738
отроп	-12739
рафия	-12740
ромов	-12741
терге	-12742
ушкин	-12743
цбанк	-12744
▁1942	-12745
▁1944	-12746
▁agro	-12747
▁chev	-12748
▁cola	-12749
▁pisa	-12750
▁Зият	-12751
▁Одағ	-12752
▁аран	-12753
▁бұқа	-12754
▁днеп	-12755
▁кафе	-12756
▁мали	-12757
▁мақс	-12758
▁публ	-12759
▁табл	-12760
▁тегі	-12761
▁тмкк	-12762
▁улан	-12763
▁ысса	-12764
▁яков	-12765
ronics	-12766
rosoft	-12767
алалық	-12768
аманың	-12769
инистё	-12770
керлік	-12771
▁KEGOC	-12772
▁citic	-12773
▁rixos	-12774
▁Татар	-12775
▁Транс	-12776
▁Тұжыр	-12777
▁бахыт	-12778
▁бұқар	-12779
▁вильн	-12780
▁данса	-12781
▁дивид	-12782
▁дулат	-12783
▁кешіг	-12784
▁коста	-12785
▁кэцян	-12786
▁нәсіл	-12787
▁сабах	-12788
▁садық	-12789
▁сарат	-12790
▁север	-12791
▁сезім	-12792
▁сейіл	-12793
▁супер	-12794
▁тамен	-12795
▁текст	-12796
▁түлет	-12797
▁істел	-12798
▁қайна	-12799
▁қария	-12800
▁құдық	-12801
▁үштіл	-12802
▁әралу	-12803
альский	-12804
андатыл	-12805
отропты	-12806
ригация	-12807
сейітов	-12808
цинация	-12809
ымдылық	-12810
▁Бәсеке	-12811
▁ангела	-12812
▁ангола	-12813
▁гранит	-12814
▁иннова	-12815
▁мелиор	-12816
▁меңгер	-12817
▁мәдина	-12818
▁наразы	-12819
▁оқымыс	-12820
▁пагуош	-12821
▁салман	-12822
▁салқын	-12823
▁саулығ	-12824
▁славян	-12825
▁станок	-12826
▁степан	-12827
▁танмен	-12828
▁тарқат	-12829
▁тізгін	-12830
▁төртеу	-12831
▁уәлиев	-12832
▁шыңдал	-12833
▁шұғыла	-12834
▁ысырап	-12835
▁іншісі	-12836
ибуллаев	-12837
▁central	-12838
▁project	-12839
▁tourism	-12840
▁Ташкент	-12841
▁въетнам	-12842
▁ержүрек	-12843
▁еурообл	-12844
▁жарқыра	-12845
▁ибрагим	-12846
▁иғалиев	-12847
▁лотерея	-12848
▁молынан	-12849
▁садықов	-12850
▁эксперт	-12851
▁эритрея	-12852
▁ғаламат	-12853
▁Қасымов	-12854
мұхаметов	-12855
регламент	-12856
құрлықтық	-12857
▁Директор	-12858
▁Электрон	-12859
▁бірталай	-12860
▁госпитал	-12861
▁дереккөз	-12862
▁жылсайын	-12863
▁махамбет	-12864
▁нығайтыл	-12865
▁протокол	-12866
▁сбербанк	-12867
▁формуляр	-12868
▁қаларлық	-12869
ecommended	-12870
▁Конвенция	-12871
▁Татарстан	-12872
▁валентина	-12873
▁гинеколог	-12874
▁дінтанушы	-12875
▁император	-12876
▁имплемент	-12877
▁коллектор	-12878
▁минималды	-12879
▁провайдер	-12880
▁проректор	-12881
▁фискалдық	-12882
▁алтынсарин	-12883
▁арзандатыл	-12884
▁аустрияның	-12885
▁институция	-12886
▁қазақфильм	-12887
▁Түркітілдес	-12888
▁техногендік	-12889
▁фитосанитар	-12890
▁қарқындылығ	-12891
▁қатысуынсыз	-12892
▁аналитикалық	-12893
▁екатеринбург	-12894
▁стоматология	-12895
▁тілдеріндегі	-12896
▁автомагистрал	-12897
▁еурооблигация	-12898
▁Индустриаландыр	-12899
▁секторларындағы	-12900
11	-12901
72	-12902
od	-12903
sh	-12904
yn	-12905
ац	-12906
ое	-12907
рк	-12908
тб	-12909
ыч	-12910
ica	-12911
kyo	-12912
out	-12913
sch	-12914
СЕФ	-12915
асс	-12916
гек	-12917
джа	-12918
дов	-12919
ирт	-12920
шел	-12921
ько	-12922
ілз	-12923
▁IV	-12924
▁ac	-12925
▁gl	-12926
▁sk	-12927
▁Із	-12928
▁Ая	-12929
▁ДИ	-12930
▁Ки	-12931
▁Ко	-12932
▁Ни	-12933
▁ХХ	-12934
▁Эм	-12935
ОСРМ	-12936
алер	-12937
алым	-12938
ашин	-12939
гвай	-12940
гіне	-12941
джиб	-12942
илия	-12943
имас	-12944
инго	-12945
ингх	-12946
оджа	-12947
ольм	-12948
онды	-12949
скоп	-12950
сына	-12951
убок	-12952
уына	-12953
ылды	-12954
ығын	-12955
ілов	-12956
ңқар	-12957
өзек	-12958
▁221	-12959
▁264	-12960
▁304	-12961
▁373	-12962
▁397	-12963
▁402	-12964
▁417	-12965
▁426	-12966
▁435	-12967
▁496	-12968
▁670	-12969
▁686	-12970
▁830	-12971
▁art	-12972
▁tel	-12973
▁ЖЭК	-12974
▁Мит	-12975
▁Сей	-12976
▁ТЖК	-12977
▁Фил	-12978
▁Шав	-12979
▁акс	-12980
▁бра	-12981
▁бут	-12982
▁вик	-12983
▁дек	-12984
▁доб	-12985
▁еад	-12986
▁егі	-12987
▁еке	-12988
▁зан	-12989
▁зағ	-12990
▁инг	-12991
▁кик	-12992
▁кын	-12993
▁лев	-12994
▁лтд	-12995
▁маэ	-12996
▁мүк	-12997
▁наһ	-12998
▁окс	-12999
▁уәж	-13000
▁физ	-13001
▁шая	-13002
▁эпи	-13003
▁эцқ	-13004
▁өрш	-13005
arket	-13006
ering	-13007
амсыз	-13008
бетте	-13009
дарға	-13010
денең	-13011
ерини	-13012
лыққа	-13013
сінің	-13014
терия	-13015
ықтық	-13016
істер	-13017
▁exit	-13018
▁gmbh	-13019
▁high	-13020
▁tech	-13021
▁xiii	-13022
▁Бірі	-13023
▁Гааг	-13024
▁ажар	-13025
▁азиз	-13026
▁андр	-13027
▁заем	-13028
▁зілз	-13029
▁касп	-13030
▁конъ	-13031
▁куан	-13032
▁лығы	-13033
▁обыр	-13034
▁орто	-13035
▁сақа	-13036
▁юань	-13037
assion	-13038
astana	-13039
cation	-13040
ашвили	-13041
бандоз	-13042
курсор	-13043
▁forum	-13044
▁Аймақ	-13045
▁ақжар	-13046
▁бамыз	-13047
▁бөбек	-13048
▁вольт	-13049
▁диагн	-13050
▁дының	-13051
▁еңгіз	-13052
▁зариф	-13053
▁земан	-13054
▁кідір	-13055
▁летін	-13056
▁парам	-13057
▁пейіл	-13058
▁рахат	-13059
▁скала	-13060
▁спека	-13061
▁тмккк	-13062
▁тірег	-13063
▁шымыз	-13064
▁шығыс	-13065
▁ҚОСРМ	-13066
▁Қазір	-13067
▁қамал	-13068
▁үмбет	-13069
▁өткне	-13070
ичкасов	-13071
мыздағы	-13072
орталық	-13073
ындығын	-13074
ғымбаев	-13075
қараған	-13076
▁Бюджет	-13077
▁Дағдар	-13078
▁Египет	-13079
▁Туризм	-13080
▁Шавкат	-13081
▁ЮНИСЕФ	-13082
▁анализ	-13083
▁балқан	-13084
▁баспал	-13085
▁гибрид	-13086
▁дәлдіг	-13087
▁зәуреш	-13088
▁космет	-13089
▁көпбей	-13090
▁ландша	-13091
▁ластар	-13092
▁маргар	-13093
▁молайт	-13094
▁нұқсан	-13095
▁рахман	-13096
▁сардар	-13097
▁сахара	-13098
▁сәпиев	-13099
▁шалдығ	-13100
▁шахтер	-13101
▁Құрман	-13102
▁қышсыз	-13103
▁үйдегі	-13104
▁үшарал	-13105
арлықтай	-13106
хнология	-13107
шабандоз	-13108
▁Варшава	-13109
▁авиатор	-13110
▁албания	-13111
▁зілзала	-13112
▁косарев	-13113
▁көптігі	-13114
▁норимас	-13115
▁позитив	-13116
▁репроду	-13117
▁синхрон	-13118
▁уругвай	-13119
▁уәлихан	-13120
▁ішімдік	-13121
▁қарамай	-13122
▁қорытпа	-13123
▁әлбетте	-13124
▁әрбіреу	-13125
гендіктен	-13126
индустрия	-13127
ілетіндіг	-13128
▁facebook	-13129
▁ботаника	-13130
▁гербицид	-13131
▁григорий	-13132
▁жарақтал	-13133
▁заңжобас	-13134
▁кристиан	-13135
▁көміртек	-13136
▁мұздатыл	-13137
▁нұрабаев	-13138
▁радиатор	-13139
▁тепловоз	-13140
▁технолог	-13141
▁тығыздығ	-13142
▁түйіршік	-13143
▁федераль	-13144
▁шевченко	-13145
▁энергобл	-13146
▁Қазақмыс	-13147
▁қажетсін	-13148
▁microsoft	-13149
▁Вашингтон	-13150
▁автомобил	-13151
▁егіншілік	-13152
▁ирригация	-13153
▁миноритар	-13154
▁нұрғалиев	-13155
▁патология	-13156
▁полковниг	-13157
▁прекурсор	-13158
▁тарасенко	-13159
▁тарататын	-13160
▁шаяхметов	-13161
▁құнанбаев	-13162
коммерцбанк	-13163
▁байжүнісов	-13164
▁баймолдина	-13165
▁мәнмәтінде	-13166
▁орайластыр	-13167
▁топография	-13168
▁фотоэлектр	-13169
▁ҚазАвтоЖол	-13170
▁Кәсіпкерлер	-13171
▁агроөндіріс	-13172
▁айларындағы	-13173
▁асырылуымен	-13174
▁ауданаралық	-13175
▁башқұртстан	-13176
▁бірегейлігі	-13177
▁жарықдиодты	-13178
▁микрокредит	-13179
▁психотропты	-13180
▁сақтандырыл	-13181
▁істейтіндіг	-13182
▁бейбітсүйгіш	-13183
▁белсендендір	-13184
▁кинофестивал	-13185
▁күштеріндегі	-13186
▁антитеррорлық	-13187
▁бүкілқытайлық	-13188
▁кинофестиваль	-13189
▁миллиардтаған	-13190
▁қонақжайлылығ	-13191
▁қонақжайлылық	-13192
▁пенитенциарлық	-13193
▁трансқұрлықтық	-13194
▁долларсыздандыр	-13195
34	-13196
38	-13197
70	-13198
ER	-13199
cl	-13200
РО	-13201
дк	-13202
еа	-13203
уа	-13204
ёр	-13205
ғс	-13206
ҚК	-13207
ӨЗ	-13208
ary	-13209
ier	-13210
ipp	-13211
iss	-13212
let	-13213
sey	-13214
айд	-13215
ауф	-13216
дис	-13217
ерд	-13218
зай	-13219
ива	-13220
инь	-13221
итс	-13222
оле	-13223
пеш	-13224
роз	-13225
уга	-13226
уын	-13227
ікі	-13228
ғап	-13229
▁Дэ	-13230
▁Им	-13231
▁Ми	-13232
▁ви	-13233
▁ля	-13234
iano	-13235
into	-13236
news	-13237
omad	-13238
roid	-13239
адат	-13240
ардо	-13241
арин	-13242
даят	-13243
динг	-13244
елла	-13245
елов	-13246
және	-13247
идзе	-13248
ицит	-13249
тель	-13250
фина	-13251
ходж	-13252
ығыр	-13253
ұрат	-13254
▁249	-13255
▁261	-13256
▁279	-13257
▁338	-13258
▁339	-13259
▁348	-13260
▁405	-13261
▁431	-13262
▁443	-13263
▁445	-13264
▁468	-13265
▁506	-13266
▁880	-13267
▁akt	-13268
▁eco	-13269
▁ruh	-13270
▁sch	-13271
▁sec	-13272
▁web	-13273
▁Щуч	-13274
▁буш	-13275
▁дис	-13276
▁дой	-13277
▁дрк	-13278
▁зам	-13279
▁ибн	-13280
▁иле	-13281
▁ине	-13282
▁лоу	-13283
▁пап	-13284
▁сой	-13285
▁тдұ	-13286
▁чун	-13287
▁қыт	-13288
▁өре	-13289
алдыр	-13290
бағат	-13291
бағыт	-13292
дарын	-13293
ичпен	-13294
матов	-13295
пақшы	-13296
перов	-13297
самит	-13298
сарай	-13299
стығы	-13300
хабар	-13301
қалам	-13302
▁2200	-13303
▁4500	-13304
▁VIII	-13305
▁afsa	-13306
▁fair	-13307
▁mast	-13308
▁Ақыл	-13309
▁ДИАҚ	-13310
▁алан	-13311
▁балх	-13312
▁бұлж	-13313
▁даиш	-13314
▁диод	-13315
▁кран	-13316
▁лаға	-13317
▁лесу	-13318
▁мини	-13319
▁моло	-13320
▁плюс	-13321
▁терм	-13322
▁тони	-13323
▁трот	-13324
▁эрик	-13325
▁құрт	-13326
arning	-13327
абаева	-13328
амашев	-13329
ақанов	-13330
дияров	-13331
дәулет	-13332
енбург	-13333
жанұлы	-13334
рекция	-13335
тайұлы	-13336
талған	-13337
теріне	-13338
ульфия	-13339
ұратов	-13340
▁nomad	-13341
▁soyle	-13342
▁times	-13343
▁Болат	-13344
▁Спорт	-13345
▁Филип	-13346
▁агрос	-13347
▁арқан	-13348
▁багаж	-13349
▁байыр	-13350
▁бақты	-13351
▁гіден	-13352
▁доғар	-13353
▁жарығ	-13354
▁жусан	-13355
▁жүйке	-13356
▁жәшік	-13357
▁кенет	-13358
▁кішіг	-13359
▁нұрлы	-13360
▁поезд	-13361
▁прага	-13362
▁рауан	-13363
▁рақым	-13364
▁соқпа	-13365
▁сынағ	-13366
▁тадым	-13367
▁тайип	-13368
▁танға	-13369
▁тоңаз	-13370
▁түрік	-13371
▁фишер	-13372
▁шамен	-13373
▁шекке	-13374
▁қалам	-13375
▁қорап	-13376
▁қорек	-13377
▁өшпес	-13378
ақпарат	-13379
бағатай	-13380
дағыдай	-13381
дегідей	-13382
кадемия	-13383
рекбаев	-13384
тарының	-13385
уттонен	-13386
ылдырық	-13387
іленген	-13388
ғажайып	-13389
өңірлік	-13390
▁google	-13391
▁travel	-13392
▁Фараби	-13393
▁абдель	-13394
▁аспект	-13395
▁биоалу	-13396
▁біздің	-13397
▁градус	-13398
▁жандос	-13399
▁жемшөп	-13400
▁зайсан	-13401
▁иордан	-13402
▁келген	-13403
▁ланбақ	-13404
▁леонид	-13405
▁мансаб	-13406
▁молдағ	-13407
▁мәртөк	-13408
▁наджиб	-13409
▁пейтін	-13410
▁публиц	-13411
▁родина	-13412
▁сайлан	-13413
▁сайран	-13414
▁сақина	-13415
▁стивен	-13416
▁таргет	-13417
▁тастың	-13418
▁фашист	-13419
▁шатқал	-13420
▁шақтар	-13421
▁қошқар	-13422
азахстан	-13423
азақстан	-13424
баеваның	-13425
дәулетов	-13426
жинақбан	-13427
ченконың	-13428
іксіздіг	-13429
▁android	-13430
▁Бахрейн	-13431
▁ЕурАзЭҚ	-13432
▁Таиланд	-13433
▁архимед	-13434
▁берекет	-13435
▁диагноз	-13436
▁егістіг	-13437
▁есепшот	-13438
▁жасұлан	-13439
▁жағдаят	-13440
▁империя	-13441
▁квартал	-13442
▁мұхамет	-13443
▁мәселел	-13444
▁танатын	-13445
▁тельнов	-13446
▁түзетіл	-13447
▁ұзартыл	-13448
инновация	-13449
ференциал	-13450
▁Түркімен	-13451
▁Школьник	-13452
▁бауырмал	-13453
▁дьяченко	-13454
▁жатқызыл	-13455
▁зимбабве	-13456
▁кенесары	-13457
▁көлденең	-13458
▁могерини	-13459
▁нұрғожин	-13460
▁онжылдығ	-13461
▁палестин	-13462
▁радиолог	-13463
▁сейсенбі	-13464
▁сонынмен	-13465
▁табалдыр	-13466
▁қабылдан	-13467
▁қалпында	-13468
▁қуанышев	-13469
▁өскендіг	-13470
атындықтан	-13471
▁ашаршылық	-13472
▁бақтықожа	-13473
▁белорусия	-13474
▁бұлжытпай	-13475
▁индикатив	-13476
▁конференц	-13477
▁кішігірім	-13478
▁педиатрия	-13479
▁самарқанд	-13480
▁сидорский	-13481
▁қазфосфат	-13482
▁бельгиялық	-13483
▁вакцинация	-13484
▁ескендіров	-13485
▁көпбейінді	-13486
▁орнықтылығ	-13487
▁садуақасов	-13488
▁тауарайнал	-13489
▁әбибуллаев	-13490
▁гинекология	-13491
▁инклюзивтік	-13492
▁мемлекеттіг	-13493
▁ұмытпауымыз	-13494
▁әбдікәрімов	-13495
▁бейілділігін	-13496
▁велошабандоз	-13497
▁техрегламент	-13498
▁имплементация	-13499
▁капиталдандыр	-13500
▁фитосанитария	-13501
▁қысқамерзімді	-13502
▁қамсыздандырыл	-13503
13	-13504
26	-13505
ti	-13506
ЕК	-13507
ач	-13508
гм	-13509
жқ	-13510
мп	-13511
ну	-13512
are	-13513
min	-13514
oca	-13515
xon	-13516
адж	-13517
ари	-13518
гас	-13519
гиз	-13520
мын	-13521
нда	-13522
ные	-13523
оля	-13524
они	-13525
оға	-13526
ғақ	-13527
▁Al	-13528
▁id	-13529
▁if	-13530
▁Ын	-13531
▁ся	-13532
arma	-13533
oody	-13534
алли	-13535
аушы	-13536
епеч	-13537
епов	-13538
заев	-13539
иджи	-13540
иско	-13541
каль	-13542
кере	-13543
киев	-13544
кинг	-13545
мади	-13546
осин	-13547
отор	-13548
пель	-13549
тран	-13550
усин	-13551
▁239	-13552
▁247	-13553
▁349	-13554
▁359	-13555
▁362	-13556
▁364	-13557
▁368	-13558
▁390	-13559
▁409	-13560
▁447	-13561
▁448	-13562
▁453	-13563
▁454	-13564
▁457	-13565
▁458	-13566
▁525	-13567
▁547	-13568
▁555	-13569
▁615	-13570
▁925	-13571
▁940	-13572
▁hub	-13573
▁lrt	-13574
▁roy	-13575
▁sky	-13576
▁val	-13577
▁Гум	-13578
▁ЖЭС	-13579
▁Мах	-13580
▁биб	-13581
▁вид	-13582
▁дип	-13583
▁жсн	-13584
▁куч	-13585
▁кіш	-13586
▁мён	-13587
▁реф	-13588
▁рик	-13589
▁рос	-13590
▁смт	-13591
▁сом	-13592
▁Қаб	-13593
▁Қау	-13594
▁әже	-13595
insey	-13596
алады	-13597
ашева	-13598
ашина	-13599
домин	-13600
еттік	-13601
зақов	-13602
инмен	-13603
ископ	-13604
лерді	-13605
онанс	-13606
рахим	-13607
теген	-13608
тілді	-13609
унмен	-13610
ындап	-13611
энерг	-13612
қыныш	-13613
▁mits	-13614
▁Бюро	-13615
▁Джон	-13616
▁азот	-13617
▁асар	-13618
▁ахат	-13619
▁ақты	-13620
▁бата	-13621
▁даты	-13622
▁джав	-13623
▁еріт	-13624
▁жамб	-13625
▁жапа	-13626
▁жұмс	-13627
▁клуж	-13628
▁кокс	-13629
▁кқко	-13630
▁ланы	-13631
▁мари	-13632
▁мерт	-13633
▁ныға	-13634
▁олай	-13635
▁пьер	-13636
▁спақ	-13637
▁суль	-13638
▁сыни	-13639
▁тдұа	-13640
▁шань	-13641
▁экот	-13642
▁эпиз	-13643
▁қора	-13644
▁әзиз	-13645
istory	-13646
алапан	-13647
байлан	-13648
керліг	-13649
коптер	-13650
лықақы	-13651
рессор	-13652
сенбай	-13653
ынының	-13654
ычкова	-13655
эпопея	-13656
қанұлы	-13657
▁fitch	-13658
▁ДИАҚБ	-13659
▁Дауыл	-13660
▁Патри	-13661
▁ангус	-13662
▁бигел	-13663
▁бұрыл	-13664
▁герте	-13665
▁декор	-13666
▁зареч	-13667
▁кения	-13668
▁керін	-13669
▁кумар	-13670
▁лабын	-13671
▁ласып	-13672
▁леніс	-13673
▁мақат	-13674
▁надеж	-13675
▁накао	-13676
▁полюс	-13677
▁строй	-13678
▁сынал	-13679
▁сыған	-13680
▁сқаны	-13681
▁сүйре	-13682
▁сұйыл	-13683
▁сұрал	-13684
▁табиғ	-13685
▁қасым	-13686
▁құрам	-13687
▁Әлиев	-13688
▁өзгер	-13689
андығын	-13690
аппарат	-13691
аруссия	-13692
атагент	-13693
батыров	-13694
имбаева	-13695
▁center	-13696
▁Монако	-13697
▁ТүркПА	-13698
▁Шөкеев	-13699
▁баллон	-13700
▁балғын	-13701
▁басқын	-13702
▁болжам	-13703
▁бруней	-13704
▁галина	-13705
▁громов	-13706
▁драмат	-13707
▁жиіліг	-13708
▁лайчак	-13709
▁магний	-13710
▁ментал	-13711
▁минист	-13712
▁митинг	-13713
▁наһаян	-13714
▁талқыл	-13715
▁торғай	-13716
▁тіптен	-13717
▁тірлік	-13718
▁фортеп	-13719
▁іскери	-13720
▁қаптал	-13721
▁қолхат	-13722
▁қонаев	-13723
▁әбенов	-13724
▁әзірет	-13725
▁өтеген	-13726
етаньяху	-13727
жановтың	-13728
окоманда	-13729
самитный	-13730
теграция	-13731
формация	-13732
хановтың	-13733
▁digital	-13734
▁Балапан	-13735
▁Кулагин	-13736
▁Оспанов	-13737
▁аграрий	-13738
▁агромаш	-13739
▁альтерн	-13740
▁бахтияр	-13741
▁демеуов	-13742
▁егінжай	-13743
▁еуропар	-13744
▁жаратыл	-13745
▁каталог	-13746
▁конверт	-13747
▁көтерің	-13748
▁майкеев	-13749
▁мередов	-13750
▁нұрышев	-13751
▁сепарат	-13752
▁тротуар	-13753
▁федотов	-13754
▁эмблема	-13755
▁ізбасар	-13756
▁ілиясов	-13757
▁інділер	-13758
▁learning	-13759
▁Ирландия	-13760
▁Мемхатшы	-13761
▁бакалавр	-13762
▁біздіңше	-13763
▁жиенбаев	-13764
▁композит	-13765
▁контекст	-13766
▁ландшафт	-13767
▁момышұлы	-13768
▁мұстафин	-13769
▁патронат	-13770
▁резонанс	-13771
▁сезімтал	-13772
▁сейсмика	-13773
▁сәрсенов	-13774
▁текстиль	-13775
▁тоқтатпа	-13776
▁қорқыныш	-13777
▁қылқалам	-13778
▁өзгертіл	-13779
▁өнідіріс	-13780
серватория	-13781
▁education	-13782
▁transport	-13783
▁Дауылбаев	-13784
▁Достастығ	-13785
▁абдулазиз	-13786
▁жақсалиев	-13787
▁икемділіг	-13788
▁иманқұлов	-13789
▁коррекция	-13790
▁мүсірепов	-13791
▁сыйлықақы	-13792
▁франкфурт	-13793
▁Құсайынов	-13794
▁ұмытылмас	-13795
▁әкімшілік	-13796
▁аппаратура	-13797
▁киноэпопея	-13798
▁лаврентьев	-13799
▁микроқаржы	-13800
▁насихаттал	-13801
▁радикализм	-13802
▁радостовец	-13803
▁салааралық	-13804
▁таиландтың	-13805
▁таңғажайып	-13806
▁түпқараған	-13807
▁штайнмайер	-13808
▁қуантарлық	-13809
▁қуанышбаев	-13810
▁engineering	-13811
▁біріздендір	-13812
▁велокоманда	-13813
▁интервенция	-13814
▁превентивті	-13815
▁сирияаралық	-13816
▁қоректендір	-13817
▁әбдірахымов	-13818
▁еңбекшіқазақ	-13819
▁жетімділігін	-13820
▁танымалдылығ	-13821
▁телемедицина	-13822
▁құзыреттіліг	-13823
▁еуропарламент	-13824
▁офтальмология	-13825
▁тауарөндіруші	-13826
▁цифрландыруды	-13827
▁жеткіліксіздіг	-13828
35	-13829
ie	-13830
si	-13831
ЗҚ	-13832
КК	-13833
ММ	-13834
кх	-13835
хз	-13836
ца	-13837
Sat	-13838
ain	-13839
ber	-13840
ces	-13841
ial	-13842
low	-13843
orm	-13844
per	-13845
ton	-13846
ами	-13847
дег	-13848
дик	-13849
евр	-13850
ийн	-13851
итр	-13852
ифр	-13853
кас	-13854
кка	-13855
лақ	-13856
мур	-13857
няк	-13858
трк	-13859
фть	-13860
хоз	-13861
чик	-13862
шад	-13863
шіл	-13864
інң	-13865
ғзи	-13866
қыс	-13867
▁il	-13868
▁sw	-13869
▁th	-13870
▁up	-13871
▁Пл	-13872
▁аю	-13873
▁во	-13874
▁ну	-13875
▁тэ	-13876
emen	-13877
line	-13878
амақ	-13879
даяқ	-13880
жина	-13881
лтан	-13882
обақ	-13883
овка	-13884
олов	-13885
олок	-13886
оним	-13887
стас	-13888
усал	-13889
фейс	-13890
шкин	-13891
шұлы	-13892
ький	-13893
ютте	-13894
ігүл	-13895
іңгі	-13896
ұлын	-13897
▁231	-13898
▁251	-13899
▁291	-13900
▁307	-13901
▁371	-13902
▁384	-13903
▁385	-13904
▁386	-13905
▁399	-13906
▁455	-13907
▁462	-13908
▁476	-13909
▁515	-13910
▁517	-13911
▁518	-13912
▁552	-13913
▁622	-13914
▁737	-13915
▁787	-13916
▁806	-13917
▁gps	-13918
▁tot	-13919
▁Бор	-13920
▁Ере	-13921
▁Лав	-13922
▁Мат	-13923
▁Рог	-13924
▁Рож	-13925
▁Ром	-13926
▁Тең	-13927
▁аут	-13928
▁гав	-13929
▁дең	-13930
▁дже	-13931
▁иса	-13932
▁коп	-13933
▁ктк	-13934
▁най	-13935
▁неф	-13936
▁нзм	-13937
▁раш	-13938
▁рел	-13939
▁рмм	-13940
▁рқб	-13941
▁өрб	-13942
lines	-13943
актив	-13944
аньян	-13945
атырь	-13946
дмила	-13947
ертті	-13948
ибути	-13949
ионер	-13950
ипова	-13951
ирмер	-13952
ицкий	-13953
марал	-13954
ограм	-13955
олдас	-13956
оневр	-13957
пенко	-13958
редер	-13959
серке	-13960
тымақ	-13961
тілеу	-13962
ымдық	-13963
ыржан	-13964
іртке	-13965
құдық	-13966
▁coun	-13967
▁deve	-13968
▁euro	-13969
▁http	-13970
▁post	-13971
▁Атал	-13972
▁Киев	-13973
▁НАТО	-13974
▁Орын	-13975
▁Таби	-13976
▁амин	-13977
▁араз	-13978
▁ваку	-13979
▁гана	-13980
▁дмит	-13981
▁доха	-13982
▁исат	-13983
▁кеақ	-13984
▁клод	-13985
▁крав	-13986
▁лете	-13987
▁нұрс	-13988
▁озат	-13989
▁осло	-13990
▁пром	-13991
▁рада	-13992
▁рига	-13993
▁сарт	-13994
▁сиси	-13995
▁стол	-13996
▁сүре	-13997
▁хосе	-13998
▁шелл	-13999
▁ының	-14000
▁қсзи	-14001
▁қылы	-14002
▁үсен	-14003
ources	-14004
даяқов	-14005
дыбаев	-14006
иминал	-14007
инвест	-14008
кенұлы	-14009
ленген	-14010
стығын	-14011
ыметов	-14012
ғыстау	-14013
қастан	-14014
қышқыл	-14015
▁tokyo	-14016
▁Корей	-14017
▁Кубог	-14018
▁Туған	-14019
▁алмас	-14020
▁ақжай	-14021
▁балмұ	-14022
▁велот	-14023
▁гінің	-14024
▁дамен	-14025
▁екпен	-14026
▁жаңыл	-14027
▁зығыр	-14028
▁казах	-14029
▁конго	-14030
▁кәріп	-14031
▁көрік	-14032
▁лукин	-14033
▁мүфти	-14034
▁нөгер	-14035
▁образ	-14036
▁ортағ	-14037
▁пауэр	-14038
▁ресур	-14039
▁сиань	-14040
▁тедім	-14041
▁толға	-14042
▁төлеу	-14043
▁қобыз	-14044
▁өлтір	-14045
андықов	-14046
болатов	-14047
дібеков	-14048
дігімен	-14049
кішілер	-14050
ларынша	-14051
отандық	-14052
спанова	-14053
чевский	-14054
электро	-14055
юнктура	-14056
імбаева	-14057
▁Ангела	-14058
▁Рахмон	-14059
▁альпин	-14060
▁бейнет	-14061
▁бобров	-14062
▁даннан	-14063
▁жабайы	-14064
▁жалпыр	-14065
▁жүгірт	-14066
▁ибраев	-14067
▁исмаил	-14068
▁кердік	-14069
▁көкпар	-14070
▁көркею	-14071
▁маржан	-14072
▁маршал	-14073
▁массив	-14074
▁махмұд	-14075
▁натрий	-14076
▁небары	-14077
▁суарыл	-14078
▁таразы	-14079
▁тоталь	-14080
▁трафиг	-14081
▁тренер	-14082
▁фашизм	-14083
▁фелипе	-14084
▁фитнес	-14085
▁шетіне	-14086
▁шылдық	-14087
▁шырқал	-14088
▁экпорт	-14089
▁әшкере	-14090
авигация	-14091
▁Баталов	-14092
▁Молдова	-14093
▁Техника	-14094
▁анықтам	-14095
▁бозбала	-14096
▁газпром	-14097
▁гасанов	-14098
▁евразия	-14099
▁зульфия	-14100
▁инертті	-14101
▁кемежай	-14102
▁күрішке	-14103
▁көркейт	-14104
▁людмила	-14105
▁маэстро	-14106
▁нигерия	-14107
▁обьекті	-14108
▁отағасы	-14109
▁паркинг	-14110
▁портрет	-14111
▁травмат	-14112
▁фактура	-14113
▁франсуа	-14114
▁ғибадат	-14115
▁қиындығ	-14116
▁Әділбек	-14117
▁eurasian	-14118
▁Будапешт	-14119
▁Мирзиёев	-14120
▁Ошақбаев	-14121
▁бергенде	-14122
▁герцегов	-14123
▁дженерал	-14124
▁жоғарлат	-14125
▁исландия	-14126
▁камбоджа	-14127
▁кредитор	-14128
▁маслихат	-14129
▁машинист	-14130
▁мелдешов	-14131
▁министір	-14132
▁мәлімдел	-14133
▁нақтылығ	-14134
▁парагвай	-14135
▁суреттел	-14136
▁шақыртыл	-14137
▁ыстанбұл	-14138
▁ілгерлет	-14139
▁өткнедей	-14140
манғалиева	-14141
▁Статагент	-14142
▁автозауыт	-14143
▁доминикан	-14144
▁дүйсебаев	-14145
▁екатерина	-14146
▁жатқандық	-14147
▁жақынырақ	-14148
▁көтеріңкі	-14149
▁нысанбаев	-14150
▁оразбақов	-14151
▁ортақтығы	-14152
▁психоневр	-14153
▁символика	-14154
▁учаскелер	-14155
▁management	-14156
▁айқындығын	-14157
▁біріктіріл	-14158
▁жеңілдетіл	-14159
▁жылсайынғы	-14160
▁компрессор	-14161
▁мұхитдинов	-14162
▁неврология	-14163
▁немқұрайлы	-14164
▁табалдырығ	-14165
▁танкішілер	-14166
▁тарбағатай	-14167
▁төмендетіл	-14168
▁киберқылмыс	-14169
▁конъюнктура	-14170
▁министріліг	-14171
▁рахымбекова	-14172
▁электоралды	-14173
▁қонақжайлығ	-14174
▁әбілқасымов	-14175
▁Бүкіләлемдік	-14176
▁белсенділету	-14177
▁бірегейлігін	-14178
▁жалпықалалық	-14179
▁жатқанымызды	-14180
▁кинематограф	-14181
▁обсерватория	-14182
▁ілгерілендір	-14183
▁автоөнеркәсіп	-14184
▁бітімгершілер	-14185
▁казахстанская	-14186
▁агромашхолдинг	-14187
▁бердымұхамедов	-14188
▁залалсыздандыр	-14189
▁учаскелеріндегі	-14190
▁әкімшіліктендір	-14191
48	-14192
aw	-14193
ev	-14194
ry	-14195
ss	-14196
to	-14197
ЭФ	-14198
гл	-14199
дв	-14200
яс	-14201
ano	-14202
lop	-14203
ond	-14204
ord	-14205
tan	-14206
wer	-14207
абы	-14208
гео	-14209
ени	-14210
еур	-14211
жау	-14212
жев	-14213
жұм	-14214
ибр	-14215
иче	-14216
мез	-14217
муд	-14218
мың	-14219
мәр	-14220
неж	-14221
оно	-14222
отт	-14223
пас	-14224
реб	-14225
роф	-14226
тес	-14227
тия	-14228
топ	-14229
тұм	-14230
улу	-14231
хен	-14232
шал	-14233
ығу	-14234
ҚДБ	-14235
қтш	-14236
▁aw	-14237
▁bb	-14238
▁fi	-14239
▁ic	-14240
▁kn	-14241
▁uk	-14242
▁wi	-14243
▁zh	-14244
▁ДБ	-14245
▁иа	-14246
▁мэ	-14247
▁ул	-14248
▁ча	-14249
▁ҚС	-14250
veco	-14251
амыр	-14252
деше	-14253
евед	-14254
екөл	-14255
здақ	-14256
илық	-14257
ктил	-14258
лаев	-14259
ларк	-14260
леді	-14261
манд	-14262
мбез	-14263
овод	-14264
опар	-14265
орта	-14266
план	-14267
пова	-14268
ссен	-14269
стин	-14270
угал	-14271
цзян	-14272
юань	-14273
яның	-14274
ңгей	-14275
▁246	-14276
▁297	-14277
▁319	-14278
▁353	-14279
▁357	-14280
▁366	-14281
▁376	-14282
▁383	-14283
▁388	-14284
▁423	-14285
▁437	-14286
▁456	-14287
▁474	-14288
▁537	-14289
▁563	-14290
▁578	-14291
▁619	-14292
▁665	-14293
▁783	-14294
▁Air	-14295
▁gat	-14296
▁Вас	-14297
▁Дав	-14298
▁Кам	-14299
▁Код	-14300
▁Көп	-14301
▁Мак	-14302
▁МӨЗ	-14303
▁Нах	-14304
▁Сәт	-14305
▁Тын	-14306
▁ХХІ	-14307
▁Эйр	-14308
▁алл	-14309
▁амф	-14310
▁апп	-14311
▁бег	-14312
▁дун	-14313
▁жон	-14314
▁иир	-14315
▁кай	-14316
▁луи	-14317
▁мөр	-14318
▁туа	-14319
▁тши	-14320
▁тэц	-14321
▁фал	-14322
▁фах	-14323
▁флю	-14324
▁шел	-14325
▁юсу	-14326
▁ҚМГ	-14327
▁Қаш	-14328
▁құя	-14329
арұлы	-14330
валов	-14331
еспен	-14332
етаев	-14333
ешков	-14334
жайын	-14335
изион	-14336
ирант	-14337
ленов	-14338
лілік	-14339
махан	-14340
обыль	-14341
окрин	-14342
піров	-14343
рибут	-14344
сатом	-14345
тегия	-14346
тегін	-14347
тірек	-14348
шакөл	-14349
ыбаев	-14350
іткіл	-14351
ғырық	-14352
қайыр	-14353
▁1350	-14354
▁1414	-14355
▁6000	-14356
▁coca	-14357
▁rail	-14358
▁Есеп	-14359
▁Жақс	-14360
▁Стат	-14361
▁Цифр	-14362
▁Эксп	-14363
▁арка	-14364
▁ағым	-14365
▁байқ	-14366
▁бүге	-14367
▁бөге	-14368
▁вади	-14369
▁джак	-14370
▁еадб	-14371
▁еден	-14372
▁игил	-14373
▁колл	-14374
▁ктік	-14375
▁кәык	-14376
▁марг	-14377
▁мист	-14378
▁мәди	-14379
▁рапс	-14380
▁смир	-14381
▁снпс	-14382
▁хлор	-14383
▁яқтш	-14384
▁ұйқы	-14385
▁өсаб	-14386
logies	-14387
алифор	-14388
баевқа	-14389
бердин	-14390
гиялық	-14391
дестіг	-14392
идолла	-14393
коньер	-14394
лібаев	-14395
манова	-14396
оркинг	-14397
орсинг	-14398
осфера	-14399
тығына	-14400
урация	-14401
ғыстан	-14402
▁bnews	-14403
▁iveco	-14404
▁point	-14405
▁royal	-14406
▁total	-14407
▁Абдал	-14408
▁Бейне	-14409
▁Режеп	-14410
▁Токио	-14411
▁аздығ	-14412
▁амано	-14413
▁ашраф	-14414
▁балға	-14415
▁бұнда	-14416
▁ворон	-14417
▁гольф	-14418
▁дамығ	-14419
▁детке	-14420
▁жетіс	-14421
▁жолай	-14422
▁кабул	-14423
▁керри	-14424
▁көксу	-14425
▁линза	-14426
▁мәзір	-14427
▁саран	-14428
▁себет	-14429
▁сыңай	-14430
▁шіден	-14431
▁ғажап	-14432
▁Қызыл	-14433
▁қосат	-14434
▁өрбіт	-14435
альдика	-14436
андалық	-14437
андылығ	-14438
арышкин	-14439
аторлар	-14440
дігінің	-14441
епечина	-14442
иология	-14443
кокашин	-14444
лерінше	-14445
ыпакова	-14446
▁Ереван	-14447
▁Талғат	-14448
▁атлант	-14449
▁бектүр	-14450
▁бұзақы	-14451
▁геотер	-14452
▁дактил	-14453
▁европа	-14454
▁ендеше	-14455
▁концла	-14456
▁көріне	-14457
▁мағжан	-14458
▁монарх	-14459
▁оқулығ	-14460
▁протон	-14461
▁реабил	-14462
▁тындыр	-14463
▁шаруаш	-14464
▁Құрбан	-14465
▁қаймақ	-14466
▁қайғыр	-14467
▁өкімет	-14468
материал	-14469
олокация	-14470
▁connect	-14471
▁develop	-14472
▁Жаңғырт	-14473
▁Тегеран	-14474
▁Эмомали	-14475
▁алимент	-14476
▁атрибут	-14477
▁байырғы	-14478
▁бекенов	-14479
▁бибігүл	-14480
▁вильнюс	-14481
▁горький	-14482
▁досанов	-14483
▁еврохим	-14484
▁заманау	-14485
▁кавалер	-14486
▁мануэль	-14487
▁мағауов	-14488
▁механик	-14489
▁надежда	-14490
▁пилотаж	-14491
▁саратов	-14492
▁соколов	-14493
▁тығырық	-14494
▁эмиссия	-14495
▁қаратал	-14496
▁қожайын	-14497
▁үстіңгі	-14498
алифорния	-14499
▁mckinsey	-14500
▁Академия	-14501
▁Ахметжан	-14502
▁Есентаев	-14503
▁Еуроодақ	-14504
▁Петербор	-14505
▁аспирант	-14506
▁бейбарыс	-14507
▁бозшакөл	-14508
▁бухарест	-14509
▁демократ	-14510
▁дивизион	-14511
▁есентаев	-14512
▁жалпыком	-14513
▁жылдарғы	-14514
▁жүктіліг	-14515
▁иванович	-14516
▁кондомин	-14517
▁нұржанов	-14518
▁обаманың	-14519
▁оренбург	-14520
▁раваньян	-14521
▁ресімдел	-14522
▁соғұрлым	-14523
▁сүрінбей	-14524
▁сәйденов	-14525
▁сәрсенбі	-14526
▁татулығы	-14527
▁түйіткіл	-14528
▁тұяқбаев	-14529
▁уылдырық	-14530
▁хиросима	-14531
▁шегіртке	-14532
▁шорманов	-14533
▁шымбұлақ	-14534
▁эндокрин	-14535
▁үндестір	-14536
етіндіктен	-14537
фрақұрылым	-14538
▁Ерімбетов	-14539
▁Рождество	-14540
▁балмұздақ	-14541
▁баспалдақ	-14542
▁бланкілер	-14543
▁браконьер	-14544
▁жақындығы	-14545
▁киберқылм	-14546
▁королінің	-14547
▁күрішбаев	-14548
▁мұсаханов	-14549
▁республик	-14550
▁сарекенов	-14551
▁станислав	-14552
▁стартегия	-14553
▁қалдаяқов	-14554
▁құқықтану	-14555
▁әбдірайым	-14556
спубликалық	-14557
▁айдарбеков	-14558
▁айқындылығ	-14559
▁бірегейліг	-14560
▁васильевич	-14561
▁геоақпарат	-14562
▁геральдика	-14563
▁демаркация	-14564
▁жүнісбеков	-14565
▁мұхамеджан	-14566
▁реанимация	-14567
▁реформатор	-14568
▁энергоблок	-14569
▁үштілділік	-14570
▁Лоссерталес	-14571
▁автотасымал	-14572
▁кешіктірмей	-14573
▁контртеррор	-14574
▁көріктендір	-14575
▁репродуктор	-14576
▁шабыттандыр	-14577
▁қойылғандығ	-14578
▁Ізмұхамбетов	-14579
▁алаңдаушылығ	-14580
▁ауызбіршілік	-14581
▁дифференциал	-14582
▁партияаралық	-14583
▁бейнематериал	-14584
▁суханбердиева	-14585
▁консервіленген	-14586
▁құнанбайұлының	-14587
▁өркениетаралық	-14588
18	-14589
60	-14590
BA	-14591
bi	-14592
ks	-14593
uf	-14594
АК	-14595
ДП	-14596
ЭА	-14597
аф	-14598
кқ	-14599
оа	-14600
оэ	-14601
пқ	-14602
цо	-14603
чж	-14604
eam	-14605
eco	-14606
ika	-14607
way	-14608
аро	-14609
арь	-14610
бой	-14611
бур	-14612
гег	-14613
еза	-14614
енс	-14615
ери	-14616
зол	-14617
ими	-14618
инж	-14619
лап	-14620
нел	-14621
нич	-14622
оми	-14623
оро	-14624
рия	-14625
сик	-14626
тил	-14627
цек	-14628
шай	-14629
шнл	-14630
шті	-14631
ынд	-14632
▁at	-14633
▁bl	-14634
▁da	-14635
▁gr	-14636
▁jp	-14637
▁qs	-14638
▁Кн	-14639
▁Эт	-14640
▁жм	-14641
▁жы	-14642
▁сс	-14643
▁әп	-14644
awei	-14645
loom	-14646
sult	-14647
адий	-14648
айын	-14649
атур	-14650
ашов	-14651
бриг	-14652
джид	-14653
етта	-14654
зода	-14655
имул	-14656
итур	-14657
коны	-14658
лады	-14659
лева	-14660
нияз	-14661
озеф	-14662
орра	-14663
ошин	-14664
тарт	-14665
церт	-14666
шысы	-14667
ылып	-14668
ықпа	-14669
ықты	-14670
▁305	-14671
▁323	-14672
▁367	-14673
▁401	-14674
▁403	-14675
▁411	-14676
▁416	-14677
▁421	-14678
▁439	-14679
▁444	-14680
▁461	-14681
▁464	-14682
▁489	-14683
▁508	-14684
▁523	-14685
▁532	-14686
▁535	-14687
▁598	-14688
▁645	-14689
▁660	-14690
▁702	-14691
▁705	-14692
▁817	-14693
▁916	-14694
▁920	-14695
▁929	-14696
▁980	-14697
▁cis	-14698
▁gmp	-14699
▁ksp	-14700
▁rio	-14701
▁san	-14702
▁sat	-14703
▁sos	-14704
▁Ана	-14705
▁Анд	-14706
▁Ашы	-14707
▁Газ	-14708
▁Жүн	-14709
▁Саб	-14710
▁ТЖД	-14711
▁бид	-14712
▁вах	-14713
▁вит	-14714
▁гус	-14715
▁дуа	-14716
▁дуб	-14717
▁есп	-14718
▁кит	-14719
▁киш	-14720
▁кұр	-14721
▁көң	-14722
▁лег	-14723
▁луг	-14724
▁лун	-14725
▁нки	-14726
▁пос	-14727
▁сса	-14728
▁уфа	-14729
▁чок	-14730
▁шеб	-14731
▁шеп	-14732
▁шқм	-14733
▁іро	-14734
▁Қан	-14735
▁өдм	-14736
etall	-14737
techn	-14738
андин	-14739
атика	-14740
босын	-14741
герел	-14742
дартс	-14743
дуард	-14744
икасы	-14745
ильям	-14746
каның	-14747
масын	-14748
ортаж	-14749
сақов	-14750
сүгір	-14751
талар	-14752
талды	-14753
төгіс	-14754
форум	-14755
шымыз	-14756
ьяров	-14757
қалып	-14758
құбыр	-14759
▁1978	-14760
▁1987	-14761
▁1988	-14762
▁3500	-14763
▁Заид	-14764
▁Слов	-14765
▁асси	-14766
▁байы	-14767
▁берг	-14768
▁буль	-14769
▁вест	-14770
▁гкал	-14771
▁диас	-14772
▁дыны	-14773
▁егіз	-14774
▁еділ	-14775
▁елеу	-14776
▁енча	-14777
▁жанқ	-14778
▁отша	-14779
▁пмхз	-14780
▁помп	-14781
▁ртрк	-14782
▁саак	-14783
▁сейм	-14784
▁синт	-14785
▁синь	-14786
▁смит	-14787
▁сүті	-14788
▁сұлы	-14789
▁тары	-14790
▁тбуб	-14791
▁тулл	-14792
▁хазб	-14793
▁хайн	-14794
▁хост	-14795
▁чинг	-14796
▁шорт	-14797
▁шэнь	-14798
▁юрис	-14799
▁ғышы	-14800
▁Қуан	-14801
▁қаты	-14802
▁қхкп	-14803
▁Әлім	-14804
адыбыс	-14805
атлант	-14806
атынас	-14807
аубаев	-14808
бандал	-14809
бастау	-14810
берлин	-14811
дыағаш	-14812
екешов	-14813
кіндік	-14814
ополия	-14815
термен	-14816
тигент	-14817
усалим	-14818
ысының	-14819
▁Group	-14820
▁exxon	-14821
▁press	-14822
▁tinto	-14823
▁Парыз	-14824
▁Тайип	-14825
▁Хасан	-14826
▁аванс	-14827
▁алғаш	-14828
▁асқын	-14829
▁ақпен	-14830
▁базис	-14831
▁бород	-14832
▁дұғал	-14833
▁елдіг	-14834
▁завод	-14835
▁зайып	-14836
▁катал	-14837
▁кауст	-14838
▁кенел	-14839
▁кілер	-14840
▁күйре	-14841
▁летіп	-14842
▁лысын	-14843
▁марал	-14844
▁мекем	-14845
▁мойны	-14846
▁насос	-14847
▁ойнат	-14848
▁октан	-14849
▁оптим	-14850
▁прода	-14851
▁салон	-14852
▁саған	-14853
▁спирт	-14854
▁термо	-14855
▁тираж	-14856
▁Ғалым	-14857
▁ғайыр	-14858
▁Әрбір	-14859
▁өлшен	-14860
абайұлы	-14861
лендіру	-14862
оллаұлы	-14863
шілігін	-14864
ядролық	-14865
ғазиева	-14866
▁Жолдас	-14867
▁азевед	-14868
▁азиада	-14869
▁альбер	-14870
▁анджей	-14871
▁ақтоты	-14872
▁базары	-14873
▁балхаш	-14874
▁бурное	-14875
▁бүйрек	-14876
▁бұқтыр	-14877
▁гарант	-14878
▁гүлнәр	-14879
▁динара	-14880
▁дулати	-14881
▁діңгег	-14882
▁зертеу	-14883
▁каратэ	-14884
▁картон	-14885
▁кептел	-14886
▁күмбез	-14887
▁кәсіпо	-14888
▁маневр	-14889
▁мишель	-14890
▁мызғым	-14891
▁мәрмәр	-14892
▁николя	-14893
▁патрон	-14894
▁петров	-14895
▁россия	-14896
▁сайман	-14897
▁сальдо	-14898
▁сорбон	-14899
▁соққан	-14900
▁сталин	-14901
▁сұңқар	-14902
▁таннан	-14903
▁татула	-14904
▁төлеби	-14905
▁шамалы	-14906
▁ықтияр	-14907
▁экспор	-14908
▁қызғал	-14909
байланыс	-14910
ратислав	-14911
рахманов	-14912
тенштейн	-14913
уациялық	-14914
▁systems	-14915
▁Дәленов	-14916
▁Мыңбаев	-14917
▁Ынтымақ	-14918
▁анастас	-14919
▁валовая	-14920
▁еуразэо	-14921
▁желбіре	-14922
▁ибрахим	-14923
▁казагро	-14924
▁камилов	-14925
▁кемпинг	-14926
▁ломбард	-14927
▁мұратов	-14928
▁петиция	-14929
▁проблем	-14930
▁сценари	-14931
▁таласов	-14932
▁ханамен	-14933
▁хасенов	-14934
▁шәкәрім	-14935
▁энергос	-14936
▁қайтара	-14937
▁әсемдіг	-14938
▁өсімпұл	-14939
▁airlines	-14940
▁Атамбаев	-14941
▁Бауыржан	-14942
▁Инвестор	-14943
▁Сарыарқа	-14944
▁Словения	-14945
▁асқақтат	-14946
▁жандосов	-14947
▁жансүгір	-14948
▁киловатт	-14949
▁корешков	-14950
▁көрінген	-14951
▁михайлов	-14952
▁муттонен	-14953
▁ниинистё	-14954
▁торайғыр	-14955
▁трамплин	-14956
▁урбандал	-14957
▁филиппин	-14958
▁цзиньтао	-14959
▁эстетика	-14960
▁қазандығ	-14961
▁қантөгіс	-14962
▁әбілғазы	-14963
▁Екібастұз	-14964
▁Македония	-14965
▁артқандығ	-14966
▁генерация	-14967
▁жанейрода	-14968
▁иерусалим	-14969
▁кириллица	-14970
▁контигент	-14971
▁парамаунт	-14972
▁синтетика	-14973
▁соспанова	-14974
▁таргеттеу	-14975
▁франциско	-14976
▁христенко	-14977
▁ірілендір	-14978
▁қазқастан	-14979
▁қанағатов	-14980
▁қандыағаш	-14981
▁қарашығын	-14982
▁Меморандум	-14983
▁Мұхамбетов	-14984
▁беларуссия	-14985
▁бигелдинов	-14986
▁дамығандығ	-14987
▁дәйектілік	-14988
▁дәріптеуге	-14989
▁көкрекбаев	-14990
▁оксамитный	-14991
▁проактивті	-14992
▁радиоактив	-14993
▁черногория	-14994
▁қарағұсова	-14995
▁қожахметов	-14996
▁development	-14997
▁electronics	-14998
▁автостанция	-14999
▁анықтамалығ	-15000
▁байтұрсынов	-15001
▁броньдалған	-15002
▁дистрибуция	-15003
▁координация	-15004
▁нейрохирург	-15005
▁перинаталды	-15006
▁ультрадыбыс	-15007
▁өтетіндігін	-15008
▁Түркіменстан	-15009
▁айтмұхаметов	-15010
▁деструктивті	-15011
▁дүниежүзінде	-15012
▁лукашенконың	-15013
▁ортағасырлық	-15014
▁өзенмұнайгаз	-15015
▁альтернативті	-15016
▁дактилоскопия	-15017
▁консулдығының	-15018
▁парламентария	-15019
▁ықпалдастырыл	-15020
▁мемлекетішілік	-15021
▁рационализатор	-15022
▁декларациялауды	-15023
▁жалпыкомандалық	-15024
79	-15025
GY	-15026
ah	-15027
ep	-15028
io	-15029
pi	-15030
ИЯ	-15031
МУ	-15032
рм	-15033
хи	-15034
хк	-15035
шо	-15036
эф	-15037
ұк	-15038
әш	-15039
өб	-15040
өт	-15041
ars	-15042
ide	-15043
ile	-15044
ont	-15045
ris	-15046
ymk	-15047
ТОМ	-15048
ақұ	-15049
бах	-15050
бус	-15051
гез	-15052
гем	-15053
дыұ	-15054
еме	-15055
еса	-15056
мін	-15057
ока	-15058
пел	-15059
пон	-15060
рез	-15061
сағ	-15062
сым	-15063
том	-15064
уду	-15065
уев	-15066
уса	-15067
уыс	-15068
хуа	-15069
ыте	-15070
ьез	-15071
эйл	-15072
▁NA	-15073
▁Sh	-15074
▁an	-15075
▁ho	-15076
▁wh	-15077
▁ws	-15078
▁БЖ	-15079
▁Ге	-15080
▁Жү	-15081
▁ЖӨ	-15082
▁МГ	-15083
▁Не	-15084
▁Об	-15085
▁Шу	-15086
▁ил	-15087
▁иі	-15088
▁пв	-15089
▁ңе	-15090
▁Өр	-15091
ENER	-15092
eway	-15093
ilim	-15094
orov	-15095
osco	-15096
акси	-15097
алыс	-15098
амал	-15099
арад	-15100
грам	-15101
дыға	-15102
евна	-15103
изам	-15104
ийон	-15105
ильв	-15106
ишев	-15107
мала	-15108
миак	-15109
мірт	-15110
олар	-15111
омпа	-15112
оғлы	-15113
теев	-15114
тену	-15115
уерт	-15116
улер	-15117
улия	-15118
фред	-15119
цинк	-15120
чейн	-15121
ұлақ	-15122
▁332	-15123
▁347	-15124
▁351	-15125
▁358	-15126
▁361	-15127
▁379	-15128
▁382	-15129
▁389	-15130
▁394	-15131
▁395	-15132
▁436	-15133
▁451	-15134
▁473	-15135
▁478	-15136
▁485	-15137
▁495	-15138
▁556	-15139
▁567	-15140
▁575	-15141
▁590	-15142
▁593	-15143
▁617	-15144
▁690	-15145
▁725	-15146
▁777	-15147
▁809	-15148
▁825	-15149
▁app	-15150
▁ass	-15151
▁bas	-15152
▁bbb	-15153
▁Гри	-15154
▁Гур	-15155
▁Мох	-15156
▁Мін	-15157
▁Нем	-15158
▁Омб	-15159
▁ПАА	-15160
▁Рус	-15161
▁Түй	-15162
▁акм	-15163
▁ару	-15164
▁бие	-15165
▁бөк	-15166
▁вич	-15167
▁год	-15168
▁гуз	-15169
▁гул	-15170
▁дик	-15171
▁жен	-15172
▁жес	-15173
▁жіп	-15174
▁ион	-15175
▁кср	-15176
▁кул	-15177
▁кун	-15178
▁кыз	-15179
▁лок	-15180
▁мия	-15181
▁мәң	-15182
▁нда	-15183
▁оза	-15184
▁орф	-15185
▁рия	-15186
▁рот	-15187
▁саф	-15188
▁хош	-15189
▁хун	-15190
▁шәй	-15191
▁қию	-15192
▁қтқ	-15193
▁Әйт	-15194
▁әні	-15195
▁Өте	-15196
stand	-15197
аймақ	-15198
андра	-15199
антон	-15200
апния	-15201
атына	-15202
былай	-15203
даева	-15204
дерін	-15205
етіне	-15206
илері	-15207
инова	-15208
копея	-15209
майыл	-15210
мұрат	-15211
обода	-15212
олков	-15213
стері	-15214
ілігі	-15215
ғанша	-15216
▁1950	-15217
▁1975	-15218
▁1979	-15219
▁chem	-15220
▁econ	-15221
▁enrc	-15222
▁silk	-15223
▁АТОМ	-15224
▁Куба	-15225
▁Сеул	-15226
▁алты	-15227
▁алын	-15228
▁аққу	-15229
▁бегі	-15230
▁беки	-15231
▁будд	-15232
▁верт	-15233
▁гани	-15234
▁есек	-15235
▁жаны	-15236
▁зейн	-15237
▁инфр	-15238
▁йтін	-15239
▁крип	-15240
▁маур	-15241
▁моди	-15242
▁пест	-15243
▁разы	-15244
▁стір	-15245
▁тебу	-15246
▁тиел	-15247
▁тимо	-15248
▁тізе	-15249
▁шеге	-15250
▁шира	-15251
▁шүбә	-15252
▁шүге	-15253
▁ыбыр	-15254
▁ышым	-15255
▁эндр	-15256
▁якоб	-15257
▁інжу	-15258
▁ініс	-15259
▁ҚСЗИ	-15260
▁Қазы	-15261
▁қыта	-15262
▁әуер	-15263
▁өнір	-15264
ENERGY	-15265
pharma	-15266
ymkent	-15267
аларға	-15268
андина	-15269
еляция	-15270
етарлы	-15271
заттық	-15272
итеатр	-15273
летаев	-15274
мадиев	-15275
манұлы	-15276
местен	-15277
оматия	-15278
саттар	-15279
тартпа	-15280
уалиев	-15281
цемент	-15282
ұмаров	-15283
▁moody	-15284
▁Аустр	-15285
▁Дэвид	-15286
▁Музей	-15287
▁Пекин	-15288
▁Скляр	-15289
▁Хабар	-15290
▁алдыр	-15291
▁алтау	-15292
▁ақтың	-15293
▁билеу	-15294
▁бірін	-15295
▁гранд	-15296
▁давос	-15297
▁европ	-15298
▁жүрек	-15299
▁жөнел	-15300
▁ингуш	-15301
▁кнауф	-15302
▁күдік	-15303
▁ленин	-15304
▁минас	-15305
▁монак	-15306
▁озған	-15307
▁рашит	-15308
▁рецеп	-15309
▁рольф	-15310
▁салем	-15311
▁самит	-15312
▁сауыт	-15313
▁сейда	-15314
▁сұрат	-15315
▁тоғай	-15316
▁түйме	-15317
▁шенің	-15318
▁іннің	-15319
▁ғабит	-15320
▁қарам	-15321
▁құрса	-15322
амадиев	-15323
ахметов	-15324
ациялық	-15325
дендіру	-15326
дерінің	-15327
ильянов	-15328
мұхамет	-15329
ометрия	-15330
стердам	-15331
▁Асанов	-15332
▁Имашев	-15333
▁Отбасы	-15334
▁аммиак	-15335
▁аналог	-15336
▁барани	-15337
▁газета	-15338
▁гердік	-15339
▁герцог	-15340
▁глобал	-15341
▁глубок	-15342
▁жанкеш	-15343
▁жұқтыр	-15344
▁зұлмат	-15345
▁калибр	-15346
▁кейлер	-15347
▁космос	-15348
▁күйдір	-15349
▁көкпек	-15350
▁лейтін	-15351
▁мадани	-15352
▁макрон	-15353
▁мальта	-15354
▁мақтар	-15355
▁полтор	-15356
▁сенсор	-15357
▁стимул	-15358
▁суасты	-15359
▁тартпа	-15360
▁тасжол	-15361
▁таңқал	-15362
▁тойота	-15363
▁түптеп	-15364
▁хоргос	-15365
▁челябі	-15366
▁шылдар	-15367
▁эдуард	-15368
▁энерге	-15369
▁қолғап	-15370
loomberg	-15371
ographic	-15372
ервистік	-15373
орология	-15374
тангерел	-15375
хирургия	-15376
▁caspian	-15377
▁chevron	-15378
▁Гумилев	-15379
▁Елшіліг	-15380
▁Марокко	-15381
▁автобан	-15382
▁алтынай	-15383
▁антонио	-15384
▁беталыс	-15385
▁бойымен	-15386
[...]
